{"version":"1.0","truncation":null,"padding":null,"added_tokens":[{"id":0,"special":true,"content":"[MASK]","single_word":false,"lstrip":false,"rstrip":false,"normalized":false},{"id":1,"special":true,"content":"[CLS]","single_word":false,"lstrip":false,"rstrip":false,"normalized":false},{"id":2,"special":true,"content":"[SEP]","single_word":false,"lstrip":false,"rstrip":false,"normalized":false},{"id":3,"special":true,"content":"[PAD]","single_word":false,"lstrip":false,"rstrip":false,"normalized":false},{"id":4,"special":true,"content":"[UNK]","single_word":false,"lstrip":false,"rstrip":false,"normalized":false},{"id":5,"special":true,"content":"[en]","single_word":false,"lstrip":false,"rstrip":false,"normalized":false},{"id":6,"special":true,"content":"[de]","single_word":false,"lstrip":false,"rstrip":false,"normalized":false},{"id":7,"special":true,"content":"[fr]","single_word":false,"lstrip":false,"rstrip":false,"normalized":false}],"normalizer":null,"pre_tokenizer":{"type":"Whitespace"},"post_processor":{"type":"TemplateProcessing","single":[{"SpecialToken":{"id":"[CLS]","type_id":0}},{"Sequence":{"id":"A","type_id":0}},{"SpecialToken":{"id":"[SEP]","type_id":0}}],"pair":[{"SpecialToken":{"id":"[CLS]","type_id":0}},{"Sequence":{"id":"A","type_id":0}},{"SpecialToken":{"id":"[SEP]","type_id":0}},{"Sequence":{"id":"B","type_id":1}},{"SpecialToken":{"id":"[SEP]","type_id":1}}],"special_tokens":{"[CLS]":{"id":"[CLS]","ids":[1],"tokens":["[CLS]"]},"[SEP]":{"id":"[SEP]","ids":[2],"tokens":["[SEP]"]}}},"decoder":null,"model":{"type":"BPE","dropout":null,"unk_token":"[UNK]","continuing_subword_prefix":null,"end_of_word_suffix":null,"fuse_unk":false,"vocab":{"[MASK]":0,"[CLS]":1,"[SEP]":2,"[PAD]":3,"[UNK]":4,"[en]":5,"[de]":6,"[fr]":7,"!":8,"\"":9,"#":10,"$":11,"%":12,"&":13,"(":14,")":15,"*":16,"+":17,",":18,"-":19,".":20,"/":21,"0":22,"1":23,"2":24,"3":25,"4":26,"5":27,"6":28,"7":29,"8":30,"9":31,":":32,";":33,"=":34,"?":35,"@":36,"A":37,"B":38,"C":39,"D":40,"E":41,"F":42,"G":43,"H":44,"I":45,"J":46,"K":47,"L":48,"M":49,"N":50,"O":51,"P":52,"Q":53,"R":54,"S":55,"T":56,"U":57,"V":58,"W":59,"X":60,"Y":61,"Z":62,"\\":63,"^":64,"_":65,"`":66,"a":67,"b":68,"c":69,"d":70,"e":71,"f":72,"g":73,"h":74,"i":75,"j":76,"k":77,"l":78,"m":79,"n":80,"o":81,"p":82,"q":83,"r":84,"s":85,"t":86,"u":87,"v":88,"w":89,"x":90,"y":91,"z":92,"~":93,"":94,"":95,"":96,"":97,"":98,"":99,"£":100,"¥":101,"¨":102,"©":103,"«":104,"­":105,"®":106,"°":107,"²":108,"³":109,"´":110,"µ":111,"¶":112,"º":113,"»":114,"¼":115,"½":116,"¾":117,"À":118,"Â":119,"Ä":120,"Å":121,"Ç":122,"È":123,"É":124,"Ê":125,"Ì":126,"Î":127,"Ï":128,"Ô":129,"Ö":130,"Ü":131,"ß":132,"à":133,"á":134,"â":135,"ã":136,"ä":137,"æ":138,"ç":139,"è":140,"é":141,"ê":142,"ë":143,"í":144,"î":145,"ï":146,"ñ":147,"ó":148,"ô":149,"ö":150,"ø":151,"ù":152,"ú":153,"û":154,"ü":155,"ý":156,"ā":157,"Ă":158,"ć":159,"ē":160,"Ė":161,"ī":162,"Ō":163,"ō":164,"Œ":165,"œ":166,"š":167,"Ť":168,"Ű":169,"ȇ":170,"́":171,"̐":172,"Ε":173,"α":174,"β":175,"ε":176,"η":177,"ι":178,"κ":179,"λ":180,"ν":181,"ρ":182,"σ":183,"τ":184,"υ":185,"χ":186,"ω":187,"к":188,"Ӓ":189,"ย":190,"ร":191,"อ":192,"่":193,"​":194,"‌":195,"‒":196,"–":197,"—":198,"‘":199,"’":200,"‚":201,"“":202,"”":203,"„":204,"‟":205,"…":206,"‹":207,"›":208,"€":209,"™":210,"∇":211,"≈":212,"♪":213,"♫":214,"﻿":215,"，":216,"�":217,"en":218,"er":219,"es":220,"in":221,"ch":222,"an":223,"on":224,"th":225,"ou":226,"is":227,"os":228,"ap":229,"re":230,"qu":231,"it":232,"un":233,"le":234,"apos":235,"ie":236,"at":237,"de":238,"as":239,"ar":240,"al":241,"te":242,"or":243,"au":244,"ent":245,"ot":246,"the":247,"ich":248,"et":249,"il":250,"se":251,"ir":252,"om":253,"ein":254,"el":255,"and":256,"ion":257,"ing":258,"ur":259,"quot":260,"to":261,"st":262,"la":263,"der":264,"ous":265,"ce":266,"of":267,"me":268,"be":269,"est":270,"ve":271,"ge":272,"di":273,"pr":274,"que":275,"tr":276,"les":277,"our":278,"ver":279,"ol":280,"ab":281,"im":282,"die":283,"ig":284,"us":285,"und":286,"ne":287,"ut":288,"ic":289,"we":290,"ist":291,"nd":292,"des":293,"ter":294,"den":295,"das":296,"ma":297,"that":298,"ant":299,"ment":300,"sch":301,"gen":302,"all":303,"ten":304,"he":305,"ra":306,"ere":307,"pl":308,"fa":309,"zu":310,"so":311,"com":312,"ans":313,"pe":314,"ier":315,"ct":316,"ow":317,"sa":318,"wir":319,"hr":320,"wh":321,"par":322,"con":323,"ation":324,"am":325,"you":326,"von":327,"out":328,"for":329,"du":330,"ke":331,"une":332,"icht":333,"eine":334,"um":335,"ha":336,"was":337,"je":338,"pas":339,"lich":340,"op":341,"ta":342,"ro":343,"ber":344,"si":345,"li":346,"nous":347,"ont":348,"qui":349,"vous":350,"pour":351,"pro":352,"And":353,"ung":354,"mo":355,"su":356,"dies":357,"ff":358,"per":359,"ind":360,"ex":361,"ri":362,"aus":363,"dé":364,"sie":365,"ach":366,"ci":367,"ul":368,"this":369,"ai":370,"dans":371,"ann":372,"ré":373,"men":374,"ag":375,"auf":376,"Sie":377,"nen":378,"man":379,"ck":380,"sen":381,"ill":382,"are":383,"ür":384,"gr":385,"do":386,"av":387,"ay":388,"Et":389,"ed":390,"ste":391,"nicht":392,"end":393,"tre":394,"ces":395,"ine":396,"ben":397,"dass":398,"ser":399,"Und":400,"ais":401,"war":402,"ht":403,"mit":404,"che":405,"ld":406,"chen":407,"ire":408,"ort":409,"hat":410,"if":411,"ll":412,"ien":413,"lo":414,"00":415,"sur":416,"hen":417,"mon":418,"son":419,"ure":420,"ith":421,"ly":422,"vo":423,"res":424,"cou":425,"go":426,"wie":427,"ally":428,"not":429,"plus":430,"In":431,"one":432,"enn":433,"iel":434,"fr":435,"ux":436,"can":437,"em":438,"have":439,"So":440,"ons":441,"té":442,"ies":443,"with":444,"ad":445,"wor":446,"ave":447,"elle":448,"sich":449,"ions":450,"ze":451,"hab":452,"ite":453,"dem":454,"they":455,"ble":456,"Le":457,"oll":458,"wer":459,"ell":460,"Ich":461,"som":462,"als":463,"mes":464,"vi":465,"og":466,"kt":467,"thing":468,"don":469,"für":470,"ate":471,"no":472,"mer":473,"ang":474,"ait":475,"ust":476,"sind":477,"act":478,"fe":479,"vons":480,"ac":481,"ön":482,"very":483,"The":484,"über":485,"pen":486,"haben":487,"now":488,"uns":489,"id":490,"what":491,"ther":492,"br":493,"her":494,"ose":495,"sp":496,"ils":497,"about":498,"éta":499,"ple":500,"ft":501,"Th":502,"We":503,"ique":504,"Il":505,"dis":506,"ité":507,"ér":508,"ause":509,"co":510,"ère":511,"ven":512,"part":513,"ès":514,"ru":515,"ob":516,"ib":517,"sont":518,"ess":519,"ner":520,"ain":521,"fait":522,"ges":523,"age":524,"od":525,"ive":526,"ette":527,"Das":528,"avec":529,"Je":530,"da":531,"Al":532,"kön":533,"Es":534,"ye":535,"bl":536,"einen":537,"gh":538,"mais":539,"aux":540,"able":541,"Wir":542,"hl":543,"my":544,"ight":545,"fin":546,"leur":547,"art":548,"olog":549,"ok":550,"there":551,"It":552,"ins":553,"iv":554,"tout":555,"sh":556,"Sch":557,"ée":558,"ph":559,"Be":560,"ors":561,"ue":562,"some":563,"cht":564,"ink":565,"up":566,"bes":567,"vor":568,"ici":569,"än":570,"diese":571,"Er":572,"sel":573,"ity":574,"cer":575,"és":576,"Un":577,"ute":578,"ese":579,"get":580,"quel":581,"ti":582,"ople":583,"vie":584,"igen":585,"wo":586,"like":587,"ger":588,"pos":589,"inter":590,"but":591,"pu":592,"ça":593,"alle":594,"comme":595,"from":596,"ise":597,"ale":598,"Ja":599,"gan":600,"fo":601,"ars":602,"po":603,"people":604,"pou":605,"cette":606,"En":607,"vers":608,"port":609,"Ar":610,"faire":611,"ken":612,"also":613,"sy":614,"Ver":615,"avons":616,"An":617,"diff":618,"être":619,"way":620,"cent":621,"ques":622,"einer":623,"cause":624,"était":625,"St":626,"just":627,"wenn":628,"Ge":629,"ih":630,"zen":631,"aut":632,"ted":633,"know":634,"ik":635,"mal":636,"jour":637,"them":638,"können":639,"its":640,"Ap":641,"ient":642,"ard":643,"chn":644,"ires":645,"ign":646,"cl":647,"ence":648,"fl":649,"elt":650,"pla":651,"ance":652,"pre":653,"ould":654,"pt":655,"auch":656,"kann":657,"werden":658,"ieren":659,"kom":660,"ées":661,"form":662,"But":663,"Pro":664,"iment":665,"ast":666,"Men":667,"Mais":668,"these":669,"scha":670,"schen":671,"ren":672,"Re":673,"einem":674,"Nous":675,"hren":676,"mar":677,"ild":678,"ange":679,"oder":680,"by":681,"ungen":682,"sein":683,"dit":684,"Appl":685,"iert":686,"ern":687,"hal":688,"Die":689,"ide":690,"vent":691,"ers":692,"think":693,"bien":694,"dern":695,"ps":696,"ille":697,"use":698,"uch":699,"fü":700,"going":701,"tra":702,"person":703,"vra":704,"ui":705,"ét":706,"Aber":707,"ments":708,"ick":709,"mus":710,"très":711,"mê":712,"äch":713,"who":714,"voir":715,"ord":716,"see":717,"aber":718,"ela":719,"ations":720,"ants":721,"ost":722,"ige":723,"hier":724,"zt":725,"dar":726,"int":727,"urs":728,"ound":729,"nach":730,"other":731,"had":732,"cre":733,"ank":734,"cr":735,"ction":736,"dur":737,"bo":738,"Ges":739,"more":740,"viel":741,"ibt":742,"cher":743,"peut":744,"sehr":745,"été":746,"lie":747,"when":748,"wird":749,"bei":750,"vez":751,"Au":752,"ät":753,"will":754,"nur":755,"rie":756,"let":757,"jet":758,"say":759,"sehen":760,"ong":761,"comp":762,"gar":763,"app":764,"iz":765,"because":766,"sol":767,"wis":768,"gens":769,"car":770,"itt":771,"bre":772,"how":773,"which":774,"ière":775,"tell":776,"tem":777,"were":778,"chnolog":779,"your":780,"dire":781,"même":782,"ück":783,"Menschen":784,"here":785,"would":786,"has":787,"his":788,"monde":789,"Te":790,"work":791,"vol":792,"gibt":793,"really":794,"actu":795,"iss":796,"ander":797,"mich":798,"their":799,"gl":800,"pa":801,"wur":802,"pass":803,"vel":804,"iten":805,"oi":806,"ème":807,"You":808,"met":809,"own":810,"time":811,"cour":812,"dann":813,"én":814,"chose":815,"This":816,"under":817,"main":818,"ater":819,"000":820,"min":821,"coup":822,"fen":823,"..":824,"peu":825,"La":826,"where":827,"look":828,"produ":829,"day":830,"ler":831,"sten":832,"then":833,"ult":834,"noch":835,"Ih":836,"lle":837,"mir":838,"hn":839,"world":840,"tres":841,"gt":842,"Was":843,"sim":844,"ba":845,"Se":846,"etwas":847,"stru":848,"schaft":849,"Ce":850,"Ze":851,"ats":852,"mö":853,"cela":854,"bas":855,"wä":856,"ule":857,"bet":858,"ough":859,"iter":860,"hin":861,"trou":862,"vir":863,"mé":864,"tes":865,"où":866,"habe":867,"vis":868,"into":869,"entre":870,"actually":871,"any":872,"augh":873,"pré":874,"stell":875,"ents":876,"gra":877,"là":878,"mehr":879,"beau":880,"dieser":881,"aient":882,"every":883,"chte":884,"notre":885,"zur":886,"ty":887,"unter":888,"aughter":889,"Don":890,"quand":891,"cé":892,"ande":893,"fer":894,"orte":895,"ca":896,"Welt":897,"ug":898,"nat":899,"spe":900,"ör":901,"roß":902,"durch":903,"iques":904,"Vous":905,"suis":906,"20":907,"could":908,"Ein":909,"gre":910,"mat":911,"ution":912,"Ne":913,"wei":914,"years":915,"net":916,"endre":917,"tous":918,"isch":919,"ische":920,"things":921,"mil":922,"dr":923,"vraiment":924,"util":925,"col":926,"deux":927,"tou":928,"dre":929,"lichen":930,"Now":931,"Laughter":932,"bu":933,"import":934,"Les":935,"technolog":936,"did":937,"trav":938,"19":939,"put":940,"ile":941,"nes":942,"ass":943,"aussi":944,"stand":945,"beaucoup":946,"cro":947,"ischen":948,"ak":949,"Dies":950,"gu":951,"They":952,"sou":953,"ja":954,"Wenn":955,"been":956,"On":957,"cré":958,"quest":959,"oses":960,"He":961,"wirk":962,"Qu":963,"Leben":964,"keit":965,"10":966,"want":967,"liche":968,"sem":969,"donc":970,"ho":971,"na":972,"Donc":973,"ition":974,"trans":975,"illion":976,"immer":977,"auen":978,"parce":979,"bar":980,"unser":981,"ts":982,"wa":983,"stem":984,"vais":985,"bin":986,"alk":987,"over":988,"gel":989,"pet":990,"wür":991,"bon":992,"make":993,"sci":994,"üs":995,"autre":996,"elles":997,"blem":998,"ial":999,"mun":1000,"choses":1001,"plan":1002,"wen":1003,"new":1004,"right":1005,"ves":1006,"tenant":1007,"Gr":1008,"quoi":1009,"machen":1010,"Zeit":1011,"Rires":1012,"fir":1013,"than":1014,"puis":1015,"fois":1016,"commen":1017,"heit":1018,"cap":1019,"wurde":1020,"hmen":1021,"jus":1022,"change":1023,"cor":1024,"back":1025,"tun":1026,"pris":1027,"temps":1028,"kommen":1029,"most":1030,"hap":1031,"trava":1032,"nos":1033,"cha":1034,"zum":1035,"grand":1036,"leurs":1037,"kon":1038,"ory":1039,"tro":1040,"Fr":1041,"pol":1042,"ical":1043,"Ihnen":1044,"got":1045,"unsere":1046,"groß":1047,"come":1048,"ds":1049,"att":1050,"moi":1051,"bra":1052,"Com":1053,"bst":1054,"ihr":1055,"bi":1056,"point":1057,"kind":1058,"einfa":1059,"something":1060,"ice":1061,"eff":1062,"sé":1063,"ated":1064,"mt":1065,"ungs":1066,"quelque":1067,"ures":1068,"af":1069,"wirklich":1070,"vou":1071,"oir":1072,"Or":1073,"rel":1074,"utilis":1075,"ked":1076,"lot":1077,"much":1078,"soci":1079,"Ding":1080,"aten":1081,"Me":1082,"ittle":1083,"two":1084,"ines":1085,"arri":1086,"kle":1087,"otre":1088,"Gel":1089,"try":1090,"nou":1091,"zus":1092,"said":1093,"ante":1094,"avait":1095,"Par":1096,"weil":1097,"enf":1098,"hum":1099,"oment":1100,"&#":1101,"prem":1102,"differ":1103,"dam":1104,"Ils":1105,"lang":1106,"little":1107,"pon":1108,"va":1109,"contr":1110,"pay":1111,"ihre":1112,"Also":1113,"stu":1114,"gte":1115,"hom":1116,"idé":1117,"thr":1118,"pres":1119,"Gesch":1120,"first":1121,"need":1122,"lé":1123,"autres":1124,"fon":1125,"ens":1126,"off":1127,"meine":1128,"50":1129,"De":1130,"vé":1131,"iger":1132,"las":1133,"those":1134,"pense":1135,"arbe":1136,"itu":1137,"bis":1138,"ree":1139,"That":1140,"str":1141,"ses":1142,"alis":1143,"ip":1144,"ving":1145,"mein":1146,"ful":1147,"wissen":1148,"beg":1149,"hu":1150,"sent":1151,"woll":1152,"avoir":1153,"sort":1154,"bring":1155,"imag":1156,"important":1157,"pend":1158,"star":1159,"dieses":1160,"cas":1161,"certa":1162,"tel":1163,"aire":1164,"sto":1165,"happen":1166,"hatte":1167,"long":1168,"soll":1169,"prendre":1170,"ün":1171,"formation":1172,"dig":1173,"müs":1174,"schie":1175,"cle":1176,"Man":1177,"Ch":1178,"pouvez":1179,"eing":1180,"zie":1181,"votre":1182,"différ":1183,"cal":1184,"inté":1185,"ys":1186,"viron":1187,"fri":1188,"gle":1189,"cess":1190,"fra":1191,"Vo":1192,"ia":1193,"life":1194,"éri":1195,"possi":1196,"organ":1197,"commun":1198,"achen":1199,"gie":1200,"nte":1201,"dent":1202,"hy":1203,"probl":1204,"she":1205,"ody":1206,"What":1207,"environ":1208,"core":1209,"glich":1210,"keine":1211,"ded":1212,"prop":1213,"tu":1214,"ffen":1215,"fä":1216,"einfach":1217,"question":1218,"diesem":1219,"bor":1220,"bel":1221,"sagen":1222,"ktion":1223,"né":1224,"only":1225,"asse":1226,"waren":1227,"macht":1228,"comment":1229,"lt":1230,"real":1231,"Vor":1232,"place":1233,"nom":1234,"best":1235,"Leute":1236,"simple":1237,"Inter":1238,"cell":1239,"old":1240,"cu":1241,"kl":1242,"müssen":1243,"jours":1244,"nie":1245,"hlen":1246,"take":1247,"mag":1248,"Jahr":1249,"ivers":1250,"hig":1251,"gut":1252,"Art":1253,"hre":1254,"even":1255,"down":1256,"rit":1257,"ght":1258,"diesen":1259,"many":1260,"ject":1261,"erre":1262,"fil":1263,"different":1264,"Alors":1265,"avez":1266,"piel":1267,"Dinge":1268,"ichte":1269,"coun":1270,"200":1271,"çon":1272,"eu":1273,"leicht":1274,"pat":1275,"cur":1276,"For":1277,"viele":1278,"tin":1279,"sommes":1280,"arch":1281,"body":1282,"ßen":1283,"There":1284,"conom":1285,"eines":1286,"Si":1287,"talk":1288,"prof":1289,"Jahren":1290,"rais":1291,"velop":1292,"self":1293,"moment":1294,"system":1295,"seule":1296,"grap":1297,"does":1298,"around":1299,"non":1300,"Kin":1301,"hel":1302,"äu":1303,"through":1304,"Aus":1305,"andere":1306,"king":1307,"zwei":1308,"fais":1309,"bit":1310,"unden":1311,"lec":1312,"jetzt":1313,"sements":1314,"good":1315,"imp":1316,"ica":1317,"histo":1318,"land":1319,"sagte":1320,"iste":1321,"ammen":1322,"bal":1323,"fol":1324,"audis":1325,"ères":1326,"same":1327,"Applause":1328,"isten":1329,"Wie":1330,"fact":1331,"gram":1332,"human":1333,"cy":1334,"tru":1335,"ichtig":1336,"geben":1337,"alles":1338,"mot":1339,"fun":1340,"mor":1341,"reg":1342,"années":1343,"gehen":1344,"halten":1345,"teil":1346,"...":1347,"geht":1348,"encore":1349,"nis":1350,"oto":1351,"gén":1352,"audissements":1353,"glau":1354,"ely":1355,"face":1356,"wieder":1357,"Well":1358,"inn":1359,"aller":1360,"expl":1361,"rait":1362,"chang":1363,"veau":1364,"dont":1365,"oin":1366,"inst":1367,"nehmen":1368,"wick":1369,"iers":1370,"mill":1371,"Unter":1372,"det":1373,"mis":1374,"tur":1375,"personnes":1376,"hand":1377,"geb":1378,"Der":1379,"maintenant":1380,"anderen":1381,"30":1382,"oh":1383,"set":1384,"Applaudissements":1385,"vre":1386,"side":1387,"alt":1388,"Mon":1389,"ession":1390,"ary":1391,"Mus":1392,"sc":1393,"ought":1394,"being":1395,"cept":1396,"façon":1397,"finden":1398,"ität":1399,"Pl":1400,"problem":1401,"big":1402,"sign":1403,"weiter":1404,"gleich":1405,"anim":1406,"ting":1407,"erst":1408,"würde":1409,"hui":1410,"volution":1411,"Pr":1412,"Kon":1413,"fall":1414,"constru":1415,"gew":1416,"kam":1417,"dev":1418,"nu":1419,"tats":1420,"ates":1421,"aum":1422,"oc":1423,"mand":1424,"juste":1425,"fore":1426,"selbst":1427,"find":1428,"yez":1429,"Mit":1430,"oss":1431,"damit":1432,"semble":1433,"toutes":1434,"imes":1435,"jourd":1436,"ict":1437,"änder":1438,"Jahre":1439,"enfants":1440,"well":1441,"ase":1442,"year":1443,"uss":1444,"Her":1445,"read":1446,"alors":1447,"är":1448,"Auf":1449,"Tr":1450,"alité":1451,"doing":1452,"tement":1453,"leben":1454,"ade":1455,"polit":1456,"lui":1457,"ved":1458,"Des":1459,"ix":1460,"exper":1461,"chten":1462,"igt":1463,"prob":1464,"ächter":1465,"alement":1466,"zent":1467,"ites":1468,"Applaus":1469,"veux":1470,"neu":1471,"Pour":1472,"fut":1473,"show":1474,"If":1475,"ener":1476,"syst":1477,"bil":1478,"Ent":1479,"may":1480,"avant":1481,"ating":1482,"lais":1483,"lau":1484,"Gelächter":1485,"val":1486,"pays":1487,"fem":1488,"stehen":1489,"gest":1490,"doll":1491,"denken":1492,"gesch":1493,"nor":1494,"ry":1495,"percent":1496,"ress":1497,"ational":1498,"zurück":1499,"tet":1500,"pendant":1501,"alled":1502,"nement":1503,"xt":1504,"ches":1505,"tour":1506,"ics":1507,"partic":1508,"genau":1509,"quelques":1510,"comple":1511,"build":1512,"ordin":1513,"besoin":1514,"stellen":1515,"child":1516,"regar":1517,"start":1518,"pie":1519,"sans":1520,"100":1521,"ED":1522,"sm":1523,"gend":1524,"air":1525,"lim":1526,"publ":1527,"acc":1528,"wel":1529,"three":1530,"Nach":1531,"ower":1532,"ächlich":1533,"grou":1534,"dien":1535,"called":1536,"New":1537,"voy":1538,"issen":1539,"ace":1540,"ically":1541,"Lachen":1542,"muss":1543,"Ma":1544,"ways":1545,"possible":1546,"Mo":1547,"rap":1548,"histoire":1549,"ome":1550,"Nun":1551,"omen":1552,"Mer":1553,"rest":1554,"tant":1555,"Fre":1556,"Sy":1557,"tern":1558,"pouvons":1559,"ep":1560,"came":1561,"Um":1562,"seine":1563,"amp":1564,"abil":1565,"ative":1566,"secon":1567,"four":1568,"lar":1569,"exem":1570,"jamais":1571,"gab":1572,"ned":1573,"great":1574,"trois":1575,"ish":1576,"ging":1577,"ffe":1578,"Kinder":1579,"indi":1580,"Fra":1581,"sup":1582,"fre":1583,"heraus":1584,"möchte":1585,"idée":1586,"moins":1587,"ones":1588,"Amer":1589,"num":1590,"étu":1591,"iqu":1592,"ital":1593,"denn":1594,"Br":1595,"appel":1596,"Ide":1597,"made":1598,"Teil":1599,"öß":1600,"ert":1601,"onder":1602,"ari":1603,"exp":1604,"schon":1605,"ganz":1606,"hö":1607,"apr":1608,"nature":1609,"zusammen":1610,"nergie":1611,"montr":1612,"graph":1613,"Sta":1614,"Voici":1615,"anz":1616,"Ab":1617,"Zu":1618,"glo":1619,"cit":1620,"après":1621,"aujourd":1622,"contin":1623,"again":1624,"ene":1625,"zä":1626,"bot":1627,"problème":1628,"los":1629,"denen":1630,"dro":1631,"cture":1632,"suite":1633,"angen":1634,"sens":1635,"letz":1636,"vil":1637,"por":1638,"ihnen":1639,"cri":1640,"étaient":1641,"eng":1642,"inner":1643,"inv":1644,"Hier":1645,"brau":1646,"nten":1647,"vielleicht":1648,"vert":1649,"bere":1650,"cis":1651,"fas":1652,"sais":1653,"91":1654,"donn":1655,"heute":1656,"Per":1657,"ables":1658,"schn":1659,"sche":1660,"ages":1661,"weg":1662,"lassen":1663,"Land":1664,"üt":1665,"gent":1666,"TED":1667,"lear":1668,"versu":1669,"ache":1670,"halb":1671,"Thank":1672,"iner":1673,"dollars":1674,"Arbe":1675,"after":1676,"sam":1677,"seulement":1678,"arr":1679,"peuvent":1680,"design":1681,"program":1682,"kr":1683,"today":1684,"red":1685,"93":1686,"conne":1687,"toujours":1688,"train":1689,"sage":1690,"Fl":1691,"travail":1692,"conn":1693,"cin":1694,"bt":1695,"davon":1696,"15":1697,"Afri":1698,"Geschichte":1699,"Wo":1700,"less":1701,"savez":1702,"partie":1703,"Elle":1704,"ulation":1705,"schein":1706,"ms":1707,"kommt":1708,"chaque":1709,"Merci":1710,"lectr":1711,"parler":1712,"last":1713,"atur":1714,"mou":1715,"ool":1716,"weit":1717,"weise":1718,"teur":1719,"Wissen":1720,"entif":1721,"Bild":1722,"dia":1723,"sû":1724,"éch":1725,"duc":1726,"course":1727,"ey":1728,"oy":1729,"ah":1730,"ago":1731,"belie":1732,"mem":1733,"dy":1734,"test":1735,"cet":1736,"drei":1737,"Beis":1738,"exam":1739,"ular":1740,"inen":1741,"telle":1742,"why":1743,"nun":1744,"schw":1745,"Mal":1746,"hatten":1747,"prés":1748,"besser":1749,"mach":1750,"jou":1751,"dez":1752,"idea":1753,"èmes":1754,"entlich":1755,"ég":1756,"ellen":1757,"compl":1758,"should":1759,"fi":1760,"him":1761,"ues":1762,"eln":1763,"dort":1764,"photo":1765,"ster":1766,"ulture":1767,"voyez":1768,"Internet":1769,"och":1770,"pop":1771,"ences":1772,"Kr":1773,"venir":1774,"public":1775,"exemple":1776,"soit":1777,"mlich":1778,"went":1779,"ierte":1780,"cken":1781,"famil":1782,"allen":1783,"Mar":1784,"Ex":1785,"gy":1786,"Diese":1787,"paar":1788,"kte":1789,"rem":1790,"hrt":1791,"used":1792,"essay":1793,"einige":1794,"étais":1795,"organis":1796,"Viel":1797,"mean":1798,"started":1799,"gs":1800,"thought":1801,"ahl":1802,"imm":1803,"uten":1804,"play":1805,"ning":1806,"voit":1807,"bs":1808,"didn":1809,"alth":1810,"êtes":1811,"Im":1812,"könnte":1813,"première":1814,"hör":1815,"char":1816,"ändern":1817,"quelle":1818,"ets":1819,"ateur":1820,"tend":1821,"iver":1822,"information":1823,"sons":1824,"ieux":1825,"Su":1826,"story":1827,"lement":1828,"nombre":1829,"ings":1830,"présent":1831,"trop":1832,"wollen":1833,"ives":1834,"système":1835,"kes":1836,"science":1837,"sous":1838,"toute":1839,"bringen":1840,"meiner":1841,"ihn":1842,"blo":1843,"sk":1844,"esp":1845,"atz":1846,"ton":1847,"Ok":1848,"ga":1849,"einz":1850,"serv":1851,"light":1852,"iens":1853,"El":1854,"feel":1855,"personne":1856,"tatsächlich":1857,"wischen":1858,"nent":1859,"werde":1860,"mark":1861,"commencé":1862,"dir":1863,"ore":1864,"spre":1865,"million":1866,"understand":1867,"40":1868,"ôt":1869,"All":1870,"eau":1871,"dévelop":1872,"darüber":1873,"book":1874,"ichten":1875,"Problem":1876,"unde":1877,"mettre":1878,"hir":1879,"power":1880,"tent":1881,"sûr":1882,"still":1883,"wurden":1884,"water":1885,"manière":1886,"uer":1887,"exist":1888,"rent":1889,"before":1890,"größ":1891,"ris":1892,"better":1893,"dach":1894,"far":1895,"ente":1896,"gether":1897,"ahr":1898,"bat":1899,"tom":1900,"millions":1901,"Oh":1902,"bou":1903,"ork":1904,"travaill":1905,"nam":1906,"ize":1907,"ctive":1908,"ped":1909,"lait":1910,"give":1911,"indu":1912,"dom":1913,"process":1914,"never":1915,"spr":1916,"neur":1917,"another":1918,"entwick":1919,"forme":1920,"Beispiel":1921,"wahr":1922,"utzen":1923,"eter":1924,"ürlich":1925,"nov":1926,"rec":1927,"together":1928,"Is":1929,"mas":1930,"bede":1931,"line":1932,"gegen":1933,"technology":1934,"dou":1935,"unserer":1936,"bus":1937,"ières":1938,"technologie":1939,"60":1940,"might":1941,"eigen":1942,"oft":1943,"voll":1944,"Technolog":1945,"del":1946,"ids":1947,"Bl":1948,"hrend":1949,"Da":1950,"cho":1951,"pression":1952,"gener":1953,"trouver":1954,"sieht":1955,"rou":1956,"unge":1957,"passe":1958,"Stu":1959,"weiß":1960,"grande":1961,"olle":1962,"cial":1963,"dat":1964,"utz":1965,"crit":1966,"äd":1967,"zwischen":1968,"ène":1969,"War":1970,"ices":1971,"rien":1972,"sondern":1973,"ichen":1974,"York":1975,"Ça":1976,"vient":1977,"besch":1978,"top":1979,"miss":1980,"etzt":1981,"denke":1982,"Million":1983,"school":1984,"few":1985,"économ":1986,"ête":1987,"els":1988,"Main":1989,"iden":1990,"eux":1991,"sing":1992,"fort":1993,"patient":1994,"effe":1995,"ka":1996,"cla":1997,"répon":1998,"next":1999,"Chin":2000,"vom":2001,"call":2002,"Geb":2003,"fühl":2004,"ards":2005,"anc":2006,"gemacht":2007,"Wer":2008,"wichtig":2009,"18":2010,"gal":2011,"avais":2012,"Wasser":2013,"petit":2014,"lors":2015,"neue":2016,"wäre":2017,"ists":2018,"ied":2019,"Als":2020,"décou":2021,"uses":2022,"illi":2023,"amer":2024,"Maintenant":2025,"iben":2026,"ilà":2027,"andel":2028,"antes":2029,"vu":2030,"brain":2031,"connais":2032,"ever":2033,"fig":2034,"iness":2035,"ouver":2036,"vier":2037,"funktion":2038,"Eur":2039,"kein":2040,"médi":2041,"jusqu":2042,"too":2043,"high":2044,"Afr":2045,"wan":2046,"biolog":2047,"aur":2048,"Univers":2049,"spir":2050,"ités":2051,"croy":2052,"pect":2053,"univers":2054,"found":2055,"dess":2056,"ète":2057,"ication":2058,"erzä":2059,"mic":2060,"appelle":2061,"assez":2062,"sour":2063,"comput":2064,"font":2065,"ible":2066,"colle":2067,"each":2068,"medi":2069,"pourquoi":2070,"Reg":2071,"When":2072,"ierung":2073,"Go":2074,"Une":2075,"fonction":2076,"pes":2077,"hau":2078,"doch":2079,"Gehir":2080,"depuis":2081,"indivi":2082,"ities":2083,"zeigen":2084,"ends":2085,"dazu":2086,"ween":2087,"Cela":2088,"Quand":2089,"sorte":2090,"sion":2091,"près":2092,"number":2093,"ften":2094,"glaube":2095,"comes":2096,"incre":2097,"led":2098,"aufen":2099,"möglich":2100,"inci":2101,"sogar":2102,"gros":2103,"io":2104,"opt":2105,"gerade":2106,"endro":2107,"interess":2108,"akt":2109,"wus":2110,"Über":2111,"turn":2112,"Because":2113,"march":2114,"hist":2115,"verschie":2116,"interest":2117,"example":2118,"grow":2119,"front":2120,"sicher":2121,"demand":2122,"aires":2123,"cul":2124,"ks":2125,"ales":2126,"différent":2127,"between":2128,"passion":2129,"zeit":2130,"Ph":2131,"faut":2132,"tschaft":2133,"image":2134,"radi":2135,"Prozent":2136,"Dan":2137,"näch":2138,"action":2139,"Tag":2140,"No":2141,"Kom":2142,"einmal":2143,"cra":2144,"keiten":2145,"isse":2146,"Grund":2147,"cours":2148,"utes":2149,"ctions":2150,"Dans":2151,"SA":2152,"care":2153,"dra":2154,"lu":2155,"Frage":2156,"projet":2157,"utiliser":2158,"such":2159,"wohl":2160,"iez":2161,"Lebens":2162,"lage":2163,"done":2164,"kennen":2165,"ules":2166,"looking":2167,"win":2168,"hät":2169,"arbeiten":2170,"pourrait":2171,"How":2172,"pot":2173,"heure":2174,"spiel":2175,"six":2176,"Ger":2177,"tot":2178,"cô":2179,"super":2180,"ohne":2181,"children":2182,"cerveau":2183,"My":2184,"pi":2185,"fle":2186,"sub":2187,"iti":2188,"OK":2189,"stre":2190,"ath":2191,"wegen":2192,"plu":2193,"ateurs":2194,"itet":2195,"ablement":2196,"Eine":2197,"ker":2198,"Person":2199,"Hand":2200,"live":2201,"prim":2202,"move":2203,"appro":2204,"genre":2205,"ode":2206,"unkt":2207,"head":2208,"sait":2209,"Arbeit":2210,"bli":2211,"hol":2212,"ellement":2213,"away":2214,"ös":2215,"etz":2216,"erste":2217,"nichts":2218,"örper":2219,"öff":2220,"wanted":2221,"12":2222,"At":2223,"DN":2224,"help":2225,"ersten":2226,"global":2227,"fast":2228,"jeder":2229,"moy":2230,"doesn":2231,"signif":2232,"dafür":2233,"Parce":2234,"chez":2235,"vide":2236,"créer":2237,"würden":2238,"hor":2239,"sprechen":2240,"ear":2241,"mut":2242,"Millionen":2243,"80":2244,"Vide":2245,"konnte":2246,"mp":2247,"invest":2248,"aim":2249,"oun":2250,"Kre":2251,"ized":2252,"passiert":2253,"ably":2254,"mort":2255,"pouv":2256,"ihren":2257,"open":2258,"offen":2259,"passé":2260,"oren":2261,"données":2262,"econom":2263,"wr":2264,"zer":2265,"zeu":2266,"devons":2267,"ding":2268,"sor":2269,"whole":2270,"etwa":2271,"Pu":2272,"Gehirn":2273,"using":2274,"irgend":2275,"schaffen":2276,"esen":2277,"vos":2278,"daran":2279,"Ihr":2280,"ax":2281,"jemand":2282,"absol":2283,"istes":2284,"expéri":2285,"iß":2286,"sau":2287,"rés":2288,"appl":2289,"cancer":2290,"Chr":2291,"data":2292,"meil":2293,"contre":2294,"lä":2295,"nouveau":2296,"sure":2297,"comprendre":2298,"sive":2299,"während":2300,"Idee":2301,"Bo":2302,"legen":2303,"mensch":2304,"donner":2305,"working":2306,"lung":2307,"vision":2308,"ited":2309,"ban":2310,"peux":2311,"Daten":2312,"pé":2313,"ral":2314,"verstehen":2315,"love":2316,"reas":2317,"jekt":2318,"urch":2319,"natürlich":2320,"lum":2321,"thé":2322,"montrer":2323,"questions":2324,"prise":2325,"innen":2326,"trying":2327,"welt":2328,"premier":2329,"second":2330,"atique":2331,"room":2332,"Frauen":2333,"ßer":2334,"lek":2335,"labor":2336,"immt":2337,"meinen":2338,"always":2339,"complex":2340,"selves":2341,"inform":2342,"activ":2343,"Ste":2344,"ras":2345,"igner":2346,"suiv":2347,"social":2348,"avaient":2349,"culture":2350,"ature":2351,"auc":2352,"pict":2353,"huma":2354,"cted":2355,"prot":2356,"ationen":2357,"trait":2358,"ural":2359,"letzten":2360,"Tout":2361,"ville":2362,"Ber":2363,"fal":2364,"zin":2365,"zwe":2366,"health":2367,"richt":2368,"teurs":2369,"warum":2370,"Con":2371,"Mö":2372,"pace":2373,"crois":2374,"quelqu":2375,"travers":2376,"étudi":2377,"iff":2378,"coming":2379,"acht":2380,"große":2381,"welche":2382,"ducation":2383,"pri":2384,"intéress":2385,"ziemlich":2386,"femmes":2387,"believe":2388,"ask":2389,"pouvoir":2390,"bekommen":2391,"sym":2392,"ez":2393,"esse":2394,"har":2395,"certain":2396,"lez":2397,"fahren":2398,"cel":2399,"ness":2400,"télé":2401,"scientif":2402,"individu":2403,"hä":2404,"sollte":2405,"dan":2406,"small":2407,"intell":2408,"eig":2409,"sembl":2410,"année":2411,"Musik":2412,"mod":2413,"enten":2414,"cie":2415,"kun":2416,"sha":2417,"space":2418,"Comput":2419,"princi":2420,"fähr":2421,"iles":2422,"sollten":2423,"experien":2424,"ond":2425,"Plan":2426,"ehen":2427,"fant":2428,"cover":2429,"velle":2430,"Ihre":2431,"food":2432,"national":2433,"seit":2434,"vern":2435,"simplement":2436,"suc":2437,"igkeit":2438,"schnell":2439,"utôt":2440,"dru":2441,"Geld":2442,"homme":2443,"CA":2444,"mind":2445,"öt":2446,"quat":2447,"Okay":2448,"As":2449,"wort":2450,"ances":2451,"société":2452,"sant":2453,"women":2454,"project":2455,"archite":2456,"normal":2457,"Jo":2458,"const":2459,"könnten":2460,"Sp":2461,"anal":2462,"issu":2463,"techn":2464,"respon":2465,"quer":2466,"Min":2467,"Gen":2468,"cir":2469,"ommen":2470,"wollte":2471,"sagt":2472,"passer":2473,"country":2474,"One":2475,"atch":2476,"90":2477,"Ant":2478,"pret":2479,"Pe":2480,"bauen":2481,"kur":2482,"innov":2483,"iennent":2484,"bonne":2485,"enz":2486,"ceci":2487,"robot":2488,"ganze":2489,"isen":2490,"fand":2491,"bles":2492,"agit":2493,"dabei":2494,"ense":2495,"igne":2496,"ativ":2497,"took":2498,"meinem":2499,"itive":2500,"zeigt":2501,"aines":2502,"dri":2503,"jà":2504,"clim":2505,"ckt":2506,"raison":2507,"ktur":2508,"Dank":2509,"atta":2510,"force":2511,"type":2512,"hunder":2513,"licher":2514,"schied":2515,"Nor":2516,"future":2517,"rer":2518,"penser":2519,"Mann":2520,"Raum":2521,"lin":2522,"Technologie":2523,"éco":2524,"meisten":2525,"Doll":2526,"iven":2527,"ihrer":2528,"plutôt":2529,"25":2530,"utet":2531,"Mas":2532,"lam":2533,"schre":2534,"consi":2535,"bur":2536,"utions":2537,"ième":2538,"ince":2539,"venu":2540,"côté":2541,"Pol":2542,"fam":2543,"everything":2544,"plupart":2545,"problèmes":2546,"ensemble":2547,"cke":2548,"film":2549,"trad":2550,"phys":2551,"déjà":2552,"Pat":2553,"Str":2554,"tellen":2555,"milli":2556,"member":2557,"recher":2558,"voici":2559,"ope":2560,"means":2561,"11":2562,"nä":2563,"thinking":2564,"ensuite":2565,"ium":2566,"gesehen":2567,"half":2568,"bla":2569,"ane":2570,"ters":2571,"cts":2572,"These":2573,"wach":2574,"quant":2575,"ship":2576,"view":2577,"puiss":2578,"gouver":2579,"mental":2580,"five":2581,"ders":2582,"log":2583,"brauchen":2584,"She":2585,"ention":2586,"Spr":2587,"ths":2588,"med":2589,"Weg":2590,"énergie":2591,"corps":2592,"ual":2593,"kleinen":2594,"money":2595,"ließ":2596,"ories":2597,"create":2598,"nouvelle":2599,"kunft":2600,"concept":2601,"ister":2602,"ram":2603,"vice":2604,"minutes":2605,"large":2606,"making":2607,"sense":2608,"building":2609,"ric":2610,"left":2611,"Dollar":2612,"quite":2613,"Car":2614,"utter":2615,"tenir":2616,"amil":2617,"maybe":2618,"pren":2619,"Fil":2620,"nour":2621,"ape":2622,"fahr":2623,"speci":2624,"Son":2625,"kids":2626,"rup":2627,"nah":2628,"scheinlich":2629,"Du":2630,"entiel":2631,"mois":2632,"aterial":2633,"machine":2634,"interesting":2635,"allons":2636,"génér":2637,"70":2638,"fangen":2639,"fest":2640,"Körper":2641,"aw":2642,"anken":2643,"Bon":2644,"run":2645,"sych":2646,"recht":2647,"fte":2648,"üh":2649,"flu":2650,"hard":2651,"maz":2652,"changer":2653,"Wissenschaft":2654,"igh":2655,"energy":2656,"dist":2657,"extra":2658,"trouve":2659,"alten":2660,"atte":2661,"Dann":2662,"savoir":2663,"fu":2664,"Gem":2665,"ail":2666,"incroy":2667,"Ende":2668,"home":2669,"sex":2670,"parents":2671,"cks":2672,"eas":2673,"ceux":2674,"einander":2675,"population":2676,"viol":2677,"Fä":2678,"érie":2679,"petite":2680,"weniger":2681,"hören":2682,"Bien":2683,"gé":2684,"Dar":2685,"kre":2686,"laub":2687,"équi":2688,"unseren":2689,"agt":2690,"emp":2691,"Denn":2692,"äng":2693,"ready":2694,"fab":2695,"ischer":2696,"getting":2697,"develop":2698,"ituation":2699,"Africa":2700,"Fall":2701,"Unis":2702,"llen":2703,"ability":2704,"laquelle":2705,"réalis":2706,"mieux":2707,"Möglich":2708,"mittel":2709,"govern":2710,"phone":2711,"mala":2712,"stop":2713,"bedeutet":2714,"China":2715,"haut":2716,"low":2717,"ilt":2718,"wed":2719,"doit":2720,"position":2721,"happened":2722,"Sache":2723,"schle":2724,"mos":2725,"tries":2726,"verwen":2727,"oper":2728,"extr":2729,"kleine":2730,"images":2731,"agen":2732,"pap":2733,"äter":2734,"argent":2735,"Here":2736,"nive":2737,"enough":2738,"become":2739,"begann":2740,"modè":2741,"trib":2742,"rich":2743,"verl":2744,"Famil":2745,"object":2746,"Information":2747,"Do":2748,"mont":2749,"darauf":2750,"stuff":2751,"prote":2752,"business":2753,"capac":2754,"ainsi":2755,"Computer":2756,"Kind":2757,"thous":2758,"vont":2759,"ager":2760,"atten":2761,"Stad":2762,"Comment":2763,"ball":2764,"ian":2765,"mals":2766,"imagine":2767,"moyen":2768,"gten":2769,"hing":2770,"ierten":2771,"journ":2772,"Afrique":2773,"sum":2774,"raft":2775,"électr":2776,"otos":2777,"serait":2778,"führen":2779,"äl":2780,"veut":2781,"orig":2782,"relation":2783,"Video":2784,"Am":2785,"vant":2786,"ologie":2787,"dition":2788,"Ear":2789,"Bes":2790,"ror":2791,"seul":2792,"laire":2793,"Energie":2794,"Let":2795,"grund":2796,"ward":2797,"probably":2798,"prom":2799,"clear":2800,"statt":2801,"appar":2802,"beste":2803,"personn":2804,"propos":2805,"espace":2806,"importe":2807,"times":2808,"whe":2809,"amen":2810,"lieu":2811,"Seite":2812,"déci":2813,"cut":2814,"ouse":2815,"ident":2816,"Af":2817,"ef":2818,"ieurs":2819,"stra":2820,"kten":2821,"wee":2822,"rieur":2823,"Groß":2824,"ifs":2825,"propre":2826,"beh":2827,"parta":2828,"invent":2829,"dents":2830,"portun":2831,"vres":2832,"ihm":2833,"Sel":2834,"compte":2835,"rég":2836,"talking":2837,"Warum":2838,"Mein":2839,"ption":2840,"Pourquoi":2841,"ret":2842,"unt":2843,"teach":2844,"illes":2845,"heiß":2846,"hört":2847,"großen":2848,"ider":2849,"äft":2850,"vrai":2851,"santé":2852,"beaut":2853,"sera":2854,"dest":2855,"expérience":2856,"sit":2857,"experience":2858,"istan":2859,"vö":2860,"pain":2861,"qual":2862,"eigentlich":2863,"sujet":2864,"phy":2865,"tradition":2866,"Kar":2867,"opportun":2868,"Stadt":2869,"lange":2870,"impl":2871,"réalité":2872,"Lu":2873,"Zukunft":2874,"dachte":2875,"Milli":2876,"hed":2877,"Proble":2878,"relig":2879,"case":2880,"ng":2881,"Aut":2882,"wonder":2883,"acr":2884,"technologies":2885,"halt":2886,"without":2887,"Earth":2888,"vit":2889,"surface":2890,"sicht":2891,"wunder":2892,"besonder":2893,"az":2894,"sult":2895,"permet":2896,"führt":2897,"eten":2898,"lives":2899,"mi":2900,"nation":2901,"rain":2902,"ran":2903,"gestell":2904,"cop":2905,"ôle":2906,"ican":2907,"Medi":2908,"trag":2909,"icile":2910,"fern":2911,"table":2912,"order":2913,"pretty":2914,"ogen":2915,"mother":2916,"Weise":2917,"Menge":2918,"System":2919,"Goog":2920,"job":2921,"ende":2922,"model":2923,"Europe":2924,"Danke":2925,"ples":2926,"irl":2927,"priv":2928,"cam":2929,"zlich":2930,"autour":2931,"wenig":2932,"happ":2933,"ganzen":2934,"computer":2935,"rid":2936,"zahl":2937,"éc":2938,"außer":2939,"schaften":2940,"certains":2941,"femme":2942,"ator":2943,"ird":2944,"iquement":2945,"coll":2946,"ious":2947,"devra":2948,"structure":2949,"dessus":2950,"ling":2951,"icher":2952,"différentes":2953,"deci":2954,"solution":2955,"answer":2956,"jeden":2957,"empl":2958,"Vielen":2959,"Why":2960,"anger":2961,"essen":2962,"prend":2963,"Milliar":2964,"Stra":2965,"level":2966,"saw":2967,"beginn":2968,"bro":2969,"Ob":2970,"countries":2971,"Wor":2972,"vr":2973,"unes":2974,"nouvel":2975,"concer":2976,"affe":2977,"steht":2978,"Spiel":2979,"donne":2980,"across":2981,"ately":2982,"mission":2983,"orie":2984,"aug":2985,"told":2986,"trouvé":2987,"particular":2988,"lernen":2989,"endroit":2990,"ron":2991,"anci":2992,"else":2993,"Frau":2994,"Entwick":2995,"picture":2996,"bad":2997,"vue":2998,"dimen":2999,"diffic":3000,"enfant":3001,"celui":3002,"çons":3003,"difficile":3004,"choi":3005,"prene":3006,"Natur":3007,"èce":3008,"anything":3009,"celle":3010,"lit":3011,"dio":3012,"humain":3013,"mêmes":3014,"hung":3015,"Erde":3016,"rapide":3017,"reason":3018,"Bil":3019,"hour":3020,"immen":3021,"Google":3022,"Fir":3023,"seen":3024,"living":3025,"ogn":3026,"physi":3027,"Cette":3028,"Grup":3029,"Den":3030,"opf":3031,"hope":3032,"alter":3033,"iges":3034,"versuchen":3035,"vari":3036,"isation":3037,"hoch":3038,"planet":3039,"instit":3040,"oman":3041,"gesagt":3042,"bres":3043,"billion":3044,"lea":3045,"anders":3046,"stat":3047,"indust":3048,"sound":3049,"êt":3050,"Gl":3051,"ni":3052,"conf":3053,"having":3054,"goes":3055,"Ort":3056,"walk":3057,"schl":3058,"cost":3059,"Moment":3060,"works":3061,"planète":3062,"arrive":3063,"ime":3064,"psych":3065,"fs":3066,"fie":3067,"mère":3068,"mondi":3069,"Spe":3070,"hon":3071,"keinen":3072,"wicht":3073,"espr":3074,"terre":3075,"usion":3076,"ètres":3077,"unglaub":3078,"music":3079,"says":3080,"ett":3081,"Organ":3082,"electr":3083,"iere":3084,"regard":3085,"nung":3086,"icain":3087,"siè":3088,"ries":3089,"days":3090,"inspir":3091,"reste":3092,"vielen":3093,"ization":3094,"Ces":3095,"bé":3096,"themat":3097,"quatre":3098,"énor":3099,"complete":3100,"Buch":3101,"city":3102,"mau":3103,"pose":3104,"appe":3105,"bed":3106,"sho":3107,"ott":3108,"fün":3109,"base":3110,"cellules":3111,"makes":3112,"später":3113,"communau":3114,"kos":3115,"itude":3116,"marché":3117,"niveau":3118,"isme":3119,"idées":3120,"stän":3121,"Produ":3122,"milliards":3123,"500":3124,"termin":3125,"ju":3126,"gemein":3127,"soz":3128,"iquer":3129,"Est":3130,"West":3131,"univer":3132,"suff":3133,"lorsque":3134,"lichkeit":3135,"clu":3136,"attention":3137,"Jetzt":3138,"socie":3139,"zeug":3140,"happens":3141,"faisons":3142,"pan":3143,"eren":3144,"stellung":3145,"ändert":3146,"To":3147,"Tu":3148,"glauben":3149,"eigenen":3150,"tard":3151,"wahrscheinlich":3152,"thousand":3153,"änd":3154,"schauen":3155,"tag":3156,"Schw":3157,"later":3158,"pau":3159,"ikan":3160,"également":3161,"family":3162,"début":3163,"Inde":3164,"zeich":3165,"cells":3166,"patients":3167,"ele":3168,"heim":3169,"vidé":3170,"USA":3171,"Zus":3172,"lons":3173,"chance":3174,"jedes":3175,"asked":3176,"commence":3177,"Licht":3178,"hear":3179,"keep":3180,"tain":3181,"Gemein":3182,"Lie":3183,"fel":3184,"rions":3185,"partir":3186,"construire":3187,"funktioniert":3188,"meilleur":3189,"Eh":3190,"érer":3191,"ually":3192,"worden":3193,"hätte":3194,"commencer":3195,"école":3196,"pons":3197,"ply":3198,"sah":3199,"indem":3200,"maison":3201,"riez":3202,"groupe":3203,"Fe":3204,"Rob":3205,"souvent":3206,"Mutter":3207,"fund":3208,"sez":3209,"Elles":3210,"épo":3211,"learn":3212,"16":3213,"Char":3214,"amaz":3215,"inside":3216,"Gesund":3217,"lag":3218,"nutzen":3219,"almost":3220,"herum":3221,"accord":3222,"connect":3223,"lè":3224,"imagin":3225,"beim":3226,"hommes":3227,"Que":3228,"cool":3229,"verschieden":3230,"gestellt":3231,"unst":3232,"faites":3233,"Tat":3234,"oked":3235,"perfe":3236,"konnten":3237,"fur":3238,"environnement":3239,"Ged":3240,"élé":3241,"fing":3242,"arm":3243,"John":3244,"heißt":3245,"Na":3246,"betra":3247,"rend":3248,"Augen":3249,"problems":3250,"Co":3251,"Ou":3252,"ado":3253,"pous":3254,"market":3255,"fünf":3256,"führ":3257,"braucht":3258,"tellement":3259,"communauté":3260,"while":3261,"Schul":3262,"essayer":3263,"mauvais":3264,"assen":3265,"ali":3266,"indre":3267,"résult":3268,"komple":3269,"basically":3270,"single":3271,"Patient":3272,"étr":3273,"Not":3274,"forder":3275,"vivre":3276,"Form":3277,"DNA":3278,"savons":3279,"parle":3280,"ellschaft":3281,"gets":3282,"petits":3283,"presque":3284,"Probleme":3285,"aff":3286,"remember":3287,"ots":3288,"young":3289,"époque":3290,"bâ":3291,"once":3292,"progr":3293,"Ang":3294,"falls":3295,"wit":3296,"deut":3297,"gute":3298,"ünst":3299,"kil":3300,"essa":3301,"Design":3302,"fé":3303,"ily":3304,"pement":3305,"spé":3306,"Haus":3307,"funden":3308,"house":3309,"iet":3310,"coû":3311,"ungefähr":3312,"lumière":3313,"Wahr":3314,"lö":3315,"ief":3316,"seiner":3317,"ideas":3318,"Can":3319,"cup":3320,"Projekt":3321,"Voilà":3322,"bout":3323,"must":3324,"exact":3325,"voulez":3326,"girl":3327,"vement":3328,"aime":3329,"zehn":3330,"folgen":3331,"nouvelles":3332,"seem":3333,"Bu":3334,"neuen":3335,"challen":3336,"neh":3337,"allow":3338,"rieben":3339,"erzählen":3340,"famille":3341,"fléch":3342,"Män":3343,"ism":3344,"iful":3345,"hlt":3346,"allez":3347,"issent":3348,"produit":3349,"nächsten":3350,"kel":3351,"Mensch":3352,"enter":3353,"arbeitet":3354,"changement":3355,"travailler":3356,"Selbst":3357,"chau":3358,"ami":3359,"ull":3360,"objet":3361,"uli":3362,"ester":3363,"probablement":3364,"gla":3365,"jor":3366,"demo":3367,"dence":3368,"impact":3369,"fic":3370,"night":3371,"racon":3372,"ctor":3373,"loc":3374,"Engl":3375,"crat":3376,"figure":3377,"incredi":3378,"amazing":3379,"condu":3380,"wert":3381,"piece":3382,"Kunst":3383,"Afrika":3384,"eur":3385,"sed":3386,"matter":3387,"verk":3388,"heart":3389,"heits":3390,"fert":3391,"chan":3392,"glichen":3393,"mä":3394,"donné":3395,"flie":3396,"isches":3397,"cli":3398,"lan":3399,"ziehen":3400,"yet":3401,"ètement":3402,"pers":3403,"class":3404,"history":3405,"wachsen":3406,"nourrit":3407,"14":3408,"ême":3409,"ädchen":3410,"cine":3411,"text":3412,"ury":3413,"stead":3414,"gangen":3415,"jo":3416,"ros":3417,"rez":3418,"alen":3419,"aider":3420,"ift":3421,"rese":3422,"places":3423,"both":3424,"genug":3425,"compassion":3426,"bisschen":3427,"research":3428,"dle":3429,"sat":3430,"nothing":3431,"klar":3432,"Di":3433,"avions":3434,"plusieurs":3435,"fille":3436,"unserem":3437,"animaux":3438,"Milliarden":3439,"mid":3440,"ulti":3441,"voilà":3442,"gag":3443,"acter":3444,"whether":3445,"hinter":3446,"lagen":3447,"dessen":3448,"genommen":3449,"raient":3450,"suchen":3451,"différents":3452,"fragen":3453,"chs":3454,"plant":3455,"looked":3456,"ären":3457,"couple":3458,"faci":3459,"animal":3460,"beautiful":3461,"Arch":3462,"usement":3463,"saying":3464,"Planeten":3465,"Ro":3466,"lon":3467,"éle":3468,"stellt":3469,"séqu":3470,"extraordin":3471,"éli":3472,"extre":3473,"speak":3474,"truc":3475,"group":3476,"schön":3477,"fac":3478,"aimer":3479,"ritt":3480,"watch":3481,"clin":3482,"built":3483,"possibil":3484,"regarder":3485,"esprit":3486,"defin":3487,"gesam":3488,"looks":3489,"langu":3490,"helfen":3491,"ähr":3492,"prä":3493,"brauch":3494,"path":3495,"present":3496,"demandé":3497,"Mädchen":3498,"richtig":3499,"Inst":3500,"guy":3501,"prises":3502,"arriver":3503,"Chris":3504,"heiten":3505,"regardez":3506,"pal":3507,"syn":3508,"réponse":3509,"Gebäu":3510,"chmal":3511,"etimes":3512,"humains":3513,"Bere":3514,"ources":3515,"signifie":3516,"entendu":3517,"tez":3518,"ously":3519,"heard":3520,"United":3521,"vér":3522,"already":3523,"schwer":3524,"ground":3525,"ktiv":3526,"Ideen":3527,"bau":3528,"eben":3529,"situation":3530,"aurait":3531,"within":3532,"yeux":3533,"Arten":3534,"voiture":3535,"ahlen":3536,"bare":3537,"hund":3538,"often":3539,"remar":3540,"study":3541,"video":3542,"conv":3543,"Mars":3544,"inte":3545,"aby":3546,"ford":3547,"excit":3548,"tal":3549,"unch":3550,"Lin":3551,"press":3552,"major":3553,"months":3554,"gehört":3555,"complètement":3556,"gor":3557,"ware":3558,"mande":3559,"result":3560,"haupt":3561,"wrong":3562,"ître":3563,"rése":3564,"Auto":3565,"Bi":3566,"poll":3567,"Wirtschaft":3568,"posit":3569,"ential":3570,"law":3571,"abord":3572,"wusst":3573,"Kopf":3574,"Sk":3575,"terri":3576,"rière":3577,"nisse":3578,"micro":3579,"Ind":3580,"ums":3581,"myself":3582,"government":3583,"ato":3584,"ultur":3585,"Mode":3586,"Non":3587,"autom":3588,"liegt":3589,"intérieur":3590,"continu":3591,"bind":3592,"former":3593,"réfléch":3594,"cinq":3595,"pouvait":3596,"wind":3597,"wirtschaft":3598,"dernière":3599,"bât":3600,"ush":3601,"gouvernement":3602,"bly":3603,"anzen":3604,"India":3605,"teilen":3606,"17":3607,"Gra":3608,"Ha":3609,"retour":3610,"loin":3611,"ghan":3612,"hält":3613,"species":3614,"Unternehmen":3615,"gleichen":3616,"ismus":3617,"tron":3618,"ennt":3619,"fish":3620,"apprendre":3621,"jede":3622,"simil":3623,"fantast":3624,"Bet":3625,"États":3626,"itement":3627,"iments":3628,"bracht":3629,"Dr":3630,"fly":3631,"male":3632,"comporte":3633,"entwickelt":3634,"nourriture":3635,"state":3636,"ered":3637,"Lo":3638,"flo":3639,"ähn":3640,"iser":3641,"sequ":3642,"seinen":3643,"dau":3644,"community":3645,"Fähig":3646,"bie":3647,"rate":3648,"wand":3649,"livre":3650,"control":3651,"écrit":3652,"dés":3653,"explor":3654,"andeln":3655,"läs":3656,"instru":3657,"veille":3658,"schließ":3659,"source":3660,"bevor":3661,"universe":3662,"Har":3663,"Forsch":3664,"engine":3665,"aine":3666,"nant":3667,"verändern":3668,"aide":3669,"informations":3670,"Informationen":3671,"heures":3672,"dise":3673,"ücken":3674,"spielen":3675,"père":3676,"processus":3677,"publi":3678,"schwier":3679,"beha":3680,"Dieses":3681,"fond":3682,"guerre":3683,"points":3684,"ordinateur":3685,"Nicht":3686,"Oui":3687,"Punkt":3688,"Ur":3689,"zess":3690,"scient":3691,"sil":3692,"cker":3693,"partici":3694,"Terre":3695,"oce":3696,"though":3697,"Che":3698,"ligne":3699,"océ":3700,"appris":3701,"bekann":3702,"pensé":3703,"mosph":3704,"tex":3705,"überall":3706,"partout":3707,"présen":3708,"IV":3709,"âce":3710,"truktur":3711,"300":3712,"Jap":3713,"Netz":3714,"nennen":3715,"photos":3716,"true":3717,"hundert":3718,"Männer":3719,"Pas":3720,"cen":3721,"calcul":3722,"Exper":3723,"rom":3724,"erkl":3725,"taking":3726,"Leuten":3727,"Schule":3728,"darum":3729,"appelé":3730,"arrê":3731,"èces":3732,"amis":3733,"discover":3734,"effect":3735,"cat":3736,"étique":3737,"innovation":3738,"äus":3739,"iele":3740,"iche":3741,"Krie":3742,"rique":3743,"musique":3744,"qué":3745,"liches":3746,"Lös":3747,"fang":3748,"ney":3749,"key":3750,"inde":3751,"isn":3752,"Some":3753,"chac":3754,"sei":3755,"veaux":3756,"divers":3757,"Dis":3758,"verr":3759,"Krank":3760,"rendre":3761,"peur":3762,"multi":3763,"ony":3764,"erkennen":3765,"machte":3766,"tête":3767,"ray":3768,"llig":3769,"local":3770,"ielle":3771,"rencontr":3772,"systems":3773,"Afghan":3774,"oter":3775,"développement":3776,"decided":3777,"itself":3778,"utzt":3779,"riff":3780,"musste":3781,"completely":3782,"Kön":3783,"ration":3784,"devez":3785,"entde":3786,"Ceci":3787,"Geschichten":3788,"words":3789,"findet":3790,"States":3791,"recherche":3792,"entire":3793,"jeu":3794,"obser":3795,"ping":3796,"ße":3797,"ames":3798,"großart":3799,"Für":3800,"ana":3801,"imin":3802,"virus":3803,"curité":3804,"nel":3805,"voulais":3806,"chois":3807,"intéressant":3808,"gas":3809,"reden":3810,"irs":3811,"visu":3812,"kinds":3813,"Every":3814,"Film":3815,"site":3816,"äre":3817,"Erfahr":3818,"grands":3819,"effet":3820,"certaine":3821,"erreichen":3822,"field":3823,"hi":3824,"öhn":3825,"capacité":3826,"exac":3827,"someone":3828,"profon":3829,"Antwort":3830,"gang":3831,"until":3832,"vidéo":3833,"oben":3834,"animals":3835,"décidé":3836,"Meine":3837,"méde":3838,"everybody":3839,"Dav":3840,"anzu":3841,"iller":3842,"Indien":3843,"änger":3844,"flä":3845,"cep":3846,"icken":3847,"happening":3848,"share":3849,"24":3850,"rat":3851,"insi":3852,"CO":3853,"Gener":3854,"link":3855,"diag":3856,"anderes":3857,"akter":3858,"Comme":3859,"bereits":3860,"13":3861,"sug":3862,"Sou":3863,"xy":3864,"Bilder":3865,"writ":3866,"erinner":3867,"ash":3868,"since":3869,"zept":3870,"feu":3871,"incroyable":3872,"Fin":3873,"fli":3874,"became":3875,"werk":3876,"mesure":3877,"America":3878,"Ken":3879,"alität":3880,"nee":3881,"ihrem":3882,"besonders":3883,"behavi":3884,"cann":3885,"sal":3886,"wasn":3887,"optim":3888,"modèle":3889,"code":3890,"production":3891,"andelt":3892,"Fragen":3893,"Cha":3894,"fro":3895,"hle":3896,"quick":3897,"ulent":3898,"setzen":3899,"industr":3900,"augment":3901,"Zusammen":3902,"event":3903,"along":3904,"verschiedene":3905,"commer":3906,"compos":3907,"oph":3908,"clos":3909,"montre":3910,"Stre":3911,"education":3912,"porte":3913,"sagten":3914,"vois":3915,"voyons":3916,"God":3917,"représent":3918,"pens":3919,"ID":3920,"lequel":3921,"dul":3922,"liber":3923,"démo":3924,"fras":3925,"Ty":3926,"écr":3927,"ingen":3928,"tool":3929,"stories":3930,"cident":3931,"ivent":3932,"vention":3933,"politique":3934,"Nein":3935,"lern":3936,"liter":3937,"dete":3938,"ausge":3939,"grâce":3940,"disent":3941,"dernières":3942,"Fol":3943,"leb":3944,"sud":3945,"adap":3946,"bio":3947,"aucune":3948,"tri":3949,"foot":3950,"capable":3951,"moral":3952,"exactly":3953,"disease":3954,"meas":3955,"spend":3956,"marche":3957,"touch":3958,"bild":3959,"dernier":3960,"vies":3961,"aucun":3962,"HIV":3963,"foc":3964,"pois":3965,"kurz":3966,"Bed":3967,"huge":3968,"kamen":3969,"Glück":3970,"ilfe":3971,"ications":3972,"concent":3973,"identif":3974,"21":3975,"Ainsi":3976,"free":3977,"rè":3978,"certaines":3979,"deal":3980,"language":3981,"ép":3982,"team":3983,"ife":3984,"Beweg":3985,"Quel":3986,"pir":3987,"abl":3988,"convers":3989,"amér":3990,"Indi":3991,"Weil":3992,"company":3993,"break":3994,"name":3995,"Flug":3996,"siècle":3997,"çu":3998,"civil":3999,"agric":4000,"emot":4001,"learned":4002,"namens":4003,"Ra":4004,"ois":4005,"uit":4006,"ged":4007,"dois":4008,"créé":4009,"Regierung":4010,"mel":4011,"produce":4012,"wär":4013,"histoires":4014,"seinem":4015,"einzel":4016,"Nord":4017,"band":4018,"knew":4019,"mom":4020,"century":4021,"nahmen":4022,"haps":4023,"intellig":4024,"society":4025,"Lab":4026,"Tod":4027,"istr":4028,"Lehr":4029,"futur":4030,"Bü":4031,"kä":4032,"dience":4033,"past":4034,"word":4035,"gescha":4036,"fully":4037,"bestimm":4038,"intelligen":4039,"dich":4040,"ole":4041,"etc":4042,"Gesellschaft":4043,"environment":4044,"abilité":4045,"Oder":4046,"era":4047,"impression":4048,"themselves":4049,"plain":4050,"utilise":4051,"Angst":4052,"richten":4053,"auche":4054,"habit":4055,"pensez":4056,"scheid":4057,"Familie":4058,"sance":4059,"quit":4060,"existe":4061,"friends":4062,"Hö":4063,"iale":4064,"woman":4065,"meet":4066,"architecture":4067,"Gal":4068,"mine":4069,"won":4070,"ditions":4071,"created":4072,"vrir":4073,"camp":4074,"viennent":4075,"envoy":4076,"rather":4077,"wood":4078,"news":4079,"Alle":4080,"transport":4081,"mét":4082,"tragen":4083,"lots":4084,"ionen":4085,"couldn":4086,"villes":4087,"cision":4088,"turns":4089,"Masch":4090,"infe":4091,"osp":4092,"ollow":4093,"gewöhn":4094,"exactement":4095,"Gre":4096,"écri":4097,"améli":4098,"message":4099,"èrement":4100,"Gruppe":4101,"alifor":4102,"Som":4103,"zy":4104,"Verbind":4105,"krat":4106,"oud":4107,"sechs":4108,"rédu":4109,"merveille":4110,"ibles":4111,"état":4112,"box":4113,"Then":4114,"tau":4115,"taus":4116,"ienne":4117,"survi":4118,"économie":4119,"Vir":4120,"ument":4121,"death":4122,"igten":4123,"worked":4124,"vorstellen":4125,"genann":4126,"amoun":4127,"équipe":4128,"abe":4129,"euch":4130,"év":4131,"devenir":4132,"bewegen":4133,"rée":4134,"benutzen":4135,"Ben":4136,"cteur":4137,"ressemble":4138,"pur":4139,"ying":4140,"éra":4141,"consom":4142,"American":4143,"schnitt":4144,"choix":4145,"lebt":4146,"Verhalten":4147,"World":4148,"hold":4149,"kan":4150,"aper":4151,"leg":4152,"deven":4153,"ika":4154,"Vielleicht":4155,"Patienten":4156,"lead":4157,"gefunden":4158,"imme":4159,"zug":4160,"gerne":4161,"darin":4162,"glück":4163,"milliers":4164,"difficult":4165,"Gebäude":4166,"Part":4167,"mol":4168,"stüt":4169,"grandes":4170,"against":4171,"jeunes":4172,"mode":4173,"aven":4174,"gebaut":4175,"ano":4176,"favor":4177,"taille":4178,"hler":4179,"histor":4180,"Ye":4181,"rot":4182,"tete":4183,"ourselves":4184,"natural":4185,"Afghanistan":4186,"voud":4187,"scheiden":4188,"photograph":4189,"Luft":4190,"Fü":4191,"punkt":4192,"ither":4193,"week":4194,"cing":4195,"lant":4196,"lker":4197,"évolution":4198,"inten":4199,"least":4200,"programme":4201,"Richt":4202,"Sicher":4203,"prix":4204,"father":4205,"bringt":4206,"rê":4207,"wards":4208,"Ergeb":4209,"Techn":4210,"village":4211,"issue":4212,"Kultur":4213,"cult":4214,"rele":4215,"etzen":4216,"friend":4217,"success":4218,"fabri":4219,"CO2":4220,"compris":4221,"considé":4222,"dimension":4223,"Durch":4224,"défin":4225,"verschiedenen":4226,"happy":4227,"Imag":4228,"bir":4229,"gende":4230,"réellement":4231,"ared":4232,"Gegen":4233,"known":4234,"itting":4235,"stoff":4236,"profession":4237,"evolution":4238,"évi":4239,"jedem":4240,"stein":4241,"sometimes":4242,"érence":4243,"Gefühl":4244,"beiden":4245,"croiss":4246,"scale":4247,"irgendwie":4248,"Minuten":4249,"Instit":4250,"mm":4251,"éro":4252,"Städ":4253,"turned":4254,"kilom":4255,"Aust":4256,"Nat":4257,"haus":4258,"hors":4259,"éducation":4260,"sible":4261,"Bei":4262,"Macht":4263,"confi":4264,"geln":4265,"lossen":4266,"jouer":4267,"rapidement":4268,"amb":4269,"service":4270,"Trans":4271,"galax":4272,"follow":4273,"chim":4274,"actions":4275,"product":4276,"entwickeln":4277,"endroits":4278,"National":4279,"designer":4280,"outside":4281,"version":4282,"199":4283,"prison":4284,"voulons":4285,"découvert":4286,"hours":4287,"Ju":4288,"aun":4289,"mment":4290,"seven":4291,"centre":4292,"ception":4293,"continue":4294,"amera":4295,"tat":4296,"ément":4297,"ieu":4298,"bewe":4299,"confl":4300,"vorher":4301,"digital":4302,"bald":4303,"Herz":4304,"verwenden":4305,"origin":4306,"David":4307,"Ter":4308,"enor":4309,"invol":4310,"sident":4311,"respons":4312,"rapport":4313,"bom":4314,"gave":4315,"petites":4316,"Doch":4317,"Tra":4318,"phil":4319,"Dieu":4320,"based":4321,"magn":4322,"itié":4323,"Möglichkeit":4324,"maladie":4325,"thousands":4326,"cles":4327,"pf":4328,"sere":4329,"redu":4330,"combin":4331,"amm":4332,"Wh":4333,"ina":4334,"demande":4335,"Entscheid":4336,"analy":4337,"Hol":4338,"Mil":4339,"Wel":4340,"ished":4341,"itz":4342,"atures":4343,"genet":4344,"moving":4345,"add":4346,"hätten":4347,"km":4348,"spéci":4349,"page":4350,"Zwe":4351,"umen":4352,"taken":4353,"treat":4354,"Schl":4355,"quelles":4356,"Sü":4357,"jen":4358,"impro":4359,"chem":4360,"Veränder":4361,"virtu":4362,"everyone":4363,"changed":4364,"menschlichen":4365,"moder":4366,"Program":4367,"amélior":4368,"hang":4369,"ering":4370,"erhalten":4371,"third":4372,"irur":4373,"verändert":4374,"conta":4375,"difference":4376,"wollten":4377,"öffent":4378,"map":4379,"oil":4380,"einigen":4381,"Iran":4382,"tas":4383,"oui":4384,"ulier":4385,"Ander":4386,"Stunden":4387,"close":4388,"beein":4389,"llt":4390,"black":4391,"impossible":4392,"istic":4393,"modern":4394,"zustellen":4395,"violence":4396,"industrie":4397,"instead":4398,"appr":4399,"bemer":4400,"verb":4401,"ifen":4402,"green":4403,"beginnen":4404,"400":4405,"gauche":4406,"sache":4407,"compan":4408,"produire":4409,"transform":4410,"proté":4411,"Mor":4412,"eth":4413,"zone":4414,"recent":4415,"leich":4416,"typ":4417,"spect":4418,"standen":4419,"devrait":4420,"bol":4421,"hic":4422,"somebody":4423,"äume":4424,"support":4425,"énorme":4426,"Ru":4427,"wait":4428,"Puis":4429,"Ira":4430,"MS":4431,"Ober":4432,"Vater":4433,"caus":4434,"ît":4435,"parfois":4436,"iker":4437,"personal":4438,"intéres":4439,"Entwicklung":4440,"Just":4441,"gue":4442,"unique":4443,"ständ":4444,"laient":4445,"rip":4446,"parts":4447,"sécurité":4448,"devant":4449,"Ke":4450,"Mich":4451,"Mag":4452,"enne":4453,"inse":4454,"dispar":4455,"clé":4456,"others":4457,"Chine":4458,"mots":4459,"cos":4460,"nt":4461,"äten":4462,"oty":4463,"veulent":4464,"area":4465,"types":4466,"students":4467,"systèmes":4468,"Material":4469,"dor":4470,"importante":4471,"changé":4472,"Super":4473,"icains":4474,"Archite":4475,"Rich":4476,"Wort":4477,"anche":4478,"conditions":4479,"Stück":4480,"arrivé":4481,"Met":4482,"forest":4483,"longtemps":4484,"bereit":4485,"middle":4486,"Kos":4487,"May":4488,"Ziel":4489,"cès":4490,"visible":4491,"unterschied":4492,"différence":4493,"Mik":4494,"NA":4495,"aver":4496,"entier":4497,"secre":4498,"getan":4499,"appare":4500,"produz":4501,"guys":4502,"besten":4503,"innerhalb":4504,"learning":4505,"zeugen":4506,"Bau":4507,"Pre":4508,"trä":4509,"illeure":4510,"facile":4511,"ocean":4512,"kü":4513,"influ":4514,"toff":4515,"sortir":4516,"behavior":4517,"Kle":4518,"active":4519,"distrib":4520,"direct":4521,"lässt":4522,"lay":4523,"essentiel":4524,"collabor":4525,"198":4526,"échelle":4527,"humaine":4528,"wonderful":4529,"City":4530,"atom":4531,"size":4532,"manchmal":4533,"iving":4534,"produits":4535,"milit":4536,"Kindern":4537,"Heraus":4538,"zentr":4539,"lösen":4540,"Imagine":4541,"zung":4542,"urt":4543,"meilleure":4544,"treffen":4545,"obach":4546,"présente":4547,"vin":4548,"aben":4549,"terror":4550,"takes":4551,"cities":4552,"unglaublich":4553,"Pri":4554,"Sachen":4555,"häng":4556,"opér":4557,"fühlen":4558,"milieu":4559,"pattern":4560,"oftware":4561,"beginning":4562,"Amé":4563,"reach":4564,"nden":4565,"allé":4566,"Bezie":4567,"interessant":4568,"scientifiques":4569,"Hause":4570,"San":4571,"âge":4572,"devenu":4573,"liegen":4574,"full":4575,"fallen":4576,"regarde":4577,"Freund":4578,"Sprache":4579,"ständig":4580,"wall":4581,"common":4582,"road":4583,"fix":4584,"tir":4585,"plast":4586,"Demo":4587,"instant":4588,"ènes":4589,"step":4590,"Eltern":4591,"nämlich":4592,"Hau":4593,"eher":4594,"rece":4595,"died":4596,"compar":4597,"Cer":4598,"Gott":4599,"hô":4600,"wn":4601,"reven":4602,"poor":4603,"Dieser":4604,"Werk":4605,"early":4606,"Kap":4607,"Wal":4608,"listen":4609,"außen":4610,"terms":4611,"ennent":4612,"poser":4613,"Gew":4614,"Ko":4615,"eins":4616,"schö":4617,"game":4618,"einzige":4619,"ussi":4620,"frü":4621,"demander":4622,"obtenir":4623,"Wirk":4624,"Isra":4625,"Herausforder":4626,"vait":4627,"devient":4628,"seeing":4629,"finally":4630,"easy":4631,"bale":4632,"din":4633,"chiff":4634,"agement":4635,"international":4636,"Amérique":4637,"given":4638,"erweise":4639,"descri":4640,"amin":4641,"interes":4642,"Umwelt":4643,"croissance":4644,"gung":4645,"perhaps":4646,"Meer":4647,"arbeite":4648,"fläche":4649,"Länder":4650,"Ser":4651,"dû":4652,"feed":4653,"Web":4654,"solutions":4655,"services":4656,"Bar":4657,"ired":4658,"ließen":4659,"sterben":4660,"economic":4661,"Fort":4662,"tenu":4663,"sole":4664,"auto":4665,"tail":4666,"plein":4667,"Prozess":4668,"nahme":4669,"bill":4670,"len":4671,"onnen":4672,"otz":4673,"gern":4674,"Anfang":4675,"morce":4676,"construction":4677,"porter":4678,"machines":4679,"Polit":4680,"physique":4681,"Kor":4682,"Lage":4683,"Res":4684,"leave":4685,"Hel":4686,"zz":4687,"aren":4688,"lands":4689,"scheint":4690,"flex":4691,"Bür":4692,"jähr":4693,"lent":4694,"vite":4695,"zwar":4696,"inclu":4697,"artic":4698,"experiment":4699,"Pa":4700,"afin":4701,"ture":4702,"écou":4703,"toi":4704,"mains":4705,"auszu":4706,"direction":4707,"Music":4708,"versucht":4709,"behind":4710,"cannot":4711,"krie":4712,"atif":4713,"deuxième":4714,"born":4715,"schließlich":4716,"amount":4717,"lose":4718,"salle":4719,"schau":4720,"during":4721,"wissenschaft":4722,"nimmt":4723,"ctures":4724,"souff":4725,"nuit":4726,"particulier":4727,"dynam":4728,"étudiants":4729,"chacun":4730,"ips":4731,"péri":4732,"série":4733,"ücke":4734,"mouvement":4735,"Publi":4736,"absolute":4737,"extrem":4738,"Rest":4739,"Stellen":4740,"éten":4741,"needs":4742,"Universum":4743,"doivent":4744,"hands":4745,"longer":4746,"aura":4747,"short":4748,"bone":4749,"material":4750,"icité":4751,"mathemat":4752,"contrib":4753,"effective":4754,"Phil":4755,"companies":4756,"fau":4757,"zip":4758,"èrent":4759,"offe":4760,"überhaupt":4761,"quels":4762,"Prin":4763,"particuli":4764,"eyes":4765,"Publik":4766,"Pap":4767,"ming":4768,"sions":4769,"viens":4770,"minute":4771,"nouveaux":4772,"droite":4773,"aimerais":4774,"Hy":4775,"fine":4776,"sun":4777,"blue":4778,"pouvais":4779,"explo":4780,"value":4781,"krank":4782,"voudrais":4783,"Mex":4784,"Tit":4785,"erwar":4786,"attr":4787,"möglichen":4788,"puisse":4789,"Tiere":4790,"Zellen":4791,"kennt":4792,"mette":4793,"êtres":4794,"aspect":4795,"ows":4796,"bleiben":4797,"posed":4798,"direkt":4799,"record":4800,"issement":4801,"völker":4802,"Japan":4803,"reich":4804,"beobach":4805,"Beg":4806,"courage":4807,"arbeit":4808,"changes":4809,"fanden":4810,"Eis":4811,"kid":4812,"tele":4813,"color":4814,"brachte":4815,"nächste":4816,"Yeah":4817,"Zug":4818,"gefühl":4819,"due":4820,"voix":4821,"uster":4822,"sembler":4823,"funda":4824,"Ist":4825,"Kur":4826,"ko":4827,"parlé":4828,"formes":4829,"okay":4830,"ote":4831,"sta":4832,"deren":4833,"versch":4834,"connu":4835,"compag":4836,"Team":4837,"cules":4838,"gorith":4839,"réseau":4840,"Sa":4841,"aktion":4842,"eight":4843,"œu":4844,"intro":4845,"explain":4846,"ände":4847,"entreprises":4848,"needed":4849,"bure":4850,"isent":4851,"verw":4852,"aid":4853,"entreprise":4854,"gaben":4855,"growth":4856,"ridge":4857,"comportement":4858,"interested":4859,"Struktur":4860,"gegeben":4861,"flanzen":4862,"Tre":4863,"Zum":4864,"aliment":4865,"tient":4866,"Prä":4867,"piele":4868,"Staaten":4869,"Möglichkeiten":4870,"emotion":4871,"US":4872,"gone":4873,"onen":4874,"stay":4875,"began":4876,"forward":4877,"feet":4878,"fascin":4879,"Erfahrung":4880,"igned":4881,"faite":4882,"obvi":4883,"predi":4884,"niemand":4885,"voyage":4886,"Krebs":4887,"Li":4888,"grü":4889,"emer":4890,"Neur":4891,"150":4892,"chter":4893,"merk":4894,"tiques":4895,"utilisé":4896,"Park":4897,"weitere":4898,"Gol":4899,"œur":4900,"auth":4901,"mechan":4902,"tains":4903,"allem":4904,"meines":4905,"imaginer":4906,"Klim":4907,"hnen":4908,"gez":4909,"moitié":4910,"ängt":4911,"mussten":4912,"unten":4913,"pract":4914,"jeune":4915,"selon":4916,"travaille":4917,"droit":4918,"sozial":4919,"pil":4920,"verse":4921,"combien":4922,"ogra":4923,"Face":4924,"pul":4925,"itte":4926,"atmosph":4927,"enti":4928,"ilen":4929,"cons":4930,"worth":4931,"miles":4932,"letzte":4933,"menschliche":4934,"prenez":4935,"cru":4936,"dad":4937,"tt":4938,"termes":4939,"cking":4940,"disc":4941,"Dingen":4942,"Oze":4943,"Tex":4944,"bul":4945,"thank":4946,"ignor":4947,"Lassen":4948,"bank":4949,"oped":4950,"sang":4951,"near":4952,"Boden":4953,"Tages":4954,"scre":4955,"esten":4956,"estim":4957,"bras":4958,"matéri":4959,"reality":4960,"gabe":4961,"risk":4962,"sli":4963,"lex":4964,"entfern":4965,"ingén":4966,"consci":4967,"expect":4968,"étions":4969,"sortes":4970,"Kraft":4971,"laufen":4972,"tut":4973,"bez":4974,"send":4975,"valeur":4976,"fonctionne":4977,"nahm":4978,"Gedanken":4979,"45":4980,"Far":4981,"Ho":4982,"batt":4983,"ya":4984,"Öl":4985,"fair":4986,"opa":4987,"voie":4988,"Geschäft":4989,"lég":4990,"construit":4991,"eigene":4992,"People":4993,"ada":4994,"baren":4995,"fonda":4996,"measure":4997,"Gu":4998,"tried":4999,"sages":5000,"special":5001,"médica":5002,"intelligence":5003,"2000":5004,"mie":5005,"anges":5006,"cope":5007,"Geor":5008,"carte":5009,"Elek":5010,"uß":5011,"igte":5012,"terme":5013,"conna":5014,"Grunde":5015,"recogn":5016,"economy":5017,"mètres":5018,"sus":5019,"entr":5020,"web":5021,"ills":5022,"posé":5023,"realized":5024,"clair":5025,"mondiale":5026,"stain":5027,"lab":5028,"rote":5029,"grün":5030,"finalement":5031,"heureux":5032,"Denken":5033,"kämp":5034,"Bas":5035,"aly":5036,"notice":5037,"klein":5038,"challenge":5039,"nements":5040,"Verein":5041,"solche":5042,"stellte":5043,"ADN":5044,"Bra":5045,"Sinn":5046,"nelle":5047,"xim":5048,"pensent":5049,"centaines":5050,"buy":5051,"Sym":5052,"iqué":5053,"domin":5054,"amerikan":5055,"Ster":5056,"inf":5057,"onto":5058,"sell":5059,"propres":5060,"fft":5061,"ology":5062,"colon":5063,"Student":5064,"ledge":5065,"radio":5066,"océan":5067,"Brit":5068,"Gren":5069,"lost":5070,"argu":5071,"lesen":5072,"amour":5073,"ächst":5074,"gleiche":5075,"schreiben":5076,"Publikum":5077,"ham":5078,"van":5079,"thode":5080,"icity":5081,"conséqu":5082,"veloped":5083,"Wochen":5084,"Markt":5085,"introdu":5086,"Tage":5087,"felt":5088,"oxy":5089,"rig":5090,"geführt":5091,"whate":5092,"Erfol":5093,"whatever":5094,"cter":5095,"lungs":5096,"vée":5097,"wesen":5098,"schüt":5099,"Roboter":5100,"rä":5101,"forman":5102,"autant":5103,"Gesundheits":5104,"Wä":5105,"thet":5106,"derrière":5107,"saire":5108,"livres":5109,"hervor":5110,"Washing":5111,"simply":5112,"espèce":5113,"Nahr":5114,"gere":5115,"hil":5116,"sea":5117,"gebracht":5118,"iciel":5119,"antwort":5120,"résou":5121,"wären":5122,"damals":5123,"Autos":5124,"Washington":5125,"hiel":5126,"qualité":5127,"deca":5128,"developed":5129,"perspe":5130,"Fran":5131,"filles":5132,"motiv":5133,"Kranken":5134,"books":5135,"nationale":5136,"mur":5137,"autor":5138,"Rei":5139,"humans":5140,"occup":5141,"laisser":5142,"quality":5143,"incredible":5144,"Sin":5145,"ara":5146,"Gesicht":5147,"Unterschied":5148,"montré":5149,"75":5150,"Our":5151,"danger":5152,"row":5153,"amment":5154,"selben":5155,"éton":5156,"erstaun":5157,"powerful":5158,"total":5159,"princip":5160,"Hilfe":5161,"Kü":5162,"Right":5163,"associ":5164,"audience":5165,"media":5166,"Mittel":5167,"institutions":5168,"statist":5169,"schwierig":5170,"Bill":5171,"née":5172,"verte":5173,"ump":5174,"dark":5175,"ried":5176,"yourself":5177,"charge":5178,"funktionieren":5179,"wusste":5180,"sitting":5181,"online":5182,"différente":5183,"motion":5184,"économique":5185,"opportunity":5186,"perfect":5187,"Modell":5188,"quickly":5189,"cart":5190,"thè":5191,"bert":5192,"Innov":5193,"obwohl":5194,"volu":5195,"Freunde":5196,"partager":5197,"fliegen":5198,"Hoff":5199,"erlau":5200,"champ":5201,"sever":5202,"acy":5203,"pensons":5204,"importance":5205,"paper":5206,"litté":5207,"betrachten":5208,"avenir":5209,"Hom":5210,"Tier":5211,"gré":5212,"chsel":5213,"proch":5214,"surpris":5215,"Thema":5216,"Stand":5217,"mögen":5218,"contrô":5219,"strong":5220,"Arbeits":5221,"adul":5222,"lic":5223,"zellen":5224,"final":5225,"useum":5226,"Sek":5227,"besteht":5228,"Zahl":5229,"giving":5230,"abhäng":5231,"desc":5232,"maine":5233,"eller":5234,"izieren":5235,"telling":5236,"cisions":5237,"Facebook":5238,"Job":5239,"Yes":5240,"cte":5241,"reiben":5242,"Essen":5243,"liebe":5244,"effica":5245,"Sur":5246,"troll":5247,"igung":5248,"mobil":5249,"positive":5250,"Ad":5251,"Fahr":5252,"Lon":5253,"Mc":5254,"fight":5255,"zte":5256,"ref":5257,"attend":5258,"aring":5259,"agne":5260,"bene":5261,"post":5262,"maines":5263,"capital":5264,"néces":5265,"political":5266,"maladies":5267,"atoire":5268,"frastru":5269,"Lehrer":5270,"résoudre":5271,"clo":5272,"either":5273,"gain":5274,"vacc":5275,"thes":5276,"alte":5277,"semaines":5278,"stage":5279,"bewusst":5280,"pourrions":5281,"brought":5282,"wouldn":5283,"Sehen":5284,"profit":5285,"seconde":5286,"semaine":5287,"Unsere":5288,"voitures":5289,"espèces":5290,"collect":5291,"confiance":5292,"Mot":5293,"mour":5294,"vas":5295,"vest":5296,"Etats":5297,"steme":5298,"ruption":5299,"gessen":5300,"pick":5301,"sw":5302,"mari":5303,"entreprene":5304,"dream":5305,"install":5306,"shows":5307,"samm":5308,"Lösung":5309,"ptem":5310,"wann":5311,"gesetzt":5312,"Ensuite":5313,"frei":5314,"Woche":5315,"völlig":5316,"cier":5317,"izing":5318,"Tele":5319,"Monate":5320,"nombreux":5321,"mass":5322,"infrastru":5323,"lire":5324,"placer":5325,"Heute":5326,"increas":5327,"leaders":5328,"persön":5329,"pit":5330,"laires":5331,"ressent":5332,"fragte":5333,"espère":5334,"London":5335,"aul":5336,"sustain":5337,"aufzu":5338,"rieb":5339,"approach":5340,"falsch":5341,"tons":5342,"entière":5343,"stum":5344,"diction":5345,"user":5346,"messen":5347,"phones":5348,"contrôle":5349,"gebung":5350,"bottom":5351,"pièce":5352,"Bewegung":5353,"perspective":5354,"Col":5355,"IT":5356,"deep":5357,"arten":5358,"monstr":5359,"Musique":5360,"growing":5361,"Wissenschaftler":5362,"schlecht":5363,"consomm":5364,"99":5365,"Califor":5366,"gars":5367,"iken":5368,"trauen":5369,"zuvor":5370,"brit":5371,"ernt":5372,"cherche":5373,"conce":5374,"jedoch":5375,"tait":5376,"anderer":5377,"starting":5378,"étude":5379,"consider":5380,"35":5381,"Sol":5382,"Test":5383,"kaufen":5384,"kraft":5385,"nav":5386,"tit":5387,"entra":5388,"entscheiden":5389,"areas":5390,"spent":5391,"matin":5392,"drop":5393,"premiers":5394,"changing":5395,"draw":5396,"extrême":5397,"modèles":5398,"South":5399,"bén":5400,"hosp":5401,"sehe":5402,"parent":5403,"board":5404,"capit":5405,"expliquer":5406,"Hu":5407,"eat":5408,"tho":5409,"ieht":5410,"meur":5411,"passen":5412,"benöt":5413,"sert":5414,"disait":5415,"faisant":5416,"individual":5417,"résultats":5418,"raconter":5419,"particip":5420,"average":5421,"Bürger":5422,"läu":5423,"ché":5424,"revolution":5425,"mention":5426,"réun":5427,"raisons":5428,"Fähigkeit":5429,"Labor":5430,"gles":5431,"Beif":5432,"étant":5433,"iziert":5434,"unseres":5435,"communication":5436,"druck":5437,"Familien":5438,"rement":5439,"digen":5440,"verbesser":5441,"rock":5442,"fini":5443,"arrière":5444,"genauso":5445,"leader":5446,"verbunden":5447,"buch":5448,"kn":5449,"iné":5450,"atives":5451,"simpl":5452,"hinein":5453,"potentiel":5454,"quantité":5455,"ünstler":5456,"démocrat":5457,"conversation":5458,"mam":5459,"performan":5460,"chemin":5461,"gelernt":5462,"kleiner":5463,"größte":5464,"pauvre":5465,"bâtiment":5466,"Richard":5467,"Viele":5468,"Wahl":5469,"ake":5470,"gène":5471,"taux":5472,"cham":5473,"itzen":5474,"alone":5475,"gebor":5476,"allo":5477,"jekte":5478,"réel":5479,"ruck":5480,"flow":5481,"crée":5482,"morning":5483,"blood":5484,"numbers":5485,"weeks":5486,"Ah":5487,"Best":5488,"Dre":5489,"bate":5490,"urban":5491,"gele":5492,"finan":5493,"programm":5494,"ötzlich":5495,"physical":5496,"cars":5497,"fire":5498,"slow":5499,"wes":5500,"aster":5501,"respect":5502,"fear":5503,"fluss":5504,"fähig":5505,"erinnern":5506,"enden":5507,"chant":5508,"reds":5509,"unk":5510,"icy":5511,"kehr":5512,"access":5513,"visage":5514,"begin":5515,"sollen":5516,"Nacht":5517,"zweite":5518,"Gemeinschaft":5519,"bact":5520,"ides":5521,"izen":5522,"vés":5523,"pourraient":5524,"preu":5525,"Revolution":5526,"Aujourd":5527,"accès":5528,"welches":5529,"naturel":5530,"essayé":5531,"nombreuses":5532,"Peut":5533,"Spez":5534,"Haupt":5535,"Eins":5536,"joy":5537,"rons":5538,"enreg":5539,"parties":5540,"Alter":5541,"poir":5542,"draußen":5543,"police":5544,"fragt":5545,"Technologien":5546,"résultat":5547,"Ländern":5548,"ulaire":5549,"isol":5550,"itation":5551,"dic":5552,"weis":5553,"forces":5554,"wasser":5555,"prochen":5556,"wart":5557,"faisait":5558,"zeuge":5559,"similar":5560,"literally":5561,"Austral":5562,"fou":5563,"rein":5564,"uring":5565,"anten":5566,"rice":5567,"Schritt":5568,"tige":5569,"caract":5570,"iction":5571,"Los":5572,"Wert":5573,"stick":5574,"sieben":5575,"ateg":5576,"itesse":5577,"suivre":5578,"Beifall":5579,"Namen":5580,"west":5581,"zones":5582,"astrop":5583,"antwor":5584,"outils":5585,"werfen":5586,"iko":5587,"graphie":5588,"seems":5589,"hér":5590,"licht":5591,"modi":5592,"rép":5593,"cycle":5594,"robots":5595,"prenons":5596,"fier":5597,"phen":5598,"lever":5599,"soient":5600,"angle":5601,"rendu":5602,"thémat":5603,"téléphone":5604,"issues":5605,"magnif":5606,"soleil":5607,"Kat":5608,"Wind":5609,"parmi":5610,"assis":5611,"ressources":5612,"ordinateurs":5613,"lorsqu":5614,"objets":5615,"Technik":5616,"nés":5617,"vitesse":5618,"intelle":5619,"zeige":5620,"carbon":5621,"temp":5622,"matière":5623,"teilt":5624,"intelligent":5625,"mettez":5626,"lap":5627,"weder":5628,"dens":5629,"agieren":5630,"spread":5631,"current":5632,"bitte":5633,"valent":5634,"größer":5635,"ailleurs":5636,"Gesundheit":5637,"texte":5638,"kop":5639,"équ":5640,"erfol":5641,"erschaffen":5642,"verbin":5643,"verschw":5644,"viv":5645,"troisième":5646,"scientists":5647,"erklären":5648,"éto":5649,"alog":5650,"allait":5651,"icon":5652,"schwar":5653,"observ":5654,"Verbindung":5655,"Ihren":5656,"oise":5657,"dead":5658,"sty":5659,"gefähr":5660,"consum":5661,"unehmen":5662,"komplex":5663,"bureau":5664,"3D":5665,"climate":5666,"Natürlich":5667,"Fern":5668,"bons":5669,"fla":5670,"ials":5671,"kill":5672,"geworden":5673,"soon":5674,"conscience":5675,"größten":5676,"sudden":5677,"moments":5678,"völkerung":5679,"Who":5680,"cot":5681,"verbre":5682,"aussehen":5683,"Regar":5684,"développer":5685,"subject":5686,"Del":5687,"Wach":5688,"mmer":5689,"inger":5690,"prennent":5691,"trotz":5692,"pourriez":5693,"Anzahl":5694,"knowledge":5695,"Einstein":5696,"bud":5697,"frag":5698,"curity":5699,"pétro":5700,"Look":5701,"discovered":5702,"Krieg":5703,"philos":5704,"Foto":5705,"Sicht":5706,"quart":5707,"haft":5708,"exc":5709,"miteinander":5710,"appeler":5711,"generation":5712,"Dor":5713,"Rel":5714,"för":5715,"aria":5716,"anda":5717,"verur":5718,"réuss":5719,"docu":5720,"center":5721,"Stimme":5722,"précis":5723,"Prof":5724,"employ":5725,"Tatsache":5726,"Städte":5727,"fils":5728,"sand":5729,"yer":5730,"Alles":5731,"shape":5732,"daraus":5733,"passieren":5734,"Jahrhundert":5735,"agir":5736,"seront":5737,"Recht":5738,"utilisant":5739,"throp":5740,"longue":5741,"signific":5742,"write":5743,"hundreds":5744,"entially":5745,"tar":5746,"chron":5747,"itten":5748,"jemals":5749,"voice":5750,"rue":5751,"flus":5752,"ückt":5753,"Größ":5754,"function":5755,"bilden":5756,"restaur":5757,"domaine":5758,"verwendet":5759,"religion":5760,"entfernt":5761,"cœur":5762,"wal":5763,"neigh":5764,"mathémat":5765,"demi":5766,"cris":5767,"bonnes":5768,"realize":5769,"scientifique":5770,"Rück":5771,"bacter":5772,"celles":5773,"dépend":5774,"mener":5775,"visual":5776,"hood":5777,"Mathemat":5778,"feeling":5779,"beginnt":5780,"Indust":5781,"Führ":5782,"Programm":5783,"discuss":5784,"Num":5785,"übr":5786,"assur":5787,"blick":5788,"herauszu":5789,"tendance":5790,"théorie":5791,"biz":5792,"eye":5793,"satz":5794,"intr":5795,"stie":5796,"perdu":5797,"mesur":5798,"ört":5799,"zeitig":5800,"Cor":5801,"Tats":5802,"jam":5803,"nice":5804,"tief":5805,"chans":5806,"soir":5807,"pekt":5808,"content":5809,"Jeder":5810,"ätze":5811,"issant":5812,"professe":5813,"Platz":5814,"travaillé":5815,"Tatsächlich":5816,"By":5817,"Sh":5818,"andon":5819,"town":5820,"mache":5821,"fortun":5822,"jeux":5823,"propri":5824,"digkeit":5825,"atteindre":5826,"règles":5827,"Francis":5828,"pétrole":5829,"Fel":5830,"mous":5831,"vec":5832,"gezeigt":5833,"network":5834,"kleines":5835,"semblent":5836,"journée":5837,"secret":5838,"Pal":5839,"gliche":5840,"lat":5841,"itze":5842,"ores":5843,"anti":5844,"hnt":5845,"scène":5846,"understanding":5847,"enseign":5848,"kosten":5849,"bekannt":5850,"industry":5851,"Bakter":5852,"Ici":5853,"Mes":5854,"gives":5855,"white":5856,"serious":5857,"artif":5858,"Erinner":5859,"cents":5860,"Hey":5861,"Frank":5862,"voulait":5863,"devrions":5864,"samkeit":5865,"integr":5866,"geboren":5867,"cs":5868,"idi":5869,"stär":5870,"continuer":5871,"réfléchir":5872,"Krankheit":5873,"Bang":5874,"Dam":5875,"Hum":5876,"sle":5877,"uelle":5878,"schul":5879,"forsch":5880,"défi":5881,"cially":5882,"illed":5883,"Plus":5884,"smart":5885,"études":5886,"fassen":5887,"sociétés":5888,"trucs":5889,"Tom":5890,"bist":5891,"conserv":5892,"condition":5893,"mente":5894,"wish":5895,"gewesen":5896,"movement":5897,"imagination":5898,"Israel":5899,"Ele":5900,"elek":5901,"tax":5902,"avail":5903,"forms":5904,"journal":5905,"institution":5906,"nehmer":5907,"genannt":5908,"PS":5909,"With":5910,"mater":5911,"ystem":5912,"zel":5913,"ingt":5914,"gewis":5915,"print":5916,"rift":5917,"bran":5918,"hnung":5919,"lasse":5920,"Richtung":5921,"Herausforderung":5922,"Gleich":5923,"sof":5924,"zo":5925,"asking":5926,"among":5927,"auft":5928,"connected":5929,"Bildung":5930,"meilleurs":5931,"Darwin":5932,"réalisé":5933,"papier":5934,"terrible":5935,"Demokrat":5936,"Reihe":5937,"Kil":5938,"Qui":5939,"roll":5940,"wies":5941,"trust":5942,"heur":5943,"concl":5944,"demment":5945,"ktor":5946,"letzt":5947,"count":5948,"Christ":5949,"Après":5950,"Bel":5951,"bein":5952,"asi":5953,"theory":5954,"stim":5955,"cemment":5956,"mail":5957,"ulpt":5958,"révolution":5959,"traitement":5960,"dacht":5961,"gegenüber":5962,"alternat":5963,"Charles":5964,"Gene":5965,"Lors":5966,"vict":5967,"moved":5968,"selbe":5969,"marcher":5970,"creating":5971,"crimin":5972,"chaine":5973,"signal":5974,"relationship":5975,"conférence":5976,"contact":5977,"recently":5978,"béné":5979,"raus":5980,"initi":5981,"alien":5982,"orter":5983,"utage":5984,"plom":5985,"faces":5986,"grat":5987,"vivent":5988,"speed":5989,"affa":5990,"tiny":5991,"organisation":5992,"psycholog":5993,"witter":5994,"hundred":5995,"fondament":5996,"Avec":5997,"Pak":5998,"Ris":5999,"Times":6000,"ersch":6001,"stup":6002,"verste":6003,"pourtant":6004,"Einige":6005,"gues":6006,"holen":6007,"Eink":6008,"Sor":6009,"squ":6010,"chirur":6011,"istance":6012,"möchten":6013,"Quelle":6014,"Mark":6015,"risque":6016,"Straßen":6017,"tools":6018,"Miss":6019,"bile":6020,"fis":6021,"tö":6022,"zw":6023,"ède":6024,"thre":6025,"para":6026,"tik":6027,"nachdem":6028,"Mitgefühl":6029,"circu":6030,"developing":6031,"arrêter":6032,"glücklich":6033,"Kamp":6034,"Nie":6035,"Sal":6036,"Vol":6037,"ny":6038,"uel":6039,"espoir":6040,"denkt":6041,"sibil":6042,"lik":6043,"Teile":6044,"region":6045,"playing":6046,"girls":6047,"gon":6048,"lauf":6049,"pel":6050,"ouvert":6051,"unbe":6052,"algorith":6053,"abo":6054,"machten":6055,"accept":6056,"coin":6057,"direc":6058,"guess":6059,"souha":6060,"utilisent":6061,"explos":6062,"gingen":6063,"entwickel":6064,"zeugt":6065,"génération":6066,"distance":6067,"Wahrheit":6068,"Niger":6069,"dop":6070,"mig":6071,"sin":6072,"lived":6073,"relations":6074,"langage":6075,"Sud":6076,"beschäft":6077,"région":6078,"wrote":6079,"ètre":6080,"éré":6081,"classe":6082,"films":6083,"groupes":6084,"pouvaient":6085,"Sonnen":6086,"agriculture":6087,"Prinzip":6088,"Muster":6089,"ennes":6090,"Blut":6091,"Fuß":6092,"ucht":6093,"anfangen":6094,"ley":6095,"bege":6096,"terrain":6097,"exté":6098,"acheter":6099,"sonst":6100,"See":6101,"anyone":6102,"cellule":6103,"guten":6104,"valu":6105,"absolutely":6106,"Feu":6107,"länger":6108,"wider":6109,"pratique":6110,"deshalb":6111,"save":6112,"chercher":6113,"zusch":6114,"dollar":6115,"Sicherheit":6116,"période":6117,"AID":6118,"lines":6119,"rän":6120,"enth":6121,"ingly":6122,"saient":6123,"aise":6124,"Medien":6125,"batter":6126,"drive":6127,"verloren":6128,"showed":6129,"English":6130,"écrire":6131,"erfolgre":6132,"Eigen":6133,"Meter":6134,"Where":6135,"tä":6136,"itions":6137,"trie":6138,"überras":6139,"stark":6140,"fällt":6141,"Blick":6142,"projets":6143,"glace":6144,"remarqu":6145,"Preis":6146,"peine":6147,"représente":6148,"sept":6149,"becomes":6150,"designed":6151,"savent":6152,"aves":6153,"benutzt":6154,"monter":6155,"hydro":6156,"conception":6157,"likely":6158,"Fisch":6159,"Notre":6160,"list":6161,"tails":6162,"décl":6163,"nachdenken":6164,"putting":6165,"stood":6166,"cracy":6167,"näher":6168,"incredibly":6169,"Kosten":6170,"Dro":6171,"Hin":6172,"êts":6173,"requ":6174,"liver":6175,"achie":6176,"accé":6177,"änge":6178,"unterstüt":6179,"travel":6180,"rouge":6181,"Produkt":6182,"komplett":6183,"suggest":6184,"Ergebnis":6185,"aj":6186,"hit":6187,"hast":6188,"bekam":6189,"benef":6190,"habitu":6191,"rules":6192,"semb":6193,"Frei":6194,"activité":6195,"succès":6196,"running":6197,"dimensions":6198,"Veränderung":6199,"Twitter":6200,"kor":6201,"itäten":6202,"bekommt":6203,"igkeiten":6204,"pecially":6205,"kept":6206,"surve":6207,"central":6208,"solve":6209,"Umgebung":6210,"computers":6211,"Größe":6212,"Big":6213,"Hinter":6214,"Tem":6215,"baby":6216,"dus":6217,"evi":6218,"lande":6219,"tap":6220,"bey":6221,"plat":6222,"fail":6223,"endant":6224,"justice":6225,"nachzu":6226,"structures":6227,"hinaus":6228,"hypo":6229,"Vorstellung":6230,"connaissance":6231,"potential":6232,"Organis":6233,"Politik":6234,"Asi":6235,"pein":6236,"zerst":6237,"device":6238,"subst":6239,"ference":6240,"occas":6241,"Aufgabe":6242,"talked":6243,"Studenten":6244,"blich":6245,"ié":6246,"mann":6247,"pun":6248,"pire":6249,"quent":6250,"degre":6251,"gekommen":6252,"ctes":6253,"mobile":6254,"aging":6255,"accep":6256,"Schauen":6257,"Bedeut":6258,"Stat":6259,"crise":6260,"boy":6261,"compet":6262,"Amerikan":6263,"Europa":6264,"Liebe":6265,"beeinflus":6266,"Regardez":6267,"available":6268,"Aktiv":6269,"Tur":6270,"zü":6271,"isant":6272,"ced":6273,"neben":6274,"déte":6275,"manger":6276,"resources":6277,"Reise":6278,"route":6279,"utzutage":6280,"pictures":6281,"Genau":6282,"vérité":6283,"bizar":6284,"station":6285,"plötzlich":6286,"berg":6287,"avan":6288,"allein":6289,"capables":6290,"érique":6291,"Amerika":6292,"dirige":6293,"development":6294,"vérit":6295,"Oberfläche":6296,"particulièrement":6297,"fundamental":6298,"Glo":6299,"RI":6300,"pare":6301,"äfte":6302,"inqui":6303,"haven":6304,"notion":6305,"Angel":6306,"Grün":6307,"kontroll":6308,"danach":6309,"respond":6310,"Generation":6311,"atter":6312,"toll":6313,"fühle":6314,"lieben":6315,"tempor":6316,"Vortrag":6317,"Deshalb":6318,"moun":6319,"character":6320,"pauvres":6321,"Häl":6322,"TV":6323,"itaire":6324,"assi":6325,"schät":6326,"gradu":6327,"erreicht":6328,"ichtet":6329,"Mitte":6330,"geschrieben":6331,"rester":6332,"aktiv":6333,"zero":6334,"extraordinaire":6335,"65":6336,"Hir":6337,"Hoch":6338,"roffen":6339,"Är":6340,"ators":6341,"imal":6342,"temper":6343,"niemals":6344,"heureusement":6345,"expériences":6346,"Maschine":6347,"Act":6348,"Pos":6349,"Von":6350,"Will":6351,"iod":6352,"nais":6353,"icans":6354,"acle":6355,"groups":6356,"massive":6357,"präsent":6358,"Vereinigten":6359,"AIDS":6360,"Künstler":6361,"Pers":6362,"rand":6363,"vard":6364,"necess":6365,"wechsel":6366,"essor":6367,"énom":6368,"konzentr":6369,"Regier":6370,"reasons":6371,"Strom":6372,"général":6373,"George":6374,"littéra":6375,"hot":6376,"rôle":6377,"deck":6378,"ellow":6379,"Realität":6380,"brechen":6381,"claire":6382,"betrachte":6383,"mauvaise":6384,"Sci":6385,"rires":6386,"range":6387,"wend":6388,"depend":6389,"entendre":6390,"uren":6391,"term":6392,"exer":6393,"noir":6394,"gesprochen":6395,"einfache":6396,"clean":6397,"2008":6398,"double":6399,"street":6400,"approche":6401,"absolument":6402,"symbol":6403,"schneller":6404,"choice":6405,"Cl":6406,"Kolle":6407,"Situation":6408,"belle":6409,"nine":6410,"chest":6411,"onom":6412,"icien":6413,"plants":6414,"suit":6415,"aufge":6416,"daher":6417,"artist":6418,"Ihrem":6419,"dramat":6420,"Bereich":6421,"links":6422,"Während":6423,"mung":6424,"deine":6425,"abandon":6426,"plate":6427,"lib":6428,"period":6429,"déc":6430,"gren":6431,"couleur":6432,"hlte":6433,"bigger":6434,"politiques":6435,"moyenne":6436,"hoffe":6437,"liste":6438,"selt":6439,"vieux":6440,"ultim":6441,"fourn":6442,"weltweit":6443,"First":6444,"Forschung":6445,"infrastructure":6446,"Pakistan":6447,"Ir":6448,"evol":6449,"lekü":6450,"Straße":6451,"sofort":6452,"600":6453,"Bank":6454,"Fle":6455,"Nur":6456,"Rolle":6457,"zunehmen":6458,"ètes":6459,"émer":6460,"réussi":6461,"doctor":6462,"mécan":6463,"absolut":6464,"North":6465,"älter":6466,"Karte":6467,"affect":6468,"Firma":6469,"writing":6470,"Anderson":6471,"egal":6472,"rect":6473,"récemment":6474,"ängen":6475,"traite":6476,"spez":6477,"Jahrzehn":6478,"bewegt":6479,"involved":6480,"moderne":6481,"Erfolg":6482,"Ca":6483,"Pflanzen":6484,"langen":6485,"tan":6486,"yes":6487,"dieren":6488,"icate":6489,"roy":6490,"nennt":6491,"manip":6492,"durant":6493,"solar":6494,"carry":6495,"197":6496,"nuclé":6497,"voller":6498,"zeichnet":6499,"éléments":6500,"morceau":6501,"cad":6502,"especially":6503,"prochaine":6504,"trees":6505,"month":6506,"knows":6507,"Sonne":6508,"collè":6509,"Gewalt":6510,"Det":6511,"late":6512,"uf":6513,"isé":6514,"ision":6515,"lack":6516,"schritt":6517,"blind":6518,"ortex":6519,"strat":6520,"alisation":6521,"recherches":6522,"Hoffnung":6523,"several":6524,"23":6525,"ahn":6526,"tâ":6527,"wild":6528,"ennen":6529,"astron":6530,"beide":6531,"viend":6532,"icient":6533,"court":6534,"truth":6535,"neues":6536,"showing":6537,"irgendwo":6538,"électricité":6539,"mäß":6540,"designers":6541,"Hälfte":6542,"bour":6543,"bri":6544,"yn":6545,"otogra":6546,"towards":6547,"trolle":6548,"obten":6549,"ively":6550,"sociaux":6551,"engage":6552,"NASA":6553,"extrêmement":6554,"Francisco":6555,"Tas":6556,"jung":6557,"lust":6558,"tox":6559,"surtout":6560,"finde":6561,"création":6562,"wenden":6563,"vécu":6564,"deviennent":6565,"photograp":6566,"découvrir":6567,"offensicht":6568,"techniques":6569,"puissance":6570,"ähnlich":6571,"Street":6572,"camera":6573,"gin":6574,"hall":6575,"osaur":6576,"security":6577,"ource":6578,"ierend":6579,"hinzu":6580,"doute":6581,"améliorer":6582,"nécessaire":6583,"beyond":6584,"dun":6585,"ios":6586,"situ":6587,"wide":6588,"ality":6589,"peau":6590,"nerg":6591,"basic":6592,"schieden":6593,"cuis":6594,"performance":6595,"Baby":6596,"MIT":6597,"gol":6598,"insp":6599,"genie":6600,"manche":6601,"brand":6602,"stens":6603,"iled":6604,"hysi":6605,"Nachrichten":6606,"meaning":6607,"University":6608,"begannen":6609,"particularly":6610,"focus":6611,"conscious":6612,"Bab":6613,"Bru":6614,"Of":6615,"Zahlen":6616,"cogn":6617,"foss":6618,"hop":6619,"pte":6620,"inven":6621,"delà":6622,"stimmt":6623,"meist":6624,"bewer":6625,"dier":6626,"icated":6627,"indest":6628,"habt":6629,"Versuch":6630,"munik":6631,"dachten":6632,"interessiert":6633,"totalement":6634,"destru":6635,"Medizin":6636,"liberté":6637,"médicaments":6638,"Ker":6639,"Sau":6640,"Spa":6641,"Tal":6642,"narr":6643,"anthrop":6644,"dedans":6645,"orient":6646,"sahen":6647,"Behand":6648,"icians":6649,"großer":6650,"frage":6651,"graphique":6652,"climatique":6653,"soziale":6654,"Irak":6655,"Po":6656,"fet":6657,"ivi":6658,"gearbeitet":6659,"movie":6660,"door":6661,"avion":6662,"sport":6663,"partner":6664,"igens":6665,"Orte":6666,"souris":6667,"horri":6668,"certainly":6669,"Meinung":6670,"Imaginez":6671,"Ozean":6672,"intellect":6673,"Demokratie":6674,"Bre":6675,"Ner":6676,"lei":6677,"dee":6678,"arbres":6679,"heut":6680,"Arm":6681,"komme":6682,"croire":6683,"transformer":6684,"Studie":6685,"réaliser":6686,"gesamte":6687,"Maybe":6688,"screen":6689,"démocratie":6690,"22":6691,"Alex":6692,"Red":6693,"Sha":6694,"kal":6695,"befinden":6696,"weisen":6697,"ibli":6698,"kompl":6699,"Regeln":6700,"passierte":6701,"globale":6702,"schools":6703,"moyens":6704,"efficace":6705,"verursa":6706,"Pot":6707,"Wol":6708,"eh":6709,"abstra":6710,"mage":6711,"accident":6712,"viez":6713,"vraie":6714,"carbone":6715,"pack":6716,"sentiment":6717,"formed":6718,"biologie":6719,"Fehler":6720,"connaître":6721,"Dorf":6722,"directement":6723,"evidence":6724,"fit":6725,"anstatt":6726,"schrieb":6727,"ctors":6728,"dispon":6729,"Stan":6730,"sold":6731,"changements":6732,"exemples":6733,"développé":6734,"sprach":6735,"molé":6736,"James":6737,"bais":6738,"raum":6739,"erwä":6740,"thin":6741,"umor":6742,"montag":6743,"utilisons":6744,"faszin":6745,"Ihrer":6746,"Entwicklungs":6747,"sounds":6748,"Beziehung":6749,"Most":6750,"Sex":6751,"equ":6752,"rout":6753,"ansehen":6754,"arily":6755,"peace":6756,"ulations":6757,"song":6758,"mers":6759,"disant":6760,"Any":6761,"humanité":6762,"Maß":6763,"immel":6764,"scientific":6765,"effort":6766,"rencontré":6767,"Chaque":6768,"littéralement":6769,"Evolution":6770,"Paul":6771,"pom":6772,"erkann":6773,"dog":6774,"pound":6775,"occu":6776,"skin":6777,"complexe":6778,"profonde":6779,"Zugang":6780,"bactéri":6781,"herauszufinden":6782,"cure":6783,"tue":6784,"oure":6785,"apes":6786,"stars":6787,"gence":6788,"formen":6789,"note":6790,"venez":6791,"shop":6792,"Prote":6793,"geschieht":6794,"block":6795,"satell":6796,"galaxies":6797,"produzieren":6798,"chiffres":6799,"Tür":6800,"bte":6801,"sinn":6802,"ises":6803,"separ":6804,"platz":6805,"proche":6806,"réf":6807,"merci":6808,"faits":6809,"céré":6810,"Deux":6811,"Wieder":6812,"nuclear":6813,"appelée":6814,"écoles":6815,"democracy":6816,"convain":6817,"automat":6818,"jenigen":6819,"apprent":6820,"britann":6821,"GPS":6822,"Même":6823,"ack":6824,"fat":6825,"iPh":6826,"expression":6827,"illust":6828,"gesche":6829,"finir":6830,"Beau":6831,"relativ":6832,"medical":6833,"medizin":6834,"Harvard":6835,"Experiment":6836,"Certains":6837,"dang":6838,"tte":6839,"vul":6840,"wants":6841,"erie":6842,"genes":6843,"phénom":6844,"voler":6845,"sky":6846,"walking":6847,"Fähigkeiten":6848,"Bedeutung":6849,"masse":6850,"nal":6851,"uh":6852,"anze":6853,"leist":6854,"soins":6855,"safe":6856,"paravant":6857,"accompl":6858,"Bewusst":6859,"plane":6860,"activity":6861,"étudier":6862,"exciting":6863,"bestimmten":6864,"Baum":6865,"bung":6866,"osph":6867,"apart":6868,"lesquelles":6869,"anybody":6870,"nutr":6871,"atteint":6872,"mächt":6873,"possibilité":6874,"bildung":6875,"Entscheidungen":6876,"influence":6877,"Mart":6878,"Oper":6879,"Ress":6880,"Sto":6881,"nein":6882,"reçu":6883,"forts":6884,"expon":6885,"détermin":6886,"frust":6887,"ivil":6888,"Schwe":6889,"uchs":6890,"transformation":6891,"üssel":6892,"regardé":6893,"pieces":6894,"effectivement":6895,"Innovation":6896,"gi":6897,"issage":6898,"revenir":6899,"org":6900,"brill":6901,"poss":6902,"Zeug":6903,"prépar":6904,"greifen":6905,"nahe":6906,"Monaten":6907,"amples":6908,"neurones":6909,"private":6910,"wichtiger":6911,"pousser":6912,"argument":6913,"Bakterien":6914,"Mob":6915,"gènes":6916,"vag":6917,"onie":6918,"uni":6919,"irgende":6920,"gehe":6921,"dimin":6922,"façons":6923,"examples":6924,"surprise":6925,"plex":6926,"essere":6927,"Schn":6928,"Bevölkerung":6929,"Arab":6930,"Neu":6931,"buildings":6932,"starts":6933,"bsite":6934,"general":6935,"wussten":6936,"jemanden":6937,"suivante":6938,"prototy":6939,"technique":6940,"circ":6941,"protect":6942,"models":6943,"DA":6944,"Sim":6945,"ael":6946,"cée":6947,"join":6948,"kün":6949,"phr":6950,"tie":6951,"élo":6952,"enfin":6953,"search":6954,"stren":6955,"sucht":6956,"Invest":6957,"interact":6958,"plais":6959,"courant":6960,"cape":6961,"stream":6962,"destin":6963,"Bud":6964,"article":6965,"obviously":6966,"occasion":6967,"Sand":6968,"Wür":6969,"ias":6970,"junge":6971,"uniquement":6972,"dehors":6973,"entrer":6974,"plantes":6975,"role":6976,"permettre":6977,"avère":6978,"parti":6979,"Seiten":6980,"natür":6981,"Mehr":6982,"Chinese":6983,"issez":6984,"sitzen":6985,"merveilleux":6986,"favorite":6987,"Architektur":6988,"opération":6989,"materials":6990,"DH":6991,"Dé":6992,"II":6993,"Las":6994,"cach":6995,"daughter":6996,"gig":6997,"hungen":6998,"san":6999,"issons":7000,"teten":7001,"auparavant":7002,"ologen":7003,"gress":7004,"avantage":7005,"graphic":7006,"ehr":7007,"hé":7008,"ring":7009,"soi":7010,"tree":7011,"pensais":7012,"everywhere":7013,"tourner":7014,"largest":7015,"projects":7016,"incroyablement":7017,"progress":7018,"kilomètres":7019,"Relig":7020,"document":7021,"Are":7022,"Sil":7023,"ajou":7024,"isto":7025,"apie":7026,"gedacht":7027,"maxim":7028,"stelle":7029,"via":7030,"ships":7031,"faster":7032,"Gruppen":7033,"wichtige":7034,"Bücher":7035,"tausende":7036,"öffentlichen":7037,"ciel":7038,"conse":7039,"bleibt":7040,"Leiden":7041,"classi":7042,"bama":7043,"biggest":7044,"gewalt":7045,"African":7046,"haute":7047,"further":7048,"Galax":7049,"läuft":7050,"bacteria":7051,"Wör":7052,"bab":7053,"lungen":7054,"lower":7055,"iciens":7056,"blanc":7057,"Molekü":7058,"continent":7059,"Atlant":7060,"empê":7061,"azine":7062,"Angeles":7063,"décenn":7064,"Frie":7065,"Gar":7066,"Nob":7067,"Pan":7068,"bessere":7069,"lig":7070,"nord":7071,"represent":7072,"tech":7073,"ickt":7074,"except":7075,"Thom":7076,"inken":7077,"halte":7078,"ordre":7079,"volle":7080,"simples":7081,"souvenir":7082,"Jahrhunder":7083,"Prot":7084,"Daher":7085,"Gerät":7086,"Auch":7087,"Haut":7088,"Sm":7089,"trau":7090,"verstanden":7091,"nete":7092,"comfort":7093,"standard":7094,"huit":7095,"Aufmerk":7096,"naturelle":7097,"rempl":7098,"totally":7099,"commercial":7100,"einzelne":7101,"rippe":7102,"sozialen":7103,"matériaux":7104,"Bus":7105,"Fun":7106,"IH":7107,"Sam":7108,"equi":7109,"scar":7110,"sites":7111,"tw":7112,"arma":7113,"provo":7114,"loi":7115,"lywood":7116,"ador":7117,"dites":7118,"innere":7119,"famili":7120,"rechts":7121,"gemeinsam":7122,"adoles":7123,"Typ":7124,"arbeitete":7125,"cartes":7126,"Beaucoup":7127,"Effe":7128,"glie":7129,"mu":7130,"pages":7131,"zig":7132,"ço":7133,"appré":7134,"ilien":7135,"prakt":7136,"absor":7137,"uly":7138,"Vergangen":7139,"Star":7140,"2010":7141,"bonheur":7142,"student":7143,"gleichzeitig":7144,"Nachbar":7145,"dienen":7146,"führte":7147,"hospital":7148,"extérieur":7149,"Bot":7150,"Dien":7151,"Kan":7152,"gam":7153,"games":7154,"software":7155,"prü":7156,"weight":7157,"rial":7158,"edom":7159,"treten":7160,"journey":7161,"trouvent":7162,"sorts":7163,"scann":7164,"supposed":7165,"hörte":7166,"Tube":7167,"neighbor":7168,"27":7169,"Hig":7170,"cise":7171,"cast":7172,"häu":7173,"ties":7174,"öst":7175,"disons":7176,"Schla":7177,"pair":7178,"commencent":7179,"icaine":7180,"citoy":7181,"Gebiet":7182,"traiter":7183,"zweiten":7184,"protection":7185,"zeichnen":7186,"beobachten":7187,"hielt":7188,"thèse":7189,"East":7190,"Pendant":7191,"Zust":7192,"kür":7193,"loss":7194,"pic":7195,"chin":7196,"ched":7197,"ases":7198,"zuerst":7199,"adv":7200,"ibi":7201,"blie":7202,"Septem":7203,"wählen":7204,"langsam":7205,"office":7206,"occur":7207,"neurons":7208,"Studien":7209,"schreck":7210,"Können":7211,"chanson":7212,"Vö":7213,"fique":7214,"anschauen":7215,"ourcen":7216,"verfü":7217,"sul":7218,"uler":7219,"Erd":7220,"grav":7221,"grew":7222,"hole":7223,"chaî":7224,"premières":7225,"Auswirk":7226,"Designer":7227,"université":7228,"partage":7229,"results":7230,"bieten":7231,"affaires":7232,"Glau":7233,"lier":7234,"anter":7235,"gegangen":7236,"older":7237,"manif":7238,"adop":7239,"Those":7240,"YouTube":7241,"standing":7242,"existence":7243,"fertig":7244,"birth":7245,"Gh":7246,"Pun":7247,"Pra":7248,"lions":7249,"dix":7250,"pros":7251,"rare":7252,"sav":7253,"amus":7254,"chef":7255,"anglais":7256,"poids":7257,"boî":7258,"Islam":7259,"biology":7260,"individus":7261,"Partner":7262,"Spezies":7263,"above":7264,"iblio":7265,"apprentissage":7266,"Gut":7267,"Stelle":7268,"Tagen":7269,"ns":7270,"oid":7271,"wife":7272,"ended":7273,"reichen":7274,"meant":7275,"liqui":7276,"aix":7277,"Nachricht":7278,"memory":7279,"grosse":7280,"verlieren":7281,"Schulen":7282,"Cent":7283,"dès":7284,"uner":7285,"abel":7286,"diesel":7287,"expen":7288,"merz":7289,"pover":7290,"Gesetz":7291,"products":7292,"Konzept":7293,"jobs":7294,"Mikro":7295,"Air":7296,"High":7297,"Sign":7298,"py":7299,"tôt":7300,"repl":7301,"stag":7302,"stress":7303,"vergessen":7304,"aufre":7305,"series":7306,"Schön":7307,"kannst":7308,"hinder":7309,"Orten":7310,"medicine":7311,"luck":7312,"danke":7313,"coûte":7314,"Vergangenheit":7315,"Cy":7316,"Ed":7317,"Finger":7318,"seite":7319,"price":7320,"libre":7321,"traf":7322,"sépar":7323,"higher":7324,"gaz":7325,"micros":7326,"bemerken":7327,"Wirklichkeit":7328,"Papier":7329,"kämpfen":7330,"Lorsque":7331,"semblait":7332,"Aufmerksamkeit":7333,"Bro":7334,"Em":7335,"Physi":7336,"dage":7337,"kit":7338,"nüt":7339,"var":7340,"öp":7341,"einzu":7342,"ours":7343,"vivons":7344,"intu":7345,"196":7346,"intégr":7347,"répondre":7348,"Kommunik":7349,"crazy":7350,"individuals":7351,"drug":7352,"objects":7353,"After":7354,"electricity":7355,"extraordinary":7356,"Green":7357,"Michael":7358,"appareil":7359,"früher":7360,"Museum":7361,"Op":7362,"cteurs":7363,"handelt":7364,"mix":7365,"rêt":7366,"immedi":7367,"schaut":7368,"kelet":7369,"opin":7370,"ontin":7371,"indé":7372,"shot":7373,"richtigen":7374,"Amér":7375,"happiness":7376,"lève":7377,"dauer":7378,"Roy":7379,"nels":7380,"pital":7381,"entend":7382,"ettes":7383,"verlassen":7384,"savais":7385,"lien":7386,"Regen":7387,"génial":7388,"larger":7389,"tests":7390,"répondu":7391,"Universität":7392,"morts":7393,"feld":7394,"coût":7395,"Grenzen":7396,"Nigeria":7397,"Mr":7398,"bord":7399,"lign":7400,"rir":7401,"andid":7402,"abri":7403,"comb":7404,"ffer":7405,"serve":7406,"gers":7407,"named":7408,"corruption":7409,"ihres":7410,"relative":7411,"ritte":7412,"missions":7413,"option":7414,"richtige":7415,"certainement":7416,"médecine":7417,"fortunately":7418,"Feuer":7419,"Lauf":7420,"ather":7421,"oute":7422,"teuer":7423,"dient":7424,"immédi":7425,"provi":7426,"détru":7427,"acces":7428,"portable":7429,"cases":7430,"devait":7431,"citizen":7432,"earth":7433,"publique":7434,"Center":7435,"Tor":7436,"bag":7437,"mise":7438,"émotion":7439,"ares":7440,"schlag":7441,"solaire":7442,"herr":7443,"Reaktion":7444,"lets":7445,"Eines":7446,"communities":7447,"proper":7448,"klär":7449,"2007":7450,"développ":7451,"cultures":7452,"erlaubt":7453,"poverty":7454,"Jus":7455,"hne":7456,"ißen":7457,"killed":7458,"osen":7459,"ativen":7460,"schließen":7461,"combat":7462,"waste":7463,"grup":7464,"drücken":7465,"Freu":7466,"complicated":7467,"constant":7468,"Objekt":7469,"Firmen":7470,"diagnos":7471,"Today":7472,"Nahrung":7473,"verbinden":7474,"Amerikaner":7475,"Spaß":7476,"Even":7477,"Ré":7478,"pull":7479,"laiss":7480,"command":7481,"saving":7482,"berü":7483,"worse":7484,"étape":7485,"zumindest":7486,"contraire":7487,"bestimmt":7488,"cycl":7489,"experts":7490,"travaillent":7491,"collective":7492,"Videos":7493,"laboratoire":7494,"Besch":7495,"envoyer":7496,"Telefon":7497,"pauvreté":7498,"iPhone":7499,"Ac":7500,"nia":7501,"alive":7502,"lages":7503,"offer":7504,"paren":7505,"manu":7506,"worfen":7507,"arts":7508,"Armut":7509,"afri":7510,"payer":7511,"ktionen":7512,"joue":7513,"électron":7514,"appear":7515,"Krankheiten":7516,"causes":7517,"tempér":7518,"nachzudenken":7519,"Mü":7520,"Wand":7521,"thi":7522,"refle":7523,"irm":7524,"stes":7525,"dige":7526,"trom":7527,"ico":7528,"vivant":7529,"Theorie":7530,"venue":7531,"shown":7532,"internet":7533,"interview":7534,"Einfluss":7535,"sociale":7536,"versuchte":7537,"Steve":7538,"schluss":7539,"écran":7540,"kümmer":7541,"extremely":7542,"sammeln":7543,"verbessern":7544,"caractér":7545,"offensichtlich":7546,"geschehen":7547,"CE":7548,"Himmel":7549,"tort":7550,"erzeugen":7551,"inden":7552,"isst":7553,"igu":7554,"wever":7555,"maje":7556,"race":7557,"perman":7558,"nenne":7559,"aison":7560,"ibre":7561,"somewhere":7562,"lief":7563,"ministr":7564,"1990":7565,"großes":7566,"Ord":7567,"intérêt":7568,"altung":7569,"sculpt":7570,"Kontrolle":7571,"blog":7572,"suivant":7573,"teachers":7574,"traditional":7575,"progrès":7576,"Kenya":7577,"pensée":7578,"hôpital":7579,"crisis":7580,"Atom":7581,"Nä":7582,"mult":7583,"oten":7584,"imit":7585,"neg":7586,"takt":7587,"ayant":7588,"nobody":7589,"bru":7590,"essentially":7591,"corpor":7592,"langue":7593,"neuer":7594,"choose":7595,"médias":7596,"dessin":7597,"marchés":7598,"response":7599,"allows":7600,"Morgen":7601,"date":7602,"dance":7603,"fres":7604,"kap":7605,"kar":7606,"trick":7607,"schlagen":7608,"contexte":7609,"aussieht":7610,"sources":7611,"horiz":7612,"sauver":7613,"healthy":7614,"intéressante":7615,"Menschheit":7616,"250":7617,"ügen":7618,"income":7619,"invisible":7620,"lection":7621,"usually":7622,"heutzutage":7623,"ckte":7624,"tés":7625,"versor":7626,"Geheim":7627,"willing":7628,"1960":7629,"véhic":7630,"store":7631,"Chic":7632,"normale":7633,"Landes":7634,"Wohl":7635,"suffis":7636,"eventually":7637,"original":7638,"Präsident":7639,"Sinne":7640,"entraî":7641,"enregistr":7642,"étoiles":7643,"erfolgreich":7644,"bactéries":7645,"familiar":7646,"expensive":7647,"ira":7648,"rale":7649,"ragen":7650,"ierter":7651,"manage":7652,"steigen":7653,"ferenz":7654,"barr":7655,"stoffe":7656,"versuche":7657,"Linie":7658,"suddenly":7659,"Wörter":7660,"Ebene":7661,"Lais":7662,"Mach":7663,"Pres":7664,"remark":7665,"legt":7666,"cont":7667,"permis":7668,"désor":7669,"agent":7670,"gewinnen":7671,"erzählt":7672,"einzelnen":7673,"abhängig":7674,"mourir":7675,"stieg":7676,"Ano":7677,"Cel":7678,"Kä":7679,"Wik":7680,"bing":7681,"rise":7682,"revenu":7683,"etze":7684,"laden":7685,"parten":7686,"déch":7687,"vibr":7688,"upon":7689,"policy":7690,"importantes":7691,"setzt":7692,"gagner":7693,"taught":7694,"predict":7695,"Thomas":7696,"echt":7697,"fäng":7698,"pê":7699,"round":7700,"vic":7701,"quis":7702,"park":7703,"School":7704,"drugs":7705,"watching":7706,"réseaux":7707,"Terror":7708,"Nummer":7709,"Chicago":7710,"Colle":7711,"Fotos":7712,"Obama":7713,"ront":7714,"atiques":7715,"omet":7716,"amener":7717,"sif":7718,"agree":7719,"Sohn":7720,"icial":7721,"Formen":7722,"increase":7723,"windigkeit":7724,"straight":7725,"choisir":7726,"propriété":7727,"Einkommen":7728,"32":7729,"Rau":7730,"Sche":7731,"Tous":7732,"VIH":7733,"sout":7734,"err":7735,"deten":7736,"allais":7737,"abol":7738,"lois":7739,"voc":7740,"hero":7741,"bois":7742,"attir":7743,"lected":7744,"numérique":7745,"Beispiele":7746,"families":7747,"colleag":7748,"analog":7749,"indeed":7750,"protéger":7751,"September":7752,"Bur":7753,"Fo":7754,"Là":7755,"Software":7756,"Talk":7757,"ctr":7758,"fass":7759,"hoff":7760,"nost":7761,"pile":7762,"launch":7763,"endlich":7764,"Inse":7765,"please":7766,"glass":7767,"Methode":7768,"smaller":7769,"secondes":7770,"radic":7771,"legenheit":7772,"specific":7773,"fabriquer":7774,"Sekunden":7775,"descend":7776,"phenomen":7777,"trotzdem":7778,"bizarre":7779,"Amaz":7780,"Worte":7781,"Zelle":7782,"Zwei":7783,"iP":7784,"lebr":7785,"tension":7786,"context":7787,"pourrais":7788,"siez":7789,"ollen":7790,"ains":7791,"alley":7792,"training":7793,"tomber":7794,"logiciel":7795,"operation":7796,"Canada":7797,"erklär":7798,"entdeckt":7799,"professeur":7800,"Ressourcen":7801,"Bis":7802,"fré":7803,"falt":7804,"jungen":7805,"apport":7806,"arme":7807,"utile":7808,"soph":7809,"somehow":7810,"Verantwort":7811,"creative":7812,"tells":7813,"préfé":7814,"2005":7815,"folgt":7816,"droits":7817,"panne":7818,"lancer":7819,"excited":7820,"Betra":7821,"diversité":7822,"written":7823,"poisson":7824,"Wachstum":7825,"Another":7826,"chent":7827,"aurais":7828,"entschieden":7829,"cipl":7830,"préhen":7831,"sentir":7832,"généra":7833,"familles":7834,"globalen":7835,"adore":7836,"étrange":7837,"satis":7838,"Folgen":7839,"Krankenhaus":7840,"Kollegen":7841,"NG":7842,"hib":7843,"yst":7844,"encourage":7845,"reten":7846,"quar":7847,"demonstr":7848,"ichter":7849,"ilité":7850,"erez":7851,"provide":7852,"molec":7853,"blau":7854,"Regel":7855,"izations":7856,"afford":7857,"freedom":7858,"appelons":7859,"pièces":7860,"prior":7861,"teacher":7862,"painting":7863,"Diag":7864,"gesamten":7865,"floor":7866,"sequence":7867,"entdecken":7868,"essentiellement":7869,"Bost":7870,"Lib":7871,"nungen":7872,"rus":7873,"yons":7874,"maß":7875,"agé":7876,"warten":7877,"load":7878,"Leist":7879,"werke":7880,"interaction":7881,"Arzt":7882,"apporter":7883,"bahn":7884,"organization":7885,"neuf":7886,"pied":7887,"essayons":7888,"fallait":7889,"milliard":7890,"clearly":7891,"Flugzeug":7892,"Maschinen":7893,"concevoir":7894,"allowed":7895,"budget":7896,"ibiot":7897,"thiop":7898,"Büh":7899,"aces":7900,"educ":7901,"pig":7902,"paix":7903,"zed":7904,"legs":7905,"neun":7906,"dessous":7907,"heben":7908,"perce":7909,"Intell":7910,"thern":7911,"myst":7912,"Schü":7913,"minister":7914,"mögl":7915,"einfachen":7916,"hyper":7917,"counter":7918,"critical":7919,"außerhalb":7920,"costs":7921,"riesige":7922,"adapt":7923,"treatment":7924,"Beginn":7925,"Higgs":7926,"Boston":7927,"Ame":7928,"Kol":7929,"Ton":7930,"bunch":7931,"runter":7932,"chimp":7933,"gefragt":7934,"abzu":7935,"samen":7936,"forêt":7937,"mitt":7938,"carto":7939,"trouble":7940,"stellten":7941,"2009":7942,"geschlossen":7943,"öffentlich":7944,"traits":7945,"licherweise":7946,"Wahrscheinlich":7947,"including":7948,"Nerven":7949,"Ach":7950,"Druck":7951,"Hor":7952,"Jan":7953,"Oc":7954,"Pop":7955,"Vier":7956,"Wow":7957,"kaum":7958,"rund":7959,"zten":7960,"thod":7961,"unmöglich":7962,"atifs":7963,"eté":7964,"oms":7965,"befindet":7966,"geh":7967,"gene":7968,"compréhen":7969,"Think":7970,"actual":7971,"rights":7972,"finding":7973,"expert":7974,"laissez":7975,"tomb":7976,"spiritu":7977,"Höhe":7978,"dadurch":7979,"Mathematik":7980,"möglicht":7981,"BM":7982,"Sc":7983,"ût":7984,"ero":7985,"dium":7986,"pected":7987,"outil":7988,"passt":7989,"manque":7990,"covery":7991,"Schwar":7992,"suppl":7993,"espér":7994,"college":7995,"mitteln":7996,"retten":7997,"instrument":7998,"Netzwerk":7999,"réduire":8000,"distribution":8001,"Camb":8002,"fan":8003,"wise":8004,"évolu":8005,"ermöglicht":8006,"ility":8007,"herstellen":8008,"kommun":8009,"intention":8010,"rief":8011,"solchen":8012,"beauté":8013,"matér":8014,"interessante":8015,"origine":8016,"copy":8017,"großartige":8018,"abeilles":8019,"Jour":8020,"Où":8021,"pfl":8022,"uchen":8023,"enjoy":8024,"requi":8025,"vehic":8026,"garder":8027,"grandi":8028,"tels":8029,"pieds":8030,"Americans":8031,"fonctionner":8032,"danse":8033,"famous":8034,"communautés":8035,"fantastic":8036,"diversity":8037,"froid":8038,"successful":8039,"Which":8040,"navig":8041,"dangere":8042,"Bewusstsein":8043,"Jim":8044,"Tanz":8045,"ech":8046,"oeu":8047,"vage":8048,"itor":8049,"nez":8050,"fach":8051,"avor":8052,"ification":8053,"goal":8054,"nochen":8055,"Geist":8056,"durchschnitt":8057,"cold":8058,"Grü":8059,"gotten":8060,"effets":8061,"höher":8062,"beauty":8063,"Organisation":8064,"heimer":8065,"Biologie":8066,"äusch":8067,"König":8068,"Ergebnisse":8069,"patterns":8070,"Get":8071,"Mär":8072,"Tro":8073,"Vidé":8074,"ike":8075,"mik":8076,"swe":8077,"vast":8078,"erfahren":8079,"omes":8080,"prends":8081,"sowohl":8082,"lige":8083,"extin":8084,"ortion":8085,"voient":8086,"yeah":8087,"marque":8088,"letter":8089,"anywhere":8090,"stock":8091,"digit":8092,"Très":8093,"Entdeck":8094,"einzig":8095,"figur":8096,"spielt":8097,"öffnet":8098,"sympt":8099,"Norden":8100,"personnel":8101,"opportunité":8102,"Wirtschafts":8103,"Lösungen":8104,"observer":8105,"übrigens":8106,"Stanford":8107,"800":8108,"Lö":8109,"Ler":8110,"Mos":8111,"Sing":8112,"Uhr":8113,"aphor":8114,"ometer":8115,"oppos":8116,"perception":8117,"notes":8118,"coeur":8119,"Uni":8120,"idet":8121,"brains":8122,"Brust":8123,"connex":8124,"gouvernements":8125,"ponses":8126,"reduz":8127,"tirer":8128,"Like":8129,"author":8130,"hilft":8131,"Vidéo":8132,"CD":8133,"Satur":8134,"afr":8135,"faux":8136,"ipe":8137,"faible":8138,"confront":8139,"opé":8140,"express":8141,"réponses":8142,"loved":8143,"anymore":8144,"aliser":8145,"Monat":8146,"Systeme":8147,"himself":8148,"Personen":8149,"öffnen":8150,"lamour":8151,"grundlegen":8152,"élément":8153,"großartig":8154,"bestimmte":8155,"schöne":8156,"Paci":8157,"Aspe":8158,"BF":8159,"Coun":8160,"Hände":8161,"ufen":8162,"aps":8163,"stück":8164,"umin":8165,"aufgrund":8166,"lock":8167,"vile":8168,"ätzlich":8169,"précé":8170,"Einzel":8171,"capture":8172,"bisher":8173,"normalerweise":8174,"Bienen":8175,"conduit":8176,"engineering":8177,"ständnis":8178,"Titan":8179,"Regierungen":8180,"Ordnung":8181,"Laissez":8182,"désormais":8183,"pén":8184,"deliver":8185,"teile":8186,"forschen":8187,"dure":8188,"ulate":8189,"mandem":8190,"worry":8191,"ician":8192,"Vertrauen":8193,"preci":8194,"minus":8195,"suppose":8196,"appropri":8197,"ifft":8198,"analys":8199,"driving":8200,"concerne":8201,"sleep":8202,"betrachtet":8203,"BI":8204,"Bay":8205,"Hü":8206,"Kern":8207,"Mic":8208,"dos":8209,"vat":8210,"report":8211,"leisten":8212,"aler":8213,"sume":8214,"frie":8215,"atement":8216,"track":8217,"bodies":8218,"mettent":8219,"dreht":8220,"transition":8221,"utilisation":8222,"studies":8223,"Chance":8224,"Konfli":8225,"fasst":8226,"Filme":8227,"évidemment":8228,"Kampf":8229,"King":8230,"Mater":8231,"vendre":8232,"decision":8233,"ently":8234,"stri":8235,"tens":8236,"cross":8237,"célè":8238,"firm":8239,"environmental":8240,"Great":8241,"Meeres":8242,"écouter":8243,"decades":8244,"Industrie":8245,"Science":8246,"Adam":8247,"Ox":8248,"SP":8249,"sér":8250,"erleben":8251,"infin":8252,"ased":8253,"truly":8254,"zeigte":8255,"demic":8256,"durable":8257,"passent":8258,"understood":8259,"corner":8260,"presse":8261,"Jahres":8262,"2006":8263,"seconds":8264,"recognize":8265,"schützen":8266,"nucléaire":8267,"Behandlung":8268,"Intelligen":8269,"matériel":8270,"700":8271,"Eig":8272,"Kamera":8273,"Your":8274,"Zivil":8275,"aci":8276,"cence":8277,"fiel":8278,"nul":8279,"unächst":8280,"bees":8281,"istre":8282,"scht":8283,"wirken":8284,"procé":8285,"mitten":8286,"fran":8287,"spat":8288,"discipl":8289,"vorbei":8290,"Stamm":8291,"untersuchen":8292,"valeurs":8293,"magnet":8294,"Grad":8295,"restaurant":8296,"Glauben":8297,"DP":8298,"card":8299,"cked":8300,"discours":8301,"hlung":8302,"therefore":8303,"Union":8304,"darf":8305,"voulu":8306,"welcher":8307,"membres":8308,"markets":8309,"England":8310,"address":8311,"entièrement":8312,"chirurg":8313,"ajout":8314,"MA":8315,"Toch":8316,"Wunder":8317,"aden":8318,"pier":8319,"ège":8320,"chend":8321,"devoir":8322,"trifft":8323,"schlä":8324,"umes":8325,"rob":8326,"mange":8327,"vote":8328,"bleu":8329,"Verfü":8330,"cardia":8331,"Secon":8332,"drink":8333,"Zeitpunkt":8334,"ramm":8335,"objectif":8336,"devraient":8337,"poissons":8338,"entrepreneurs":8339,"consommation":8340,"oiseaux":8341,"destruction":8342,"Band":8343,"Gand":8344,"éma":8345,"encour":8346,"sommet":8347,"isez":8348,"actuellement":8349,"mémo":8350,"greater":8351,"Heim":8352,"chair":8353,"zieht":8354,"throughout":8355,"balance":8356,"cyber":8357,"explore":8358,"gebil":8359,"Herr":8360,"höch":8361,"crime":8362,"ameras":8363,"prenant":8364,"various":8365,"änden":8366,"tausend":8367,"genetic":8368,"leadership":8369,"heutigen":8370,"Tochter":8371,"Jer":8372,"Kl":8373,"Sat":8374,"taten":8375,"ziel":8376,"erhö":8377,"atory":8378,"celebr":8379,"prêt":8380,"schlim":8381,"schicken":8382,"siv":8383,"cies":8384,"demie":8385,"Gewe":8386,"Gefäng":8387,"Außer":8388,"throw":8389,"Mond":8390,"reading":8391,"skills":8392,"spreche":8393,"Geburt":8394,"Good":8395,"primer":8396,"electron":8397,"meilleures":8398,"Name":8399,"océans":8400,"waiting":8401,"amerikanischen":8402,"magnifique":8403,"invented":8404,"Fakt":8405,"naire":8406,"ué":8407,"üp":8408,"reign":8409,"stä":8410,"proces":8411,"suivi":8412,"surger":8413,"habitude":8414,"oblig":8415,"arrivent":8416,"faisaient":8417,"bedeuten":8418,"Berg":8419,"summer":8420,"bâtiments":8421,"following":8422,"revenus":8423,"29":8424,"Juli":8425,"keiner":8426,"pten":8427,"push":8428,"zimmer":8429,"ël":8430,"üb":8431,"üben":8432,"plann":8433,"commit":8434,"exception":8435,"révé":8436,"venant":8437,"ived":8438,"Alz":8439,"änomen":8440,"importants":8441,"Paris":8442,"humanity":8443,"teilung":8444,"architect":8445,"exploration":8446,"Entscheidung":8447,"atmosphère":8448,"slide":8449,"sustainable":8450,"style":8451,"clairement":8452,"1000":8453,"Kir":8454,"SE":8455,"Vorte":8456,"kin":8457,"kauf":8458,"äte":8459,"lem":8460,"ala":8461,"vements":8462,"schne":8463,"allée":8464,"keits":8465,"perform":8466,"weren":8467,"ellschaften":8468,"accro":8469,"cade":8470,"beings":8471,"Kreis":8472,"pouvions":8473,"imaginez":8474,"mondial":8475,"chauffe":8476,"médecin":8477,"military":8478,"elektr":8479,"Gründe":8480,"Alzheimer":8481,"nann":8482,"enzen":8483,"reli":8484,"eters":8485,"section":8486,"stor":8487,"diz":8488,"wealth":8489,"lok":8490,"Insel":8491,"Ingenie":8492,"obs":8493,"Unser":8494,"vrais":8495,"Zeiten":8496,"grade":8497,"mehrere":8498,"arbeiter":8499,"strange":8500,"sorti":8501,"Manchmal":8502,"herausfinden":8503,"einzigen":8504,"fuel":8505,"promis":8506,"bestehen":8507,"microbes":8508,"flying":8509,"Institution":8510,"aspects":8511,"California":8512,"preuve":8513,"caractérist":8514,"Ball":8515,"Mut":8516,"Rand":8517,"sweise":8518,"ouvrir":8519,"entlichen":8520,"stab":8521,"récup":8522,"illé":8523,"aving":8524,"administr":8525,"herunter":8526,"pharma":8527,"schafft":8528,"appell":8529,"frame":8530,"greatest":8531,"utzung":8532,"craft":8533,"Personne":8534,"attendre":8535,"levels":8536,"essaie":8537,"spécial":8538,"explorer":8539,"Finanz":8540,"geschaffen":8541,"Iraq":8542,"Haw":8543,"Wes":8544,"mist":8545,"slight":8546,"üst":8547,"oul":8548,"issait":8549,"itung":8550,"berüh":8551,"voulaient":8552,"Manhat":8553,"motor":8554,"values":8555,"donnent":8556,"fühlt":8557,"erzählte":8558,"constitu":8559,"Liebl":8560,"clients":8561,"compagnie":8562,"alternative":8563,"square":8564,"citoyens":8565,"Emp":8566,"hängt":8567,"ky":8568,"pus":8569,"erinnere":8570,"altet":8571,"offr":8572,"prin":8573,"lesquels":8574,"décri":8575,"rées":8576,"gras":8577,"früh":8578,"Soz":8579,"rupt":8580,"muscle":8581,"compét":8582,"Einer":8583,"1980":8584,"alisme":8585,"fällig":8586,"magic":8587,"2004":8588,"politics":8589,"norm":8590,"Teilen":8591,"organismes":8592,"masch":8593,"earlier":8594,"inventé":8595,"Charakter":8596,"plastique":8597,"équil":8598,"Auswirkungen":8599,"Bom":8600,"aiment":8601,"ec":8602,"nations":8603,"rang":8604,"decisions":8605,"aries":8606,"veränder":8607,"dépla":8608,"pleine":8609,"ological":8610,"Bezug":8611,"Version":8612,"visit":8613,"sciences":8614,"schiede":8615,"lectro":8616,"ryth":8617,"fuhr":8618,"außergewöhn":8619,"essaye":8620,"Indivi":8621,"rêve":8622,"Beziehungen":8623,"atmosphere":8624,"thetic":8625,"BC":8626,"Liste":8627,"Pren":8628,"Rus":8629,"ahead":8630,"cil":8631,"vend":8632,"chap":8633,"auer":8634,"einge":8635,"becoming":8636,"math":8637,"excell":8638,"mend":8639,"sures":8640,"mons":8641,"cert":8642,"anyway":8643,"related":8644,"connection":8645,"Wohn":8646,"moust":8647,"découverte":8648,"Antar":8649,"aware":8650,"distin":8651,"societies":8652,"lancé":8653,"Sommer":8654,"Veränderungen":8655,"walked":8656,"boîte":8657,"Individu":8658,"Farbe":8659,"Mat":8660,"Noch":8661,"Port":8662,"aille":8663,"affen":8664,"bble":8665,"gn":8666,"hell":8667,"nien":8668,"tim":8669,"vot":8670,"aspir":8671,"teen":8672,"verser":8673,"sodass":8674,"check":8675,"brut":8676,"cook":8677,"finanz":8678,"getroffen":8679,"compéten":8680,"géné":8681,"ario":8682,"essence":8683,"bébé":8684,"directly":8685,"Wald":8686,"toilet":8687,"Bäume":8688,"Code":8689,"Dere":8690,"Prem":8691,"Rio":8692,"Sun":8693,"Taus":8694,"cue":8695,"devais":8696,"arbre":8697,"aviez":8698,"finance":8699,"ologique":8700,"phase":8701,"beso":8702,"selten":8703,"peuple":8704,"ferme":8705,"drehen":8706,"alism":8707,"tuer":8708,"lights":8709,"informatique":8710,"électrique":8711,"brother":8712,"ebenso":8713,"enormous":8714,"Kapit":8715,"practice":8716,"decade":8717,"dangerous":8718,"sibility":8719,"temperature":8720,"Jahrhunderts":8721,"température":8722,"Manhattan":8723,"26":8724,"Bush":8725,"Dra":8726,"Gold":8727,"Mill":8728,"Pil":8729,"Tisch":8730,"fill":8731,"gérer":8732,"unsch":8733,"gee":8734,"dasselbe":8735,"whose":8736,"parlons":8737,"forth":8738,"umer":8739,"décision":8740,"lying":8741,"gesund":8742,"Jedes":8743,"artistes":8744,"Interesse":8745,"guter":8746,"Abend":8747,"Atmosph":8748,"invention":8749,"besondere":8750,"tableau":8751,"ancient":8752,"positif":8753,"Kurz":8754,"Neuronen":8755,"financial":8756,"collègues":8757,"horrible":8758,"Schönheit":8759,"95":8760,"Fen":8761,"Fer":8762,"Haben":8763,"LA":8764,"Lond":8765,"handeln":8766,"krit":8767,"œil":8768,"isons":8769,"isiert":8770,"entweder":8771,"diejenigen":8772,"respir":8773,"Erwachsen":8774,"uchten":8775,"minim":8776,"magazine":8777,"Traum":8778,"collection":8779,"Komplex":8780,"kostet":8781,"ebenfalls":8782,"campagne":8783,"philosop":8784,"unterstützen":8785,"besoins":8786,"Bio":8787,"Two":8788,"fus":8789,"fung":8790,"ior":8791,"kenn":8792,"pure":8793,"sauf":8794,"este":8795,"ald":8796,"samer":8797,"ops":8798,"brû":8799,"ivité":8800,"compare":8801,"fense":8802,"Grand":8803,"Herzen":8804,"existieren":8805,"Werte":8806,"riches":8807,"wunderbar":8808,"inspiration":8809,"majorité":8810,"frastruktur":8811,"éviter":8812,"plastic":8813,"Klimaw":8814,"significant":8815,"schätzen":8816,"Mir":8817,"Nos":8818,"SMS":8819,"cortex":8820,"pont":8821,"rational":8822,"sü":8823,"évé":8824,"onta":8825,"isieren":8826,"orchest":8827,"maßen":8828,"ploy":8829,"dément":8830,"décisions":8831,"herzustellen":8832,"gesellschaft":8833,"uted":8834,"internationale":8835,"autonom":8836,"ätz":8837,"wenige":8838,"zusagen":8839,"aliste":8840,"hyth":8841,"fälle":8842,"génome":8843,"choices":8844,"connaissez":8845,"prime":8846,"principe":8847,"puissent":8848,"puissant":8849,"governments":8850,"instruments":8851,"règle":8852,"infect":8853,"dorthin":8854,"Zustand":8855,"lignes":8856,"Klimawandel":8857,"Ehe":8858,"Oly":8859,"Wesen":8860,"mâ":8861,"apt":8862,"entes":8863,"ingu":8864,"plans":8865,"taient":8866,"ffic":8867,"débat":8868,"couvert":8869,"acles":8870,"Arme":8871,"useful":8872,"préf":8873,"efficient":8874,"différences":8875,"lebens":8876,"indic":8877,"spricht":8878,"shared":8879,"attack":8880,"honn":8881,"regardant":8882,"Western":8883,"challenges":8884,"facilement":8885,"Indian":8886,"Freiheit":8887,"ehrlich":8888,"immediately":8889,"afrikan":8890,"Bühne":8891,"47":8892,"Drit":8893,"End":8894,"Loch":8895,"Null":8896,"envers":8897,"leiden":8898,"teau":8899,"aume":8900,"iron":8901,"stad":8902,"method":8903,"behau":8904,"Infrastruktur":8905,"addition":8906,"spann":8907,"venait":8908,"Stunde":8909,"Apple":8910,"Projekte":8911,"fügen":8912,"vely":8913,"correct":8914,"poly":8915,"expér":8916,"Thanks":8917,"Toutes":8918,"symmet":8919,"collaboration":8920,"Fortschritt":8921,"véritable":8922,"pounds":8923,"Ghana":8924,"mémoire":8925,"33":8926,"Egy":8927,"Ereign":8928,"Knochen":8929,"dings":8930,"fusion":8931,"hner":8932,"kas":8933,"wire":8934,"Öff":8935,"énerg":8936,"bee":8937,"trage":8938,"verrez":8939,"genome":8940,"mené":8941,"avis":8942,"ifi":8943,"Inform":8944,"Schrift":8945,"voraus":8946,"Combien":8947,"proportion":8948,"accum":8949,"ativität":8950,"verkaufen":8951,"produced":8952,"Virus":8953,"entrepreneur":8954,"Damit":8955,"otograf":8956,"120":8957,"Gest":8958,"Kn":8959,"Mac":8960,"fängt":8961,"enc":8962,"oubl":8963,"legal":8964,"verhalten":8965,"abge":8966,"heat":8967,"opä":8968,"départ":8969,"avance":8970,"messages":8971,"Erzä":8972,"malaria":8973,"markt":8974,"urspr":8975,"1950":8976,"Vorstell":8977,"helped":8978,"permettent":8979,"unglaubliche":8980,"brauchte":8981,"pollen":8982,"lernte":8983,"devenue":8984,"emotional":8985,"Eigenschaften":8986,"Temper":8987,"advance":8988,"Plas":8989,"Sar":8990,"Sold":8991,"Tel":8992,"hus":8993,"none":8994,"smo":8995,"wün":8996,"za":8997,"repres":8998,"imens":8999,"schutz":9000,"comm":9001,"phant":9002,"Auge":9003,"basis":9004,"dritte":9005,"akzept":9006,"souviens":9007,"epi":9008,"supérie":9009,"existiert":9010,"médic":9011,"capacity":9012,"énormes":9013,"verrückt":9014,"américain":9015,"wärts":9016,"geschafft":9017,"unterschiedliche":9018,"naissance":9019,"molécules":9020,"Kore":9021,"Lat":9022,"gust":9023,"erfunden":9024,"tha":9025,"sad":9026,"perdre":9027,"déplacer":9028,"rét":9029,"seraient":9030,"diseas":9031,"ardin":9032,"Nehmen":9033,"assist":9034,"einfacher":9035,"génétique":9036,"kamente":9037,"neuros":9038,"convince":9039,"authent":9040,"conséquences":9041,"degrees":9042,"astronom":9043,"satellite":9044,"remarkable":9045,"ursprün":9046,"28":9047,"Junge":9048,"Mam":9049,"Zentr":9050,"eating":9051,"zahlen":9052,"immun":9053,"ignement":9054,"ferm":9055,"polar":9056,"limites":9057,"Region":9058,"Gehirns":9059,"Büro":9060,"meeting":9061,"conflict":9062,"responsabilité":9063,"Zweiten":9064,"œuvre":9065,"Geschäfts":9066,"erstaunlich":9067,"discussion":9068,"occuper":9069,"Punkte":9070,"College":9071,"Lernen":9072,"Oxford":9073,"Hon":9074,"bits":9075,"catch":9076,"hes":9077,"incl":9078,"auber":9079,"seas":9080,"states":9081,"gebe":9082,"mentale":9083,"convention":9084,"lies":9085,"ulieren":9086,"Inner":9087,"angel":9088,"spot":9089,"rule":9090,"Manche":9091,"instance":9092,"turning":9093,"occident":9094,"Flor":9095,"although":9096,"présenter":9097,"connaissons":9098,"holt":9099,"zweif":9100,"efforts":9101,"behandeln":9102,"Medikamente":9103,"jud":9104,"finger":9105,"nehme":9106,"speaking":9107,"Verbindungen":9108,"Materialien":9109,"volume":9110,"mathématiques":9111,"plaisir":9112,"manufact":9113,"Cambridge":9114,"expériment":9115,"Ak":9116,"Cet":9117,"Many":9118,"PC":9119,"Sen":9120,"Tieren":9121,"gri":9122,"gay":9123,"ottes":9124,"digt":9125,"tran":9126,"démar":9127,"gross":9128,"partis":9129,"flight":9130,"prevent":9131,"formid":9132,"faisais":9133,"eigenes":9134,"concepts":9135,"riche":9136,"laws":9137,"désir":9138,"relevant":9139,"Institute":9140,"Süd":9141,"Solar":9142,"mesurer":9143,"déclar":9144,"streng":9145,"Verfügung":9146,"Hund":9147,"ss":9148,"sick":9149,"épar":9150,"ossen":9151,"itution":9152,"proto":9153,"artiste":9154,"Erkennt":9155,"gering":9156,"interface":9157,"trade":9158,"strug":9159,"numéro":9160,"programmes":9161,"complexes":9162,"minds":9163,"marketing":9164,"profondément":9165,"survive":9166,"Schlüssel":9167,"Kilometer":9168,"phénomène":9169,"Américains":9170,"citizens":9171,"diseases":9172,"Psych":9173,"Wur":9174,"Wider":9175,"jur":9176,"erzeugt":9177,"anne":9178,"toire":9179,"beweg":9180,"heav":9181,"hair":9182,"couleurs":9183,"rufen":9184,"myster":9185,"Schre":9186,"seemed":9187,"putation":9188,"üss":9189,"vollen":9190,"ativité":9191,"honest":9192,"ettbewer":9193,"Produkte":9194,"Robert":9195,"pollution":9196,"Disk":9197,"chimiques":9198,"intéresse":9199,"erwarten":9200,"chambre":9201,"immédiatement":9202,"Amazon":9203,"Gefängnis":9204,"Londres":9205,"Ahnung":9206,"ES":9207,"Ford":9208,"bü":9209,"fold":9210,"spl":9211,"swit":9212,"chien":9213,"anke":9214,"entour":9215,"vertes":9216,"allés":9217,"tage":9218,"rian":9219,"illon":9220,"trem":9221,"loir":9222,"empath":9223,"ération":9224,"wohner":9225,"angefangen":9226,"France":9227,"effiz":9228,"studio":9229,"begonnen":9230,"fühlte":9231,"sexu":9232,"adox":9233,"élevé":9234,"envoyé":9235,"birds":9236,"Hollywood":9237,"chemical":9238,"bénéf":9239,"random":9240,"künft":9241,"neighborhood":9242,"Schüler":9243,"Micros":9244,"Bitte":9245,"Glas":9246,"Take":9247,"hid":9248,"hip":9249,"iat":9250,"mber":9251,"rough":9252,"thér":9253,"regre":9254,"iete":9255,"auraient":9256,"diplom":9257,"traum":9258,"schla":9259,"rivi":9260,"notwen":9261,"ustom":9262,"sharing":9263,"Erstens":9264,"vieill":9265,"crow":9266,"produisent":9267,"akes":9268,"barkeit":9269,"polio":9270,"affaire":9271,"pressure":9272,"niedr":9273,"played":9274,"größere":9275,"wichtigsten":9276,"connaiss":9277,"seuls":9278,"Worten":9279,"closer":9280,"British":9281,"répand":9282,"situations":9283,"chaîne":9284,"Atmosphäre":9285,"Olymp":9286,"SW":9287,"email":9288,"jene":9289,"körper":9290,"lz":9291,"män":9292,"pin":9293,"ritu":9294,"rappelle":9295,"weite":9296,"conçu":9297,"récom":9298,"aufgenommen":9299,"ads":9300,"aca":9301,"obst":9302,"seines":9303,"creativ":9304,"compon":9305,"Cependant":9306,"below":9307,"2003":9308,"Unterstüt":9309,"scri":9310,"supply":9311,"popular":9312,"risques":9313,"effects":9314,"Massen":9315,"physics":9316,"emplo":9317,"industrial":9318,"Japon":9319,"Elektr":9320,"Feld":9321,"Nähe":9322,"Verantwortung":9323,"Net":9324,"PI":9325,"Valley":9326,"dot":9327,"eg":9328,"hart":9329,"paid":9330,"uern":9331,"wat":9332,"ßt":9333,"chrom":9334,"verantwort":9335,"parlent":9336,"stecken":9337,"worten":9338,"noire":9339,"spür":9340,"artige":9341,"Jack":9342,"établ":9343,"lieux":9344,"tempt":9345,"président":9346,"nég":9347,"gutes":9348,"motions":9349,"More":9350,"Landwirtschaft":9351,"domest":9352,"caméra":9353,"remarqué":9354,"évident":9355,"produziert":9356,"Farben":9357,"contrôler":9358,"Californie":9359,"conclusion":9360,"Statist":9361,"Perspekt":9362,"phrase":9363,"laissé":9364,"55":9365,"Asie":9366,"Kann":9367,"Nation":9368,"Post":9369,"Sir":9370,"cins":9371,"cord":9372,"gift":9373,"jug":9374,"ermöglichen":9375,"bedro":9376,"raise":9377,"passage":9378,"ressembler":9379,"Wege":9380,"discut":9381,"icks":9382,"intim":9383,"créativité":9384,"correspond":9385,"Handy":9386,"application":9387,"silence":9388,"flies":9389,"staat":9390,"bateau":9391,"antworten":9392,"colleagues":9393,"compréhension":9394,"surgery":9395,"Temperatur":9396,"Long":9397,"Sah":9398,"Wichtig":9399,"iö":9400,"lation":9401,"melt":9402,"vaut":9403,"éche":9404,"dict":9405,"abet":9406,"contenu":9407,"jemandem":9408,"servir":9409,"Instead":9410,"oney":9411,"somme":9412,"Arti":9413,"Verständnis":9414,"Anwend":9415,"paces":9416,"commençons":9417,"mostly":9418,"From":9419,"Unternehmer":9420,"montrent":9421,"programs":9422,"hearing":9423,"joint":9424,"choisi":9425,"américaine":9426,"obvious":9427,"dopp":9428,"EM":9429,"Over":9430,"Zent":9431,"pp":9432,"vors":9433,"âg":9434,"dein":9435,"orph":9436,"ota":9437,"bezahl":9438,"prêts":9439,"verme":9440,"scher":9441,"paras":9442,"réaction":9443,"acci":9444,"Schle":9445,"actuelle":9446,"erreurs":9447,"profond":9448,"devices":9449,"politische":9450,"laisse":9451,"particules":9452,"expand":9453,"fash":9454,"master":9455,"streets":9456,"logique":9457,"schlechte":9458,"riesigen":9459,"Todes":9460,"vidéos":9461,"étrang":9462,"augmentation":9463,"listening":9464,"Artikel":9465,"Fest":9466,"Ther":9467,"dür":9468,"nelles":9469,"task":9470,"öl":9471,"seur":9472,"weap":9473,"desto":9474,"schien":9475,"forget":9476,"mole":9477,"tremend":9478,"disaient":9479,"Gewicht":9480,"flux":9481,"erns":9482,"lette":9483,"stands":9484,"ziellen":9485,"2001":9486,"istenz":9487,"Flü":9488,"Fluss":9489,"échant":9490,"connaissent":9491,"biological":9492,"Großbritann":9493,"fantastique":9494,"conversations":9495,"morceaux":9496,"evolved":9497,"Nobel":9498,"Intelligenz":9499,"Zentrum":9500,"His":9501,"Pense":9502,"Willi":9503,"aître":9504,"morte":9505,"nutz":9506,"pite":9507,"sque":9508,"zut":9509,"üste":9510,"reicht":9511,"iety":9512,"entlang":9513,"verbringen":9514,"genutzt":9515,"hrung":9516,"conver":9517,"forte":9518,"ulé":9519,"ürf":9520,"monte":9521,"rues":9522,"match":9523,"Depuis":9524,"digung":9525,"organizations":9526,"communicate":9527,"geschichte":9528,"bedeut":9529,"ancest":9530,"Lebensmittel":9531,"complexité":9532,"climat":9533,"behandelt":9534,"écos":9535,"immense":9536,"armée":9537,"insectes":9538,"Text":9539,"Texas":9540,"Insekten":9541,"planning":9542,"Pensez":9543,"Hil":9544,"hte":9545,"pow":9546,"wing":9547,"zil":9548,"inno":9549,"chons":9550,"ison":9551,"isés":9552,"remain":9553,"stabil":9554,"meister":9555,"sobald":9556,"compt":9557,"passait":9558,"perte":9559,"expos":9560,"doctors":9561,"geste":9562,"blic":9563,"tile":9564,"Gesellschaften":9565,"örung":9566,"afra":9567,"politischen":9568,"gestion":9569,"stopped":9570,"Medika":9571,"augmenter":9572,"épidé":9573,"chercheurs":9574,"preuves":9575,"Einsatz":9576,"paradig":9577,"circuit":9578,"Position":9579,"tâche":9580,"Again":9581,"Os":9582,"Szen":9583,"Wunsch":9584,"hous":9585,"mères":9586,"nit":9587,"rt":9588,"tick":9589,"wich":9590,"ächt":9591,"iling":9592,"secteur":9593,"usive":9594,"illons":9595,"überleben":9596,"pleas":9597,"hlens":9598,"shar":9599,"Ansatz":9600,"Seit":9601,"toucher":9602,"Quad":9603,"konom":9604,"Parfois":9605,"Geschwindigkeit":9606,"held":9607,"experiments":9608,"dingt":9609,"catastrop":9610,"Typen":9611,"mountain":9612,"Ärzte":9613,"frustr":9614,"Leidenschaft":9615,"Dienst":9616,"manifest":9617,"molecules":9618,"Hung":9619,"Rom":9620,"Swe":9621,"Vari":9622,"bten":9623,"kol":9624,"kulture":9625,"mique":9626,"nose":9627,"ober":9628,"scr":9629,"espaces":9630,"chaus":9631,"replace":9632,"ata":9633,"entstehen":9634,"entsteht":9635,"divis":9636,"website":9637,"menten":9638,"erei":9639,"kee":9640,"umb":9641,"détails":9642,"résol":9643,"edge":9644,"financ":9645,"workers":9646,"paign":9647,"entspr":9648,"soul":9649,"gelöst":9650,"Deut":9651,"alisierung":9652,"Child":9653,"Interess":9654,"profound":9655,"Konferenz":9656,"testen":9657,"mortalité":9658,"Carol":9659,"teaching":9660,"haltung":9661,"Städten":9662,"noticed":9663,"Nahrungs":9664,"assurer":9665,"entwickelten":9666,"Drogen":9667,"inspired":9668,"Entwicklungsl":9669,"Derek":9670,"neurosci":9671,"Microsoft":9672,"William":9673,"Mid":9674,"echte":9675,"grés":9676,"tle":9677,"wuchs":9678,"envie":9679,"prost":9680,"trial":9681,"verre":9682,"dense":9683,"ansion":9684,"conduc":9685,"moon":9686,"répar":9687,"avanc":9688,"cheap":9689,"pensait":9690,"érences":9691,"party":9692,"ivity":9693,"cerveaux":9694,"Vergleich":9695,"tradu":9696,"isses":9697,"brachten":9698,"zusetzen":9699,"winz":9700,"länd":9701,"collap":9702,"decide":9703,"regardons":9704,"lebte":9705,"Beding":9706,"jambes":9707,"cuisine":9708,"Religion":9709,"ajouter":9710,"Kommunikation":9711,"Wikipe":9712,"slightly":9713,"stadt":9714,"fashion":9715,"85":9716,"Cap":9717,"Did":9718,"Hall":9719,"Last":9720,"RB":9721,"baut":9722,"cab":9723,"candid":9724,"dung":9725,"gâ":9726,"jün":9727,"lut":9728,"nest":9729,"opar":9730,"tissue":9731,"wächst":9732,"zogen":9733,"zéro":9734,"élè":9735,"reço":9736,"kehren":9737,"tée":9738,"disk":9739,"artists":9740,"Schutz":9741,"Encore":9742,"kenne":9743,"mettons":9744,"networks":9745,"pendent":9746,"possibly":9747,"limit":9748,"Freunden":9749,"dying":9750,"applications":9751,"Antworten":9752,"niveaux":9753,"identité":9754,"régions":9755,"difficiles":9756,"diagnost":9757,"spending":9758,"geschah":9759,"cultural":9760,"dimensional":9761,"schönen":9762,"alimentaire":9763,"konzentrieren":9764,"Freude":9765,"Dort":9766,"Jungen":9767,"Russi":9768,"UN":9769,"fiction":9770,"ibe":9771,"künst":9772,"enthous":9773,"remo":9774,"quenz":9775,"leun":9776,"management":9777,"ressemblent":9778,"venons":9779,"phins":9780,"bread":9781,"café":9782,"guer":9783,"bringing":9784,"ishing":9785,"mouth":9786,"Impf":9787,"größeren":9788,"Phänomen":9789,"sujets":9790,"Milliarde":9791,"rifft":9792,"purpose":9793,"Schluss":9794,"ethn":9795,"landscape":9796,"verbreitet":9797,"letztes":9798,"accél":9799,"Müll":9800,"chromos":9801,"Ident":9802,"Tim":9803,"Zit":9804,"nöt":9805,"phab":9806,"vain":9807,"éte":9808,"évol":9809,"erforschen":9810,"insu":9811,"dialog":9812,"comprend":9813,"confort":9814,"moteur":9815,"achten":9816,"resol":9817,"ennu":9818,"worst":9819,"garçon":9820,"pressed":9821,"fonds":9822,"véri":9823,"alismus":9824,"bitten":9825,"folge":9826,"piano":9827,"écout":9828,"honor":9829,"positions":9830,"Golf":9831,"prochaines":9832,"philosoph":9833,"Hirn":9834,"comfortable":9835,"Materie":9836,"Bob":9837,"Kunden":9838,"Nature":9839,"Tes":9840,"Wil":9841,"bought":9842,"iber":9843,"mille":9844,"çant":9845,"inson":9846,"ani":9847,"thal":9848,"osse":9849,"apper":9850,"apprend":9851,"orbit":9852,"seh":9853,"urb":9854,"diam":9855,"usine":9856,"savait":9857,"amène":9858,"sibles":9859,"brilli":9860,"Gelegenheit":9861,"rencontre":9862,"boys":9863,"wählt":9864,"betrifft":9865,"speech":9866,"differences":9867,"arian":9868,"bouger":9869,"critique":9870,"options":9871,"côte":9872,"dauert":9873,"américains":9874,"Result":9875,"Risiko":9876,"Fenster":9877,"Dy":9878,"Fabri":9879,"Lar":9880,"PA":9881,"Por":9882,"Ros":9883,"bridge":9884,"pâ":9885,"ented":9886,"quote":9887,"levé":9888,"einst":9889,"gehalten":9890,"verständ":9891,"subt":9892,"Erst":9893,"hasard":9894,"differently":9895,"Unterschiede":9896,"forever":9897,"rapid":9898,"égalité":9899,"highly":9900,"emploi":9901,"Westen":9902,"progres":9903,"Erfahrungen":9904,"focused":9905,"gezogen":9906,"kontrollieren":9907,"twice":9908,"dagegen":9909,"Journal":9910,"nulle":9911,"dizaines":9912,"Fas":9913,"Fün":9914,"Hunder":9915,"Life":9916,"ament":9917,"cun":9918,"cau":9919,"hause":9920,"kat":9921,"laut":9922,"émat":9923,"chnen":9924,"anes":9925,"asen":9926,"alie":9927,"entschied":9928,"ila":9929,"schirm":9930,"heir":9931,"opol":9932,"tact":9933,"liens":9934,"warm":9935,"bruch":9936,"icide":9937,"schaff":9938,"rench":9939,"carrière":9940,"Heil":9941,"Orig":9942,"offre":9943,"strateg":9944,"published":9945,"ütter":9946,"connait":9947,"Boot":9948,"responsibility":9949,"cratic":9950,"possibilités":9951,"Sky":9952,"scientist":9953,"quartier":9954,"stimul":9955,"Niemand":9956,"Martin":9957,"chinois":9958,"pyram":9959,"Ameisen":9960,"creativity":9961,"Hal":9962,"Mur":9963,"Wall":9964,"Zur":9965,"bum":9966,"bound":9967,"bird":9968,"câ":9969,"gro":9970,"mén":9971,"oe":9972,"uil":9973,"rechte":9974,"itär":9975,"ora":9976,"stam":9977,"imente":9978,"conç":9979,"dum":9980,"bers":9981,"déplace":9982,"mandez":9983,"lowed":9984,"zeichen":9985,"daß":9986,"shift":9987,"selber":9988,"poet":9989,"courir":9990,"Frü":9991,"arrivée":9992,"erreur":9993,"gestalten":9994,"smell":9995,"tester":9996,"organisms":9997,"Vielfalt":9998,"Suche":9999,"farmers":10000,"missing":10001,"sicherlich":10002,"radical":10003,"career":10004,"relationships":10005,"automob":10006,"sequences":10007,"rencontrer":10008,"Zusammenhang":10009,"lebten":10010,"Werkzeuge":10011,"frühen":10012,"krieg":10013,"fournir":10014,"obtenez":10015,"décennies":10016,"déchets":10017,"Second":10018,"Wikipedia":10019,"Gore":10020,"Rücken":10021,"cus":10022,"tor":10023,"tissu":10024,"vet":10025,"zes":10026,"chat":10027,"appu":10028,"reagieren":10029,"iell":10030,"memor":10031,"imeter":10032,"sogenann":10033,"hai":10034,"manières":10035,"étiez":10036,"garant":10037,"breast":10038,"üsse":10039,"planètes":10040,"correc":10041,"biom":10042,"langer":10043,"Depression":10044,"strate":10045,"magas":10046,"changent":10047,"losen":10048,"populations":10049,"travaillons":10050,"vollständig":10051,"apply":10052,"Genom":10053,"retir":10054,"extreme":10055,"concentrer":10056,"définition":10057,"wieso":10058,"avancer":10059,"Actually":10060,"kompliz":10061,"célèbre":10062,"Keine":10063,"Tri":10064,"Wies":10065,"Wandel":10066,"dol":10067,"kers":10068,"mü":10069,"ub":10070,"chances":10071,"ancy":10072,"rechten":10073,"ims":10074,"antici":10075,"sac":10076,"parking":10077,"perd":10078,"advant":10079,"noise":10080,"maisons":10081,"Audience":10082,"visite":10083,"2050":10084,"hohe":10085,"planets":10086,"arriere":10087,"nécess":10088,"energie":10089,"mouvements":10090,"échou":10091,"farm":10092,"fonctionnent":10093,"mutter":10094,"Kreativität":10095,"Falls":10096,"capacités":10097,"Karten":10098,"humaines":10099,"gagné":10100,"multipl":10101,"médecins":10102,"Virgin":10103,"erwartet":10104,"Sterne":10105,"benötigen":10106,"Asia":10107,"beeinflusst":10108,"consciousness":10109,"opinion":10110,"klärung":10111,"mittler":10112,"schlimm":10113,"rythme":10114,"Häus":10115,"Link":10116,"Pen":10117,"custom":10118,"jol":10119,"murs":10120,"rates":10121,"shr":10122,"sable":10123,"äumen":10124,"erfü":10125,"escal":10126,"ouvre":10127,"quet":10128,"seed":10129,"diert":10130,"verfolgen":10131,"roof":10132,"proble":10133,"ified":10134,"acting":10135,"account":10136,"distr":10137,"coal":10138,"Jede":10139,"blü":10140,"malgré":10141,"ierende":10142,"erstoff":10143,"volont":10144,"Laden":10145,"195":10146,"wagen":10147,"communications":10148,"wiederum":10149,"Mitglie":10150,"Brot":10151,"gentle":10152,"complexity":10153,"campaign":10154,"Englisch":10155,"Bedürf":10156,"Tradition":10157,"analyse":10158,"ingénieurs":10159,"erlauben":10160,"Organisationen":10161,"Dimens":10162,"Mad":10163,"Masse":10164,"Off":10165,"bande":10166,"gilt":10167,"glamour":10168,"çais":10169,"èle":10170,"städ":10171,"usual":10172,"weiten":10173,"zukünft":10174,"wirkt":10175,"parfait":10176,"exposition":10177,"dée":10178,"grass":10179,"ifier":10180,"couche":10181,"insicht":10182,"puzz":10183,"glaubt":10184,"glob":10185,"chocol":10186,"passed":10187,"étudié":10188,"téléphones":10189,"answers":10190,"ancien":10191,"Rock":10192,"chacune":10193,"montagne":10194,"giant":10195,"Affen":10196,"Fein":10197,"Kal":10198,"cens":10199,"dank":10200,"grippe":10201,"ören":10202,"essais":10203,"ini":10204,"ination":10205,"diale":10206,"prozess":10207,"steckt":10208,"benen":10209,"kton":10210,"bruit":10211,"pleur":10212,"änglich":10213,"plaît":10214,"derniers":10215,"traffic":10216,"garde":10217,"sembla":10218,"sélection":10219,"étudiant":10220,"Polize":10221,"Großteil":10222,"sitzt":10223,"elements":10224,"possibility":10225,"Mexico":10226,"oxygen":10227,"cadre":10228,"verursacht":10229,"Mobil":10230,"indépend":10231,"kommunizieren":10232,"frieden":10233,"Lieblings":10234,"compétences":10235,"Komplexität":10236,"Cal":10237,"Gates":10238,"rant":10239,"rappeler":10240,"wander":10241,"tritt":10242,"rad":10243,"conference":10244,"amine":10245,"agos":10246,"frapp":10247,"onsum":10248,"female":10249,"artig":10250,"ientôt":10251,"creates":10252,"crash":10253,"wält":10254,"wahl":10255,"background":10256,"communiquer":10257,"gewonnen":10258,"nourrir":10259,"Spek":10260,"führung":10261,"conduire":10262,"definit":10263,"Modelle":10264,"Treib":10265,"meurent":10266,"beschäftigt":10267,"achieve":10268,"Frieden":10269,"Opfer":10270,"Großbritannien":10271,"48":10272,"Fach":10273,"Rwand":10274,"Ven":10275,"Vis":10276,"Vog":10277,"Would":10278,"gment":10279,"swer":10280,"éclair":10281,"attrib":10282,"atrice":10283,"orien":10284,"dipl":10285,"schte":10286,"contra":10287,"dérou":10288,"désert":10289,"shel":10290,"passant":10291,"ziell":10292,"organisations":10293,"names":10294,"spring":10295,"helping":10296,"figured":10297,"definition":10298,"talent":10299,"Zusammenarbeit":10300,"spectac":10301,"appareils":10302,"walls":10303,"Basis":10304,"negative":10305,"suffisamment":10306,"Unterstützung":10307,"diplô":10308,"Bol":10309,"Lap":10310,"Pou":10311,"mér":10312,"nder":10313,"sächlich":10314,"uits":10315,"émotions":10316,"armes":10317,"entliche":10318,"eting":10319,"queue":10320,"tags":10321,"pourcent":10322,"therap":10323,"diffé":10324,"grad":10325,"greif":10326,"colère":10327,"itudes":10328,"brings":10329,"funny":10330,"regular":10331,"instin":10332,"fallu":10333,"devriez":10334,"engagement":10335,"présentation":10336,"feels":10337,"vollkommen":10338,"covered":10339,"broken":10340,"universel":10341,"hältnis":10342,"conflit":10343,"Bauern":10344,"offee":10345,"amerikanische":10346,"Führungs":10347,"enseignants":10348,"begeist":10349,"afraid":10350,"Avant":10351,"French":10352,"Ganz":10353,"Ham":10354,"Klasse":10355,"Kontin":10356,"PM":10357,"Ziele":10358,"aded":10359,"cule":10360,"fell":10361,"tiers":10362,"ula":10363,"ume":10364,"erle":10365,"chasse":10366,"quasi":10367,"ati":10368,"asy":10369,"lager":10370,"beis":10371,"diver":10372,"suche":10373,"annt":10374,"grab":10375,"monie":10376,"bright":10377,"venus":10378,"finished":10379,"interpret":10380,"Verkehr":10381,"cloud":10382,"hindern":10383,"unternehmen":10384,"matters":10385,"créatures":10386,"gelassen":10387,"adel":10388,"gestor":10389,"globe":10390,"tendlich":10391,"easily":10392,"Denk":10393,"verkauft":10394,"clip":10395,"window":10396,"improve":10397,"modernen":10398,"oxygène":10399,"Sekunde":10400,"Jobs":10401,"benötigt":10402,"necessary":10403,"Sauerstoff":10404,"natürliche":10405,"Funktion":10406,"häufig":10407,"verfüg":10408,"évolué":10409,"sérieux":10410,"tremendous":10411,"ader":10412,"davor":10413,"fos":10414,"sco":10415,"vac":10416,"trous":10417,"wear":10418,"soil":10419,"sozusagen":10420,"saß":10421,"umzu":10422,"illusion":10423,"syste":10424,"eladen":10425,"boat":10426,"trouvez":10427,"durchgeführt":10428,"gelangen":10429,"sensor":10430,"Malaria":10431,"dirait":10432,"beschreiben":10433,"aurons":10434,"Université":10435,"hunderte":10436,"régime":10437,"Objekte":10438,"fordert":10439,"Durchschnitt":10440,"Sorgen":10441,"pêche":10442,"Trois":10443,"équilibre":10444,"Eind":10445,"Koh":10446,"cés":10447,"Ökos":10448,"émissions":10449,"ona":10450,"isierung":10451,"osex":10452,"lecture":10453,"ield":10454,"etter":10455,"seien":10456,"prou":10457,"istisch":10458,"termine":10459,"antibiot":10460,"umente":10461,"opy":10462,"proches":10463,"aveug":10464,"übertragen":10465,"spaces":10466,"Erfind":10467,"Very":10468,"lettres":10469,"mögliche":10470,"colors":10471,"croyez":10472,"Grande":10473,"dign":10474,"weiterhin":10475,"animation":10476,"connections":10477,"domaines":10478,"incroyables":10479,"richesse":10480,"promise":10481,"Männern":10482,"devenus":10483,"reduce":10484,"wissenschaftliche":10485,"fairly":10486,"principalement":10487,"zoom":10488,"Hintergrund":10489,"Liter":10490,"Mel":10491,"Peter":10492,"Sport":10493,"bow":10494,"kg":10495,"ws":10496,"erhält":10497,"infl":10498,"rede":10499,"unte":10500,"vertrauen":10501,"istent":10502,"rient":10503,"aufs":10504,"goût":10505,"spie":10506,"interpr":10507,"Gefühle":10508,"marine":10509,"izop":10510,"izität":10511,"productive":10512,"importantly":10513,"graphy":10514,"arrête":10515,"radiation":10516,"investieren":10517,"Spitze":10518,"opportunities":10519,"European":10520,"emplois":10521,"shoot":10522,"erinnert":10523,"television":10524,"Strukturen":10525,"Brazil":10526,"hielten":10527,"adultes":10528,"classique":10529,"Botschaft":10530,"lucky":10531,"appellent":10532,"Fünf":10533,"Beine":10534,"Gle":10535,"Mu":10536,"Nutzen":10537,"Show":10538,"Up":10539,"coffee":10540,"eure":10541,"hur":10542,"ket":10543,"pflanzen":10544,"onger":10545,"quiet":10546,"auquel":10547,"rac":10548,"forment":10549,"umgehen":10550,"aissent":10551,"emiss":10552,"Three":10553,"flü":10554,"cry":10555,"meters":10556,"Sehr":10557,"beten":10558,"appelait":10559,"villages":10560,"ported":10561,"Flä":10562,"Stein":10563,"consid":10564,"krebs":10565,"décider":10566,"impliqu":10567,"Experten":10568,"commerci":10569,"merveilleuse":10570,"Verhaltens":10571,"leading":10572,"Werkzeug":10573,"Klima":10574,"thoden":10575,"Drei":10576,"unbedingt":10577,"cognitive":10578,"microscope":10579,"fréqu":10580,"Handel":10581,"Ple":10582,"Spre":10583,"cass":10584,"ecos":10585,"fisch":10586,"nait":10587,"rau":10588,"tough":10589,"vées":10590,"return":10591,"ieur":10592,"allaient":10593,"behalten":10594,"amie":10595,"déta":10596,"achsen":10597,"acte":10598,"acité":10599,"cock":10600,"myth":10601,"ignons":10602,"Project":10603,"méthode":10604,"spectr":10605,"konstru":10606,"attle":10607,"effray":10608,"Meilen":10609,"bestand":10610,"factory":10611,"morgen":10612,"Kontakt":10613,"compliqué":10614,"remment":10615,"tonnes":10616,"Island":10617,"douleur":10618,"répond":10619,"calls":10620,"rooms":10621,"télévision":10622,"principal":10623,"stände":10624,"wirtschaftlichen":10625,"engineers":10626,"habitants":10627,"considérer":10628,"insects":10629,"unterschiedlichen":10630,"Philip":10631,"Motor":10632,"forschung":10633,"Effekt":10634,"remote":10635,"Ban":10636,"Cra":10637,"Fund":10638,"Mont":10639,"Ray":10640,"element":10641,"idien":10642,"ält":10643,"inal":10644,"oubli":10645,"regel":10646,"tolle":10647,"stone":10648,"bewa":10649,"usage":10650,"scheinen":10651,"lip":10652,"grès":10653,"ending":10654,"spont":10655,"chtigkeit":10656,"pty":10657,"gelang":10658,"paysage":10659,"Untersuch":10660,"erstes":10661,"limited":10662,"freien":10663,"dirais":10664,"hormon":10665,"experiences":10666,"Span":10667,"équivalent":10668,"personnage":10669,"implant":10670,"religions":10671,"außerdem":10672,"führer":10673,"Forscher":10674,"visuelle":10675,"billions":10676,"Homo":10677,"buchstä":10678,"Global":10679,"Teles":10680,"Diskuss":10681,"abetes":10682,"Dire":10683,"Ever":10684,"Found":10685,"lis":10686,"zi":10687,"éth":10688,"leiten":10689,"seits":10690,"irgen":10691,"nect":10692,"weiss":10693,"terres":10694,"magie":10695,"hey":10696,"faitement":10697,"exhib":10698,"récol":10699,"server":10700,"sombre":10701,"Themen":10702,"ausein":10703,"coast":10704,"obi":10705,"obtenu":10706,"financi":10707,"Schu":10708,"alleine":10709,"creation":10710,"hinweg":10711,"puisque":10712,"Chirur":10713,"hydr":10714,"bestimmen":10715,"ärm":10716,"fourmis":10717,"herausgefunden":10718,"ganzes":10719,"Expl":10720,"mutlich":10721,"sorgen":10722,"résil":10723,"principes":10724,"Fällen":10725,"mauvaises":10726,"industrielle":10727,"Restaur":10728,"gründet":10729,"täglich":10730,"possède":10731,"iPod":10732,"Janu":10733,"connexion":10734,"hlenstoff":10735,"différemment":10736,"Din":10737,"Moun":10738,"Orient":10739,"dys":10740,"fes":10741,"fasse":10742,"mène":10743,"museum":10744,"rose":10745,"rural":10746,"scan":10747,"entrée":10748,"trip":10749,"desert":10750,"terrest":10751,"sag":10752,"réci":10753,"ckten":10754,"brief":10755,"Erleb":10756,"wohin":10757,"versus":10758,"ignée":10759,"courbe":10760,"dritten":10761,"hore":10762,"hohen":10763,"chaos":10764,"Ausbildung":10765,"gewicht":10766,"abilities":10767,"Bron":10768,"wegs":10769,"tombe":10770,"Überleben":10771,"schlechter":10772,"difficul":10773,"läss":10774,"Sometimes":10775,"responsable":10776,"describe":10777,"However":10778,"prototype":10779,"Smith":10780,"dieselbe":10781,"Scott":10782,"supplément":10783,"décrire":10784,"husband":10785,"Bedingungen":10786,"élèves":10787,"Bos":10788,"Black":10789,"Kalifor":10790,"bage":10791,"ew":10792,"jap":10793,"oth":10794,"ographic":10795,"élim":10796,"chern":10797,"teles":10798,"orange":10799,"eler":10800,"stade":10801,"ceed":10802,"conten":10803,"menace":10804,"zeiten":10805,"acts":10806,"discovery":10807,"interactions":10808,"Stift":10809,"metaphor":10810,"basiert":10811,"grain":10812,"gewachsen":10813,"particles":10814,"limité":10815,"invas":10816,"circle":10817,"mothers":10818,"electric":10819,"écriture":10820,"Holz":10821,"prochain":10822,"Mission":10823,"entwickelte":10824,"competition":10825,"Fleisch":10826,"formidable":10827,"ecosystem":10828,"Ecke":10829,"Hait":10830,"Kaffe":10831,"LG":10832,"Osten":10833,"Pet":10834,"Wettbewer":10835,"athe":10836,"cm":10837,"fter":10838,"hängen":10839,"jum":10840,"jardin":10841,"nage":10842,"erstellen":10843,"itter":10844,"iler":10845,"quotidien":10846,"ansen":10847,"parfaitement":10848,"défis":10849,"annon":10850,"lyn":10851,"frist":10852,"accur":10853,"Eric":10854,"wohn":10855,"flot":10856,"Proz":10857,"intit":10858,"fera":10859,"corn":10860,"Come":10861,"alisieren":10862,"fragten":10863,"possibles":10864,"klingt":10865,"Syn":10866,"sensation":10867,"médical":10868,"easier":10869,"protein":10870,"amené":10871,"devrais":10872,"augmente":10873,"Gemeinde":10874,"deutlich":10875,"demokrat":10876,"majority":10877,"catég":10878,"commerce":10879,"nearly":10880,"Professor":10881,"Physik":10882,"Royaume":10883,"phenomenon":10884,"écosyst":10885,"Rwanda":10886,"Vogel":10887,"Fig":10888,"Fant":10889,"Mary":10890,"Nations":10891,"TI":10892,"ls":10893,"lou":10894,"mile":10895,"nan":10896,"yellow":10897,"Änder":10898,"osau":10899,"repräsent":10900,"degrés":10901,"zubringen":10902,"pourra":10903,"Ernä":10904,"viewer":10905,"muscles":10906,"creatures":10907,"1970":10908,"bares":10909,"organic":10910,"International":10911,"weiteren":10912,"Staat":10913,"remind":10914,"wichtigste":10915,"biologique":10916,"Universums":10917,"symbo":10918,"innovations":10919,"ighten":10920,"comportements":10921,"habitat":10922,"Jugend":10923,"protéines":10924,"trägt":10925,"verwandeln":10926,"benefit":10927,"viendra":10928,"Stock":10929,"irgendeine":10930,"gebildet":10931,"Astr":10932,"Lied":10933,"Open":10934,"Tour":10935,"Tony":10936,"Vision":10937,"Waffen":10938,"Zä":10939,"bell":10940,"davantage":10941,"han":10942,"iés":10943,"wid":10944,"zog":10945,"égie":10946,"chines":10947,"qués":10948,"lades":10949,"beat":10950,"dients":10951,"moindre":10952,"ride":10953,"Lebe":10954,"unsicht":10955,"teste":10956,"wake":10957,"begins":10958,"starb":10959,"äuß":10960,"setzung":10961,"neutr":10962,"möglicherweise":10963,"heads":10964,"Planet":10965,"members":10966,"hauptsächlich":10967,"Urspr":10968,"events":10969,"Herausforderungen":10970,"matériau":10971,"médicament":10972,"statistiques":10973,"héros":10974,"remarquable":10975,"necessarily":10976,"accessible":10977,"Perspektive":10978,"Eing":10979,"River":10980,"Sind":10981,"Sup":10982,"bientôt":10983,"lance":10984,"repe":10985,"reconnaître":10986,"itzt":10987,"determin":10988,"estens":10989,"zufällig":10990,"ctique":10991,"sale":10992,"taines":10993,"riz":10994,"cket":10995,"grenz":10996,"survivre":10997,"sichten":10998,"überzeugt":10999,"vorhand":11000,"Stär":11001,"knowing":11002,"Rede":11003,"ugier":11004,"organes":11005,"trained":11006,"existent":11007,"sorry":11008,"opportunités":11009,"Johnson":11010,"clinique":11011,"similaire":11012,"entirely":11013,"IDA":11014,"stratégie":11015,"erklärt":11016,"Gewebe":11017,"Sozial":11018,"buchstäblich":11019,"Dru":11020,"Sans":11021,"Van":11022,"Zimmer":11023,"biblio":11024,"cous":11025,"ieuse":11026,"demandez":11027,"lesson":11028,"usions":11029,"uts":11030,"jection":11031,"Andre":11032,"réchauffe":11033,"agan":11034,"doigt":11035,"surge":11036,"Innen":11037,"Schiff":11038,"besitzen":11039,"pouviez":11040,"Statt":11041,"previ":11042,"Gesetze":11043,"Außen":11044,"apping":11045,"trouvons":11046,"steller":11047,"natur":11048,"newsp":11049,"utilisée":11050,"utilisés":11051,"Mechan":11052,"sortie":11053,"signaux":11054,"weiteres":11055,"lautet":11056,"Problemen":11057,"studying":11058,"Nichts":11059,"observe":11060,"Kohlenstoff":11061,"faute":11062,"Erinnerung":11063,"surveill":11064,"Leistung":11065,"Wahrscheinlichkeit":11066,"employe":11067,"36":11068,"42":11069,"LED":11070,"Pfer":11071,"Pfle":11072,"Shang":11073,"Tun":11074,"ahe":11075,"handel":11076,"jump":11077,"nano":11078,"anx":11079,"audit":11080,"entwerfen":11081,"septem":11082,"labo":11083,"dert":11084,"usw":11085,"maî":11086,"soin":11087,"iern":11088,"parlait":11089,"contient":11090,"agon":11091,"ayons":11092,"ida":11093,"spo":11094,"symé":11095,"ptions":11096,"musée":11097,"garçons":11098,"issus":11099,"struktur":11100,"mélange":11101,"effic":11102,"stuck":11103,"president":11104,"laser":11105,"teln":11106,"klin":11107,"bloß":11108,"rentrer":11109,"olled":11110,"spirit":11111,"wunderbare":11112,"Bildern":11113,"schlimmer":11114,"client":11115,"Forschungs":11116,"verrück":11117,"feuille":11118,"quitter":11119,"leads":11120,"observation":11121,"Delhi":11122,"target":11123,"benefits":11124,"Talib":11125,"separate":11126,"cardiaque":11127,"Gandhi":11128,"advantage":11129,"SS":11130,"fied":11131,"ians":11132,"nded":11133,"ov":11134,"isée":11135,"itaires":11136,"beit":11137,"beteil":11138,"gehabt":11139,"trac":11140,"absen":11141,"imprim":11142,"gency":11143,"réflex":11144,"inement":11145,"überzeugen":11146,"penses":11147,"hergestellt":11148,"partment":11149,"produkt":11150,"puts":11151,"assum":11152,"gelesen":11153,"thane":11154,"polic":11155,"bia":11156,"arrivés":11157,"fährt":11158,"probieren":11159,"expansion":11160,"mouse":11161,"auront":11162,"opened":11163,"perfekt":11164,"romant":11165,"Disney":11166,"holding":11167,"modell":11168,"Militär":11169,"consiste":11170,"ultimately":11171,"maschine":11172,"accidents":11173,"Haiti":11174,"septembre":11175,"Bal":11176,"Ky":11177,"Satz":11178,"Tumor":11179,"bite":11180,"fik":11181,"gère":11182,"oles":11183,"appreci":11184,"remer":11185,"retrouver":11186,"itage":11187,"depression":11188,"irt":11189,"derzeit":11190,"meat":11191,"quez":11192,"schwe":11193,"ansas":11194,"whom":11195,"movies":11196,"noirs":11197,"ologiques":11198,"phon":11199,"State":11200,"carbur":11201,"directions":11202,"netto":11203,"Once":11204,"chaleur":11205,"talks":11206,"handic":11207,"Sub":11208,"gather":11209,"neuron":11210,"interessanter":11211,"investig":11212,"investment":11213,"ralent":11214,"protest":11215,"broad":11216,"Robot":11217,"retourner":11218,"présence":11219,"dinosaur":11220,"chiffre":11221,"bezahlen":11222,"fighting":11223,"mammo":11224,"gefährlich":11225,"töten":11226,"Galaxien":11227,"Öffentlich":11228,"Plastik":11229,"Zweitens":11230,"Erkenntnis":11231,"brilliant":11232,"gestorben":11233,"Hi":11234,"Votre":11235,"Viet":11236,"aér":11237,"fotograf":11238,"keln":11239,"lter":11240,"incent":11241,"iegen":11242,"dement":11243,"seat":11244,"einsetzen":11245,"andis":11246,"gek":11247,"divi":11248,"igno":11249,"maths":11250,"allge":11251,"faim":11252,"paradox":11253,"forêts":11254,"réelle":11255,"graben":11256,"avoid":11257,"treiben":11258,"itete":11259,"durée":11260,"ferait":11261,"transplant":11262,"effon":11263,"vouloir":11264,"probable":11265,"Brun":11266,"bereich":11267,"gegenseit":11268,"doubl":11269,"erzähle":11270,"richtungen":11271,"operating":11272,"wheel":11273,"religious":11274,"closed":11275,"Rahmen":11276,"improvis":11277,"Elektron":11278,"titre":11279,"failure":11280,"beeinflussen":11281,"Soldaten":11282,"Aben":11283,"Fische":11284,"Händen":11285,"Jos":11286,"Karriere":11287,"Maus":11288,"Nam":11289,"Phas":11290,"Säu":11291,"ails":11292,"lés":11293,"mord":11294,"pha":11295,"tiens":11296,"tumor":11297,"yen":11298,"erve":11299,"erlebt":11300,"inj":11301,"island":11302,"leçon":11303,"gefü":11304,"exten":11305,"dozen":11306,"steigt":11307,"aisons":11308,"resse":11309,"mess":11310,"sph":11311,"étaire":11312,"inkel":11313,"alem":11314,"Reich":11315,"marin":11316,"guide":11317,"south":11318,"Health":11319,"erster":11320,"Mama":11321,"Frem":11322,"shouldn":11323,"battre":11324,"aurions":11325,"irgendwann":11326,"normalen":11327,"kurze":11328,"operate":11329,"fingen":11330,"filled":11331,"brauchten":11332,"arrêté":11333,"rayon":11334,"civilisation":11335,"civilization":11336,"secrets":11337,"dinosau":11338,"Titel":11339,"Fernsehen":11340,"Aktivität":11341,"empêcher":11342,"dangereux":11343,"Institutionen":11344,"caractéristiques":11345,"berühm":11346,"Dinosaur":11347,"Akt":11348,"Bett":11349,"Log":11350,"Mau":11351,"Nel":11352,"Rot":11353,"hh":11354,"nées":11355,"pill":11356,"rab":11357,"él":11358,"orrow":11359,"theit":11360,"sey":11361,"stable":11362,"vember":11363,"tras":11364,"olum":11365,"weather":11366,"déje":11367,"aches":11368,"ays":11369,"treated":11370,"chemis":11371,"hate":11372,"somit":11373,"blow":11374,"insight":11375,"Schimp":11376,"getö":11377,"2011":11378,"Neander":11379,"drin":11380,"Gras":11381,"sociales":11382,"tube":11383,"curios":11384,"Ausdruck":11385,"scene":11386,"foreign":11387,"tourne":11388,"Zuerst":11389,"Zucker":11390,"Landschaft":11391,"Bildungs":11392,"économiques":11393,"rasch":11394,"falsche":11395,"responsible":11396,"destroy":11397,"implications":11398,"esterday":11399,"facil":11400,"synchron":11401,"oceans":11402,"flächen":11403,"Quelqu":11404,"rêves":11405,"Weltraum":11406,"bemerkt":11407,"kriegen":11408,"dynamique":11409,"Moleküle":11410,"vehicle":11411,"Gründen":11412,"honnête":11413,"éparg":11414,"begeistert":11415,"Bell":11416,"Ill":11417,"Jungs":11418,"Women":11419,"bos":11420,"günst":11421,"iation":11422,"enable":11423,"erfinden":11424,"aust":11425,"eless":11426,"prol":11427,"veröffent":11428,"verdienen":11429,"vermutlich":11430,"schrift":11431,"faith":11432,"jekten":11433,"ifik":11434,"Instru":11435,"témo":11436,"advert":11437,"viande":11438,"dahin":11439,"damage":11440,"Schlag":11441,"gerät":11442,"foie":11443,"angehen":11444,"grave":11445,"everyday":11446,"transparent":11447,"enfance":11448,"alisiert":11449,"raised":11450,"acceler":11451,"Krise":11452,"charbon":11453,"massi":11454,"Kompon":11455,"Germany":11456,"enseignement":11457,"diox":11458,"Produktion":11459,"Cola":11460,"Wahrneh":11461,"arbeiteten":11462,"ähnliche":11463,"fields":11464,"poison":11465,"Radio":11466,"typical":11467,"intéressé":11468,"träge":11469,"mariage":11470,"souhaite":11471,"golf":11472,"référence":11473,"sculpture":11474,"effizient":11475,"entspricht":11476,"enthousias":11477,"nötig":11478,"caught":11479,"Nelson":11480,"Hill":11481,"Have":11482,"Sein":11483,"Spie":11484,"Space":11485,"Tie":11486,"Ug":11487,"cow":11488,"jan":11489,"nons":11490,"ored":11491,"rück":11492,"äne":11493,"ößen":11494,"chain":11495,"apher":11496,"debout":11497,"debate":11498,"arms":11499,"bear":11500,"dian":11501,"präch":11502,"veran":11503,"gender":11504,"sach":11505,"wirst":11506,"contempor":11507,"rochen":11508,"riage":11509,"dépression":11510,"heran":11511,"ibel":11512,"Jeff":11513,"cercle":11514,"Ange":11515,"flat":11516,"états":11517,"intuit":11518,"nachts":11519,"nachhalt":11520,"simul":11521,"guér":11522,"starke":11523,"anderem":11524,"Kontext":11525,"airplane":11526,"accue":11527,"welchen":11528,"bereitet":11529,"bouche":11530,"nächstes":11531,"Geräte":11532,"principle":11533,"côtés":11534,"Does":11535,"électriques":11536,"Beste":11537,"identity":11538,"rendent":11539,"représentent":11540,"intelligente":11541,"immeu":11542,"Institut":11543,"feedback":11544,"Grenze":11545,"victimes":11546,"explosion":11547,"überrascht":11548,"Budd":11549,"equivalent":11550,"gruppe":11551,"Celui":11552,"Singap":11553,"offrir":11554,"verständlich":11555,"Kohle":11556,"Lebewesen":11557,"Vietnam":11558,"Dun":11559,"Hé":11560,"Jose":11561,"Sum":11562,"Tö":11563,"gä":11564,"grid":11565,"kolle":11566,"scal":11567,"zing":11568,"osion":11569,"reibt":11570,"refer":11571,"quad":11572,"leider":11573,"illage":11574,"elly":11575,"ceut":11576,"proud":11577,"despite":11578,"sacré":11579,"ichts":11580,"tais":11581,"moves":11582,"débar":11583,"agers":11584,"grim":11585,"ify":11586,"ielles":11587,"frère":11588,"ologues":11589,"systeme":11590,"ächer":11591,"Zeich":11592,"visions":11593,"Zeitalter":11594,"captur":11595,"stolz":11596,"clever":11597,"négo":11598,"2002":11599,"helps":11600,"Muslim":11601,"signals":11602,"zurückzu":11603,"brauche":11604,"connue":11605,"besseren":11606,"oret":11607,"beschleun":11608,"Kombin":11609,"richtung":11610,"mindestens":11611,"inventer":11612,"ancienne":11613,"appeared":11614,"Schwester":11615,"séquence":11616,"identifier":11617,"bomb":11618,"jährige":11619,"mathematics":11620,"gewisser":11621,"chimpanz":11622,"opposite":11623,"Informations":11624,"diskut":11625,"AM":11626,"Brésil":11627,"Sus":11628,"Stop":11629,"Spiele":11630,"Time":11631,"Toute":11632,"Vie":11633,"bés":11634,"zelle":11635,"anony":11636,"auff":11637,"einiger":11638,"verm":11639,"ierie":11640,"saires":11641,"river":11642,"cide":11643,"agissent":11644,"Etwas":11645,"ifer":11646,"embr":11647,"essential":11648,"Schmerz":11649,"Eng":11650,"Verbre":11651,"ätsel":11652,"simulation":11653,"Neben":11654,"dran":11655,"Qualität":11656,"studied":11657,"nommé":11658,"Interaktion":11659,"ritten":11660,"detwas":11661,"Aufgaben":11662,"limite":11663,"Newton":11664,"zählen":11665,"singes":11666,"frontières":11667,"puissante":11668,"concerned":11669,"coûts":11670,"General":11671,"intelligents":11672,"Sicherheits":11673,"wissenschaftlichen":11674,"slowly":11675,"précisément":11676,"employés":11677,"conservation":11678,"Elemente":11679,"degree":11680,"disponible":11681,"disponibles":11682,"constantly":11683,"soutien":11684,"hoffentlich":11685,"Eigentlich":11686,"connaissances":11687,"doppelt":11688,"strategy":11689,"Foundation":11690,"Kalifornien":11691,"Dur":11692,"Dop":11693,"Dem":11694,"SIDA":11695,"Voi":11696,"cards":11697,"tiennent":11698,"vaient":11699,"zunächst":11700,"engl":11701,"chann":11702,"itives":11703,"attempt":11704,"theater":11705,"sowie":11706,"senden":11707,"grown":11708,"steps":11709,"fruit":11710,"gespiel":11711,"ival":11712,"shall":11713,"ernä":11714,"biens":11715,"illegal":11716,"boom":11717,"lieber":11718,"préserv":11719,"itionen":11720,"facts":11721,"complet":11722,"Teilchen":11723,"versuchten":11724,"designing":11725,"Flu":11726,"connus":11727,"belief":11728,"membre":11729,"generate":11730,"découvertes":11731,"Congo":11732,"Sprachen":11733,"Besonder":11734,"concernant":11735,"Schwier":11736,"galaxie":11737,"recevoir":11738,"jährigen":11739,"crucial":11740,"ingénierie":11741,"motivation":11742,"mentioned":11743,"fördern":11744,"spezif":11745,"babies":11746,"praktisch":11747,"électronique":11748,"switch":11749,"verantwortlich":11750,"épidémie":11751,"veröffentlicht":11752,"Billion":11753,"Brian":11754,"Ethiop":11755,"IR":11756,"Klassen":11757,"Other":11758,"Tam":11759,"Zell":11760,"gout":11761,"lour":11762,"rication":11763,"sn":11764,"sä":11765,"âtre":11766,"tei":11767,"veget":11768,"diers":11769,"verhindern":11770,"territ":11771,"fahrt":11772,"convert":11773,"acheté":11774,"benutz":11775,"embra":11776,"iesen":11777,"Theater":11778,"kombin":11779,"lied":11780,"nochmal":11781,"Einfach":11782,"matic":11783,"wenigen":11784,"attent":11785,"Defin":11786,"propose":11787,"klass":11788,"followed":11789,"north":11790,"iquent":11791,"Bras":11792,"believed":11793,"populaire":11794,"dirig":11795,"interessieren":11796,"aimons":11797,"Box":11798,"intéressantes":11799,"Kindheit":11800,"anciens":11801,"esprits":11802,"suffering":11803,"Everything":11804,"Everybody":11805,"tauchen":11806,"survival":11807,"kilometers":11808,"Metapher":11809,"conséquent":11810,"Standard":11811,"threat":11812,"Organismen":11813,"convaincre":11814,"nutrition":11815,"molecule":11816,"Konflikt":11817,"Öffentlichkeit":11818,"getötet":11819,"Each":11820,"Stoff":11821,"Zauber":11822,"gant":11823,"score":11824,"uellement":11825,"vation":11826,"infant":11827,"unfortunately":11828,"aling":11829,"geist":11830,"verbracht":11831,"istische":11832,"commande":11833,"owner":11834,"paraly":11835,"concre":11836,"forcé":11837,"interagieren":11838,"centres":11839,"ernst":11840,"inton":11841,"hasn":11842,"passés":11843,"utiles":11844,"créent":11845,"voulions":11846,"organized":11847,"magne":11848,"setting":11849,"Konsequ":11850,"geschickt":11851,"douce":11852,"activités":11853,"driven":11854,"ramme":11855,"violent":11856,"Coca":11857,"joie":11858,"bauten":11859,"composants":11860,"Allemagne":11861,"enorm":11862,"apprennent":11863,"Politiker":11864,"Begriff":11865,"pilot":11866,"dirigeants":11867,"montagnes":11868,"routes":11869,"erkannte":11870,"equip":11871,"Central":11872,"kümmern":11873,"Satell":11874,"Korea":11875,"Spektr":11876,"BG":11877,"Day":11878,"Epi":11879,"Gor":11880,"Garten":11881,"Hen":11882,"Mütter":11883,"Samm":11884,"ock":11885,"pup":11886,"rof":11887,"rome":11888,"sister":11889,"vues":11890,"reve":11891,"leaving":11892,"asha":11893,"argue":11894,"ausch":11895,"stür":11896,"geändert":11897,"dilem":11898,"schick":11899,"schule":11900,"conscient":11901,"explan":11902,"déses":11903,"survie":11904,"surfaces":11905,"actor":11906,"idung":11907,"obtient":11908,"viet":11909,"interro":11910,"intervention":11911,"mément":11912,"célé":11913,"2020":11914,"ungskraft":11915,"starten":11916,"Vorfahren":11917,"morale":11918,"freund":11919,"Brown":11920,"Arbeiten":11921,"batte":11922,"Blue":11923,"Public":11924,"harm":11925,"forced":11926,"Körpers":11927,"sexe":11928,"fabric":11929,"Obwohl":11930,"continué":11931,"Architekten":11932,"layer":11933,"Privat":11934,"Parkinson":11935,"vaccin":11936,"ressentir":11937,"Human":11938,"gratu":11939,"souhait":11940,"hallu":11941,"deeply":11942,"oureux":11943,"sophist":11944,"digitale":11945,"SETI":11946,"Drittel":11947,"dürfen":11948,"oeil":11949,"correctement":11950,"vorhanden":11951,"olumines":11952,"gespielt":11953,"Haufen":11954,"Kop":11955,"Rab":11956,"gap":11957,"jac":11958,"oge":11959,"pti":11960,"ulaires":11961,"ôtre":11962,"chicken":11963,"leid":11964,"demain":11965,"stro":11966,"weib":11967,"weird":11968,"desk":11969,"malement":11970,"plas":11971,"contain":11972,"consequences":11973,"lycée":11974,"èses":11975,"dafri":11976,"artigen":11977,"poche":11978,"clar":11979,"click":11980,"compared":11981,"correspon":11982,"patent":11983,"gebrochen":11984,"childhood":11985,"Brenn":11986,"Permettez":11987,"connecter":11988,"möglichkeiten":11989,"investissement":11990,"engineer":11991,"participer":11992,"kaner":11993,"Certaines":11994,"principale":11995,"dreams":11996,"increasingly":11997,"artificial":11998,"gewisse":11999,"wiesen":12000,"fossil":12001,"meistens":12002,"Brook":12003,"property":12004,"script":12005,"volonté":12006,"Shanghai":12007,"absence":12008,"Uganda":12009,"Flas":12010,"Rien":12011,"Roll":12012,"Sitz":12013,"aa":12014,"balle":12015,"kins":12016,"tig":12017,"tape":12018,"yle":12019,"erkennt":12020,"quête":12021,"unless":12022,"detail":12023,"sector":12024,"igts":12025,"maire":12026,"heil":12027,"rage":12028,"failed":12029,"soie":12030,"peak":12031,"aufbauen":12032,"endung":12033,"nervous":12034,"Jeden":12035,"poin":12036,"Enfin":12037,"garden":12038,"Zeichen":12039,"holes":12040,"naires":12041,"grandmother":12042,"noms":12043,"culaire":12044,"altitude":12045,"Prim":12046,"genauer":12047,"donnée":12048,"harder":12049,"views":12050,"écule":12051,"énormément":12052,"führten":12053,"chaud":12054,"raconte":12055,"joindre":12056,"Chemik":12057,"bekannten":12058,"pensées":12059,"emotions":12060,"molécule":12061,"galaxy":12062,"Welche":12063,"virtual":12064,"erscheinen":12065,"Schnitt":12066,"liquide":12067,"Juste":12068,"Heimat":12069,"Außerdem":12070,"Individuen":12071,"Deutsch":12072,"Identität":12073,"Wieso":12074,"irgendetwas":12075,"Fak":12076,"IM":12077,"Sant":12078,"dain":12079,"gos":12080,"kla":12081,"kul":12082,"lass":12083,"wü":12084,"yon":12085,"ésie":12086,"appen":12087,"deinen":12088,"tol":12089,"trillion":12090,"ollo":12091,"neige":12092,"sacri":12093,"parc":12094,"aret":12095,"doigts":12096,"warming":12097,"resource":12098,"fehlen":12099,"acqu":12100,"Weiß":12101,"ruhig":12102,"Algorith":12103,"esehen":12104,"tip":12105,"posons":12106,"possé":12107,"Ansicht":12108,"caused":12109,"Gefahr":12110,"musical":12111,"credit":12112,"izes":12113,"drückt":12114,"touche":12115,"technologique":12116,"croient":12117,"souches":12118,"alisé":12119,"Bildschirm":12120,"ancing":12121,"principles":12122,"Autor":12123,"suffit":12124,"keeping":12125,"Gedanke":12126,"ktivität":12127,"Experimente":12128,"linken":12129,"Folge":12130,"Quelques":12131,"lentement":12132,"fascinating":12133,"battle":12134,"légèrement":12135,"surprising":12136,"seriously":12137,"circuits":12138,"kompliziert":12139,"éloign":12140,"scanner":12141,"Saturn":12142,"nannte":12143,"regret":12144,"Polizei":12145,"AK":12146,"AR":12147,"Bor":12148,"Blo":12149,"Batter":12150,"EC":12151,"Klang":12152,"Pla":12153,"Pfe":12154,"Pfl":12155,"Toi":12156,"Wat":12157,"adu":12158,"belles":12159,"dün":12160,"echten":12161,"faus":12162,"lun":12163,"sla":12164,"yo":12165,"île":12166,"entworfen":12167,"otic":12168,"estin":12169,"diapos":12170,"vergleichen":12171,"weak":12172,"ramener":12173,"libé":12174,"esses":12175,"hlten":12176,"shif":12177,"Erklärung":12178,"Anim":12179,"Stasi":12180,"malheureusement":12181,"Rechte":12182,"ersetzen":12183,"thinks":12184,"uchte":12185,"otherwise":12186,"unterscheiden":12187,"20th":12188,"telles":12189,"ordinary":12190,"hörten":12191,"heureuse":12192,"specif":12193,"fabrication":12194,"copes":12195,"Lincol":12196,"Radi":12197,"définir":12198,"Kevin":12199,"Kapital":12200,"thèque":12201,"wesentlich":12202,"Banglades":12203,"managed":12204,"oeuvre":12205,"pharmaceut":12206,"Prenez":12207,"Elektrizität":12208,"Bible":12209,"Dad":12210,"Gas":12211,"Klin":12212,"Penn":12213,"Rem":12214,"Ve":12215,"hoffen":12216,"nante":12217,"pause":12218,"rin":12219,"tum":12220,"vise":12221,"winter":12222,"ïs":12223,"leaves":12224,"bekamen":12225,"paralle":12226,"riffe":12227,"aufhören":12228,"avent":12229,"frau":12230,"acted":12231,"oko":12232,"Beweis":12233,"besor":12234,"pool":12235,"Verlust":12236,"Start":12237,"illet":12238,"traverser":12239,"wisdom":12240,"filter":12241,"Auswahl":12242,"Monter":12243,"Pourtant":12244,"gestern":12245,"Abschluss":12246,"invited":12247,"boulot":12248,"êtements":12249,"pluie":12250,"videos":12251,"constamment":12252,"personnelle":12253,"essai":12254,"classes":12255,"wirtschaftliche":12256,"multiple":12257,"quitté":12258,"réduit":12259,"roten":12260,"öffentliche":12261,"described":12262,"particulière":12263,"Mexique":12264,"Homme":12265,"begeg":12266,"wechseln":12267,"Details":12268,"Nachbarn":12269,"amusant":12270,"Laufe":12271,"thérapie":12272,"gäbe":12273,"Echt":12274,"Gang":12275,"Ig":12276,"ades":12277,"iest":12278,"oo":12279,"snow":12280,"vable":12281,"vêtements":12282,"wave":12283,"äger":12284,"èse":12285,"insur":12286,"revient":12287,"quée":12288,"unité":12289,"deta":12290,"entstanden":12291,"eindeut":12292,"establ":12293,"dente":12294,"raw":12295,"comprennent":12296,"ctu":12297,"sides":12298,"extrait":12299,"Initi":12300,"Weib":12301,"könnt":12302,"shapes":12303,"lettre":12304,"producing":12305,"biais":12306,"vég":12307,"sortent":12308,"Platt":12309,"letztendlich":12310,"ancen":12311,"itiven":12312,"Steuer":12313,"sympa":12314,"burgh":12315,"ièmement":12316,"générations":12317,"sexy":12318,"juge":12319,"Naja":12320,"location":12321,"publié":12322,"effectively":12323,"Philos":12324,"professeurs":12325,"beinahe":12326,"Bruder":12327,"soldats":12328,"intuitive":12329,"véhicules":12330,"Entdeckung":12331,"grundlegende":12332,"hidden":12333,"échec":12334,"stammt":12335,"Lincoln":12336,"Could":12337,"Hallo":12338,"Jes":12339,"Lang":12340,"Wild":12341,"cave":12342,"gold":12343,"hie":12344,"lux":12345,"nette":12346,"nutzt":12347,"sl":12348,"äm":12349,"seins":12350,"eingesetzt":12351,"stimmen":12352,"beantworten":12353,"mentally":12354,"schm":12355,"bern":12356,"riften":12357,"décrit":12358,"agents":12359,"steel":12360,"phin":12361,"portée":12362,"Stimmen":12363,"étapes":12364,"metal":12365,"fenêtre":12366,"fernen":12367,"aka":12368,"Online":12369,"allerdings":12370,"explique":12371,"fourth":12372,"iquée":12373,"exists":12374,"opening":12375,"technical":12376,"Minute":12377,"bébés":12378,"terminer":12379,"Linien":12380,"independent":12381,"evolutionary":12382,"forests":12383,"perfectly":12384,"surprised":12385,"participation":12386,"fähigkeit":12387,"stärker":12388,"stupid":12389,"kürzlich":12390,"diagnosti":12391,"berührt":12392,"fresh":12393,"généralement":12394,"struggle":12395,"heavy":12396,"männ":12397,"efficacité":12398,"Biblio":12399,"DG":12400,"Dou":12401,"HC":12402,"Jane":12403,"Lager":12404,"Mig":12405,"OL":12406,"Wetter":12407,"dlich":12408,"hm":12409,"lune":12410,"rum":12411,"waves":12412,"escla":12413,"isted":12414,"tober":12415,"verlang":12416,"istor":12417,"keys":12418,"announ":12419,"serre":12420,"loge":12421,"fruits":12422,"brou":12423,"brary":12424,"ologists":12425,"pointe":12426,"trace":12427,"musst":12428,"hadn":12429,"volonta":12430,"soutenir":12431,"tué":12432,"professor":12433,"impul":12434,"arrange":12435,"beschlossen":12436,"calling":12437,"universal":12438,"micals":12439,"mortality":12440,"awful":12441,"physiques":12442,"conférences":12443,"wichtigen":12444,"inspiriert":12445,"Zuschau":12446,"Ouais":12447,"atoires":12448,"silk":12449,"flip":12450,"lernt":12451,"Gegenteil":12452,"digitalen":12453,"leichter":12454,"schaute":12455,"Britain":12456,"efficaces":12457,"vaste":12458,"intrins":12459,"medizinische":12460,"Prototy":12461,"absorb":12462,"variety":12463,"Occident":12464,"Aspekt":12465,"normally":12466,"Eindruck":12467,"auseinander":12468,"Kaffee":12469,"Dach":12470,"Four":12471,"Gree":12472,"Hong":12473,"Kein":12474,"Tonnen":12475,"dose":12476,"gelt":12477,"hind":12478,"oven":12479,"yers":12480,"ency":12481,"alys":12482,"auriez":12483,"sele":12484,"toward":12485,"stig":12486,"geo":12487,"istischen":12488,"mamm":12489,"agissait":12490,"chemicals":12491,"ressemblait":12492,"noy":12493,"acteurs":12494,"pensaient":12495,"icides":12496,"portables":12497,"Verhältnis":12498,"Stau":12499,"Gegens":12500,"compat":12501,"actuel":12502,"maintenir":12503,"Ceux":12504,"jaune":12505,"autrement":12506,"Media":12507,"paying":12508,"Geschle":12509,"propag":12510,"höre":12511,"kräfte":12512,"schwimmen":12513,"joué":12514,"organisme":12515,"generations":12516,"ancêtres":12517,"spielte":12518,"Steven":12519,"protég":12520,"Beruf":12521,"hinge":12522,"origami":12523,"grunds":12524,"paint":12525,"traditionellen":12526,"hopefully":12527,"fémin":12528,"researchers":12529,"automatique":12530,"instructions":12531,"Generationen":12532,"métap":12533,"historique":12534,"Mexiko":12535,"connaît":12536,"suspen":12537,"persönlich":12538,"chirurgie":12539,"batterie":12540,"zerstört":12541,"Clinton":12542,"Shakes":12543,"vulner":12544,"exponentiel":12545,"natürlichen":12546,"picked":12547,"reduzieren":12548,"rivière":12549,"surveillance":12550,"Monterey":12551,"mammif":12552,"Ag":12553,"Abed":12554,"Blas":12555,"Mund":12556,"Mem":12557,"Mess":12558,"Nationen":12559,"Wein":12560,"Winter":12561,"dinner":12562,"equal":12563,"fum":12564,"mans":12565,"pion":12566,"rats":12567,"skelet":12568,"écl":12569,"ökonom":12570,"orders":12571,"theoret":12572,"schr":12573,"comprends":12574,"pedition":12575,"modu":12576,"export":12577,"excl":12578,"rième":12579,"aidé":12580,"réc":12581,"cheveux":12582,"embarr":12583,"angesehen":12584,"acters":12585,"Their":12586,"disais":12587,"malade":12588,"ignet":12589,"volcan":12590,"homes":12591,"ériques":12592,"archie":12593,"scen":12594,"sûrement":12595,"organiser":12596,"recue":12597,"gegenwär":12598,"medic":12599,"aktu":12600,"résist":12601,"lumières":12602,"danken":12603,"privil":12604,"psychiat":12605,"regardent":12606,"clinical":12607,"bietet":12608,"identify":12609,"zugänglich":12610,"professional":12611,"Transport":12612,"unterschiedlich":12613,"Israël":12614,"krankungen":12615,"ignorance":12616,"Gesundheitswesen":12617,"monstration":12618,"gelegt":12619,"currently":12620,"verschwinden":12621,"coté":12622,"trieb":12623,"platform":12624,"deeper":12625,"Pacific":12626,"schneiden":12627,"bezahlt":12628,"Häuser":12629,"Shakespe":12630,"Gü":12631,"Mak":12632,"Ren":12633,"Rad":12634,"Vene":12635,"eaux":12636,"lunch":12637,"signe":12638,"ino":12639,"estern":12640,"diger":12641,"wearing":12642,"desire":12643,"denk":12644,"mad":12645,"mentation":12646,"pler":12647,"soyez":12648,"grös":12649,"brü":12650,"coordin":12651,"gesto":12652,"ettet":12653,"Angle":12654,"centr":12655,"flug":12656,"halbe":12657,"ordnung":12658,"mines":12659,"Neues":12660,"langues":12661,"müsste":12662,"tumeur":12663,"factor":12664,"boten":12665,"characters":12666,"rouges":12667,"medium":12668,"economics":12669,"Berlin":12670,"attaquer":12671,"burg":12672,"objectifs":12673,"electrical":12674,"terminé":12675,"Berechn":12676,"infection":12677,"philanthrop":12678,"articles":12679,"aufzubauen":12680,"killing":12681,"verbreiten":12682,"fondamentale":12683,"graduate":12684,"mäßig":12685,"launched":12686,"Première":12687,"Entwicklungsländern":12688,"verfügbar":12689,"Erlebnis":12690,"Bronx":12691,"Spiegel":12692,"Angleterre":12693,"31":12694,"Element":12695,"Offen":12696,"Sä":12697,"jamin":12698,"lös":12699,"pest":12700,"pum":12701,"init":12702,"unit":12703,"prouver":12704,"trap":12705,"utt":12706,"saved":12707,"agiert":12708,"ience":12709,"novel":12710,"merzen":12711,"acteur":12712,"branche":12713,"Weile":12714,"Schä":12715,"vieille":12716,"Verstand":12717,"chnet":12718,"ventions":12719,"Gespräch":12720,"solid":12721,"Teen":12722,"Seele":12723,"basé":12724,"viruses":12725,"netz":12726,"dry":12727,"Methoden":12728,"hua":12729,"sentence":12730,"Ausmaß":12731,"Aufnahme":12732,"Kräfte":12733,"développe":12734,"tomorrow":12735,"boule":12736,"dessiner":12737,"grosses":12738,"rassembl":12739,"kurzen":12740,"enseigner":12741,"Strate":12742,"largement":12743,"Großmutter":12744,"linge":12745,"club":12746,"essayez":12747,"locaux":12748,"facing":12749,"languages":12750,"Benjamin":12751,"intense":12752,"bombe":12753,"serez":12754,"modernes":12755,"influen":12756,"zentrum":12757,"flexible":12758,"Liber":12759,"emerging":12760,"sangu":12761,"sagesse":12762,"adults":12763,"thesis":12764,"consumption":12765,"réussir":12766,"valuable":12767,"ränk":12768,"organs":12769,"gravité":12770,"toilettes":12771,"Tausende":12772,"notwendig":12773,"Quadrat":12774,"dialogue":12775,"réchauffement":12776,"adult":12777,"Bein":12778,"Fi":12779,"Fal":12780,"Gi":12781,"Girl":12782,"GDP":12783,"Rat":12784,"SD":12785,"Train":12786,"bug":12787,"cend":12788,"tire":12789,"yesterday":12790,"éduc":12791,"enem":12792,"até":12793,"atoren":12794,"ardo":12795,"teeth":12796,"auteur":12797,"utze":12798,"maker":12799,"plo":12800,"conclu":12801,"configur":12802,"déf":12803,"sensible":12804,"cheval":12805,"resist":12806,"Sole":12807,"ktoren":12808,"portent":12809,"Rechen":12810,"apporte":12811,"izer":12812,"volunte":12813,"1900":12814,"alisés":12815,"Wellen":12816,"Trotz":12817,"Moore":12818,"jouent":12819,"Geräusch":12820,"businesses":12821,"religiö":12822,"variation":12823,"pousse":12824,"Bereiche":12825,"21st":12826,"Bewegungen":12827,"verbindet":12828,"fondamentalement":12829,"maximum":12830,"nützlich":12831,"Geheimnis":12832,"require":12833,"roughly":12834,"Please":12835,"déjeuner":12836,"Nick":12837,"Roh":12838,"acou":12839,"fellow":12840,"host":12841,"nies":12842,"éti":12843,"électro":12844,"ery":12845,"onge":12846,"ouest":12847,"reaction":12848,"reisen":12849,"aurez":12850,"tops":12851,"gewissen":12852,"gehören":12853,"pray":12854,"diet":12855,"neut":12856,"dennoch":12857,"heisst":12858,"composition":12859,"cting":12860,"opter":12861,"rix":12862,"chefs":12863,"emmener":12864,"worried":12865,"angles":12866,"herein":12867,"obacht":12868,"ibung":12869,"Dass":12870,"shap":12871,"Anteil":12872,"ätzen":12873,"anded":12874,"drück":12875,"brach":12876,"dames":12877,"langweil":12878,"placed":12879,"Absol":12880,"blocks":12881,"sprachen":12882,"totale":12883,"axe":12884,"attach":12885,"cutting":12886,"experienced":12887,"Autom":12888,"concert":12889,"status":12890,"Augenblick":12891,"Indus":12892,"Grafik":12893,"White":12894,"spécif":12895,"Andere":12896,"terrorisme":12897,"étonnant":12898,"refus":12899,"Australia":12900,"Katastrop":12901,"Elefant":12902,"beinhal":12903,"requires":12904,"Anyway":12905,"Maßstab":12906,"Business":12907,"Vögel":12908,"Jusqu":12909,"Folgendes":12910,"processes":12911,"compétition":12912,"kennung":12913,"advanced":12914,"automobile":12915,"beispiel":12916,"Andrew":12917,"Gegensatz":12918,"Dok":12919,"Eli":12920,"Fett":12921,"Mande":12922,"Nutz":12923,"Seine":12924,"Sens":12925,"lée":12926,"oire":12927,"sparen":12928,"vital":12929,"échange":12930,"annehmen":12931,"thétique":12932,"quas":12933,"quette":12934,"alphab":12935,"ands":12936,"toler":12937,"lady":12938,"beige":12939,"traut":12940,"verein":12941,"verbr":12942,"verteilt":12943,"neath":12944,"prove":12945,"réal":12946,"réve":12947,"mented":12948,"illness":12949,"admit":12950,"ologist":12951,"syl":12952,"ignent":12953,"marriage":12954,"jeter":12955,"miracle":12956,"visibles":12957,"attitude":12958,"offic":12959,"nombres":12960,"Kongress":12961,"devaient":12962,"Entfern":12963,"tours":12964,"tourné":12965,"airs":12966,"omente":12967,"freu":12968,"bereiten":12969,"saison":12970,"Dame":12971,"économies":12972,"Gehirne":12973,"horse":12974,"seitdem":12975,"géo":12976,"affected":12977,"Spielen":12978,"europé":12979,"facteurs":12980,"definieren":12981,"palu":12982,"similaires":12983,"augmenté":12984,"kurzem":12985,"gewöhnlich":12986,"Hotel":12987,"considered":12988,"battery":12989,"Irgend":12990,"carrying":12991,"Alexander":12992,"erwähnt":12993,"déterminer":12994,"vague":12995,"circulation":12996,"Silicon":12997,"liquid":12998,"öpfe":12999,"extinction":13000,"emissions":13001,"handicap":13002,"Dinosaurier":13003,"Henry":13004,"hallucin":13005,"Deutschland":13006,"acoust":13007,"130":13008,"43":13009,"44":13010,"Fliegen":13011,"Hinsicht":13012,"Rätsel":13013,"bors":13014,"foun":13015,"nellement":13016,"sper":13017,"til":13018,"änen":13019,"édu":13020,"esch":13021,"chers":13022,"apor":13023,"recor":13024,"armen":13025,"illa":13026,"triste":13027,"verts":13028,"schalten":13029,"kehrt":13030,"agre":13031,"sentez":13032,"emb":13033,"Leur":13034,"önt":13035,"centim":13036,"clou":13037,"preis":13038,"solch":13039,"mets":13040,"wahre":13041,"intérê":13042,"curious":13043,"Six":13044,"setzte":13045,"geschlagen":13046,"testing":13047,"publicité":13048,"essayant":13049,"immig":13050,"singen":13051,"highest":13052,"frontal":13053,"odeur":13054,"banque":13055,"driver":13056,"ballon":13057,"Buchst":13058,"Gemeinden":13059,"Fehl":13060,"connecté":13061,"football":13062,"Viren":13063,"conflits":13064,"Freundin":13065,"increasing":13066,"hospit":13067,"wartung":13068,"schwarze":13069,"übrig":13070,"initiative":13071,"déclen":13072,"exercise":13073,"dunkle":13074,"souvenirs":13075,"aufregend":13076,"administration":13077,"intérêts":13078,"72":13079,"AA":13080,"Kabel":13081,"Moi":13082,"Mike":13083,"Narr":13084,"Py":13085,"Since":13086,"blichkeit":13087,"cameras":13088,"laugh":13089,"oon":13090,"ooh":13091,"psy":13092,"pared":13093,"rann":13094,"Ägy":13095,"çait":13096,"ômes":13097,"anwenden":13098,"reux":13099,"unabhängig":13100,"atar":13101,"toit":13102,"abond":13103,"isters":13104,"makers":13105,"parole":13106,"conven":13107,"amt":13108,"youn":13109,"sugar":13110,"résolution":13111,"empty":13112,"Sogar":13113,"acquis":13114,"auxquels":13115,"getr":13116,"ints":13117,"breath":13118,"directeur":13119,"underneath":13120,"2030":13121,"jahr":13122,"prescri":13123,"strang":13124,"Mail":13125,"Zuhause":13126,"citation":13127,"Malheureusement":13128,"effekt":13129,"croyons":13130,"fonctionnement":13131,"attaque":13132,"fuge":13133,"sexual":13134,"vitable":13135,"camps":13136,"donnez":13137,"affich":13138,"possibilities":13139,"pollin":13140,"combinaison":13141,"cosm":13142,"description":13143,"souffr":13144,"beobachtet":13145,"clock":13146,"vivants":13147,"Rechts":13148,"toxic":13149,"Schlaf":13150,"véhicule":13151,"Vorteil":13152,"établir":13153,"weapons":13154,"Medikament":13155,"Middle":13156,"Shakespeare":13157,"Jem":13158,"Ost":13159,"Ret":13160,"TB":13161,"Vi":13162,"cere":13163,"dres":13164,"dots":13165,"hut":13166,"ji":13167,"kolog":13168,"nér":13169,"tissus":13170,"erscheint":13171,"thur":13172,"legte":13173,"def":13174,"tocin":13175,"vergangen":13176,"vermitteln":13177,"absur":13178,"mails":13179,"schizop":13180,"ffiz":13181,"réser":13182,"empre":13183,"ologue":13184,"Analy":13185,"Apollo":13186,"ideal":13187,"ordnet":13188,"cratique":13189,"troubles":13190,"média":13191,"drôle":13192,"bucks":13193,"transl":13194,"planes":13195,"tunnel":13196,"arrived":13197,"vélo":13198,"müssten":13199,"inning":13200,"Mitarbeiter":13201,"vertical":13202,"aturen":13203,"remplacer":13204,"feelings":13205,"university":13206,"demandent":13207,"investir":13208,"traditions":13209,"Bonjour":13210,"personnages":13211,"retire":13212,"commencez":13213,"Charlie":13214,"extraordinaires":13215,"Bedro":13216,"photographie":13217,"compagnies":13218,"angesch":13219,"nécessaires":13220,"drawing":13221,"komplexe":13222,"réussite":13223,"accepter":13224,"narrative":13225,"circum":13226,"Galaxie":13227,"intuition":13228,"contamin":13229,"générale":13230,"Viertel":13231,"spatial":13232,"houses":13233,"guerres":13234,"chemistry":13235,"Chemikalien":13236,"métaphore":13237,"Strategie":13238,"Soleil":13239,"Mandela":13240,"96":13241,"Fa":13242,"House":13243,"Jones":13244,"Lou":13245,"Power":13246,"Pfund":13247,"Wüste":13248,"Zwischen":13249,"Zahn":13250,"ki":13251,"raten":13252,"swert":13253,"tandis":13254,"wom":13255,"infirm":13256,"atre":13257,"arab":13258,"aliments":13259,"entends":13260,"gebeten":13261,"verbrauch":13262,"verbrachte":13263,"schéma":13264,"heißen":13265,"zufrieden":13266,"compren":13267,"dues":13268,"lifet":13269,"modé":13270,"suicide":13271,"persu":13272,"auspiel":13273,"aufgebaut":13274,"fewer":13275,"hers":13276,"disme":13277,"upper":13278,"poster":13279,"Stücke":13280,"Geschen":13281,"vieler":13282,"letters":13283,"soldiers":13284,"volutions":13285,"pairs":13286,"maintain":13287,"Zehn":13288,"betrieben":13289,"drüben":13290,"souvenez":13291,"Lebenser":13292,"sentiments":13293,"Vorher":13294,"ordinaire":13295,"Absicht":13296,"losing":13297,"invite":13298,"invité":13299,"Arbeiter":13300,"égal":13301,"travaillant":13302,"Blumen":13303,"Dabei":13304,"hauteur":13305,"sauber":13306,"Normal":13307,"schlechten":13308,"broke":13309,"étranger":13310,"Netzwerke":13311,"utilisez":13312,"enorme":13313,"Korruption":13314,"statistics":13315,"swim":13316,"installation":13317,"artificiel":13318,"Volk":13319,"détecter":13320,"blieb":13321,"schrecklich":13322,"relativement":13323,"epidemic":13324,"PIB":13325,"chaussures":13326,"Gleiche":13327,"Everest":13328,"spoke":13329,"lifetime":13330,"38":13331,"Blog":13332,"Gere":13333,"Letz":13334,"Pau":13335,"Spen":13336,"Tib":13337,"UV":13338,"aît":13339,"aigu":13340,"cune":13341,"drait":13342,"fleurs":13343,"kunden":13344,"sichtig":13345,"session":13346,"inject":13347,"beaux":13348,"verstand":13349,"aborder":13350,"negot":13351,"faibles":13352,"fordern":13353,"Allez":13354,"bling":13355,"besuchen":13356,"wobei":13357,"married":13358,"intes":13359,"gling":13360,"meter":13361,"minor":13362,"2012":13363,"190":13364,"klen":13365,"Moyen":13366,"Brücke":13367,"angeneh":13368,"TEDTalk":13369,"Stufe":13370,"effektiv":13371,"Kreu":13372,"rassembler":13373,"healthcare":13374,"drucken":13375,"quatrième":13376,"wachstum":13377,"kreis":13378,"privé":13379,"furcht":13380,"flogen":13381,"Moral":13382,"écoute":13383,"Japanese":13384,"practical":13385,"adulte":13386,"persönlichen":13387,"étoile":13388,"sandwich":13389,"beschäftigen":13390,"intellectual":13391,"Wolken":13392,"erkannt":13393,"vulnér":13394,"tiefer":13395,"Signale":13396,"fassung":13397,"Stammzellen":13398,"thaft":13399,"ächtnis":13400,"keeps":13401,"diagnostic":13402,"considère":13403,"Schimpansen":13404,"Satelliten":13405,"célébr":13406,"Echtzeit":13407,"quasiment":13408,"Jemand":13409,"350":13410,"46":13411,"DV":13412,"Nou":13413,"Peu":13414,"Ron":13415,"Rese":13416,"Russ":13417,"Val":13418,"karten":13419,"rhyth":13420,"État":13421,"äst":13422,"èche":13423,"œurs":13424,"chute":13425,"recycl":13426,"ieten":13427,"details":13428,"eline":13429,"stir":13430,"vertraut":13431,"icing":13432,"umgeben":13433,"lif":13434,"voire":13435,"fehl":13436,"accoun":13437,"ruf":13438,"nerveux":13439,"Schatten":13440,"icious":13441,"Anre":13442,"Anti":13443,"prepared":13444,"darstellen":13445,"liebt":13446,"Law":13447,"bases":13448,"hinten":13449,"ugel":13450,"technological":13451,"wendet":13452,"controll":13453,"Prop":13454,"devions":13455,"Nachdem":13456,"skill":13457,"springen":13458,"appliquer":13459,"Congrès":13460,"privile":13461,"enzy":13462,"shoes":13463,"behaviors":13464,"Folie":13465,"dealing":13466,"responsables":13467,"received":13468,"introduce":13469,"erstaunliche":13470,"associated":13471,"consommateurs":13472,"Tests":13473,"consumer":13474,"Erinnerungen":13475,"Potential":13476,"décennie":13477,"kitchen":13478,"karte":13479,"durchschnittliche":13480,"Zivilisation":13481,"âgées":13482,"Brasilien":13483,"Ganze":13484,"Live":13485,"Letzt":13486,"Momente":13487,"Pré":13488,"Skelet":13489,"rine":13490,"sser":13491,"étend":13492,"retraite":13493,"aska":13494,"audio":13495,"entstand":13496,"irdis":13497,"laver":13498,"meiste":13499,"beding":13500,"gegründet":13501,"dieu":13502,"deswegen":13503,"schriften":13504,"consult":13505,"ambit":13506,"provient":13507,"ienz":13508,"monitor":13509,"voices":13510,"Website":13511,"dispositif":13512,"shirt":13513,"vorzu":13514,"Verbesser":13515,"centers":13516,"Geographic":13517,"boite":13518,"rieure":13519,"Seattle":13520,"stellungen":13521,"standards":13522,"plante":13523,"utilisées":13524,"folks":13525,"morgens":13526,"complète":13527,"Existenz":13528,"thoughts":13529,"imming":13530,"immung":13531,"blogs":13532,"tombé":13533,"personnalité":13534,"affir":13535,"fantastisch":13536,"äusche":13537,"visuel":13538,"Chaos":13539,"considér":13540,"chimique":13541,"combination":13542,"opérations":13543,"roads":13544,"Fortsch":13545,"alimentation":13546,"conséquence":13547,"Führer":13548,"elektron":13549,"Belo":13550,"Risiken":13551,"zerstören":13552,"substance":13553,"gruppen":13554,"majeure":13555,"Wohlstand":13556,"components":13557,"spüren":13558,"Sahara":13559,"Hilfs":13560,"lutte":13561,"chromosome":13562,"spectrum":13563,"Stärke":13564,"Wahrnehmung":13565,"Jesus":13566,"paludisme":13567,"Ly":13568,"Squ":13569,"Zerst":13570,"pent":13571,"étro":13572,"endet":13573,"iein":13574,"thek":13575,"stums":13576,"hro":13577,"formal":13578,"hafte":13579,"sieurs":13580,"admir":13581,"überprü":13582,"vorne":13583,"Armen":13584,"hierher":13585,"wirklichen":13586,"vaisse":13587,"thanol":13588,"dienst":13589,"ützt":13590,"fié":13591,"risks":13592,"spruch":13593,"carefully":13594,"holfen":13595,"Congress":13596,"fantas":13597,"Fälle":13598,"kreieren":13599,"journaux":13600,"qualität":13601,"vitation":13602,"siège":13603,"Febru":13604,"chanter":13605,"roskop":13606,"Diplom":13607,"bekannte":13608,"entdeckte":13609,"adapter":13610,"chimie":13611,"spécifique":13612,"maps":13613,"disparu":13614,"descendre":13615,"participants":13616,"Bestand":13617,"Nieder":13618,"ouverture":13619,"junger":13620,"cérébr":13621,"traumat":13622,"Signal":13623,"combine":13624,"précédent":13625,"énergétique":13626,"definitely":13627,"Craig":13628,"Pflege":13629,"Billionen":13630,"equipment":13631,"initial":13632,"Research":13633,"98":13634,"AI":13635,"Boy":13636,"Gro":13637,"Hem":13638,"Tab":13639,"Tief":13640,"brid":13641,"daten":13642,"hiver":13643,"hurt":13644,"leng":13645,"mim":13646,"tank":13647,"erstellt":13648,"anen":13649,"anor":13650,"anischen":13651,"atr":13652,"asso":13653,"orium":13654,"otte":13655,"theorie":13656,"sters":13657,"gefallen":13658,"dible":13659,"pron":13660,"verg":13661,"maman":13662,"parlant":13663,"parfaite":13664,"unex":13665,"lift":13666,"cible":13667,"civile":13668,"régl":13669,"agré":13670,"surround":13671,"frères":13672,"empr":13673,"worüber":13674,"angs":13675,"actors":13676,"spiele":13677,"venaient":13678,"Schritte":13679,"Arthur":13680,"centrale":13681,"Gegend":13682,"renou":13683,"rendez":13684,"ätter":13685,"compter":13686,"solcher":13687,"simult":13688,"betre":13689,"weile":13690,"transforme":13691,"transmission":13692,"gelie":13693,"Größen":13694,"biolumines":13695,"efficien":13696,"alisée":13697,"senti":13698,"fraction":13699,"fäll":13700,"fält":13701,"Stahl":13702,"processing":13703,"frontière":13704,"winden":13705,"primary":13706,"circul":13707,"puissions":13708,"équipement":13709,"inspiré":13710,"muster":13711,"folgende":13712,"schwieriger":13713,"rayons":13714,"feuilles":13715,"voisins":13716,"métal":13717,"Magnet":13718,"Metall":13719,"forestation":13720,"sérieusement":13721,"Elektro":13722,"iconque":13723,"threaten":13724,"relatively":13725,"hindert":13726,"versorgung":13727,"propriétés":13728,"discipline":13729,"couverture":13730,"afrikanischen":13731,"akzeptieren":13732,"specifically":13733,"AL":13734,"Brief":13735,"Camp":13736,"Damen":13737,"Five":13738,"Grippe":13739,"Hat":13740,"Hunde":13741,"Nu":13742,"Out":13743,"Zie":13744,"dite":13745,"gui":13746,"kogn":13747,"pher":13748,"tab":13749,"vages":13750,"édie":13751,"üse":13752,"enk":13753,"ermut":13754,"chner":13755,"anément":13756,"issements":13757,"lebe":13758,"lehr":13759,"iellen":13760,"stations":13761,"gewe":13762,"imple":13763,"sowas":13764,"ierungs":13765,"amas":13766,"lié":13767,"exposé":13768,"délic":13769,"dogs":13770,"stemen":13771,"warf":13772,"songs":13773,"accompag":13774,"bris":13775,"odd":13776,"ods":13777,"daily":13778,"Gehen":13779,"flower":13780,"riechen":13781,"viral":13782,"préoccup":13783,"travaux":13784,"homosex":13785,"Voyons":13786,"regul":13787,"explication":13788,"sets":13789,"News":13790,"Syl":13791,"engager":13792,"Afrikas":13793,"organism":13794,"bouge":13795,"axis":13796,"résistance":13797,"Minister":13798,"Sprach":13799,"mosquit":13800,"proteins":13801,"democratic":13802,"Bereichen":13803,"trials":13804,"aperçu":13805,"Südafri":13806,"terrorism":13807,"gründen":13808,"Ozeane":13809,"colonies":13810,"vaccine":13811,"Persön":13812,"stratég":13813,"Kerl":13814,"adolescents":13815,"savions":13816,"horizon":13817,"President":13818,"molecular":13819,"oublier":13820,"strength":13821,"crowd":13822,"réparer":13823,"magasin":13824,"Zuschauer":13825,"97":13826,"Hans":13827,"Jung":13828,"Lad":13829,"Rover":13830,"Wäl":13831,"Yet":13832,"Zero":13833,"aqu":13834,"bö":13835,"hide":13836,"ius":13837,"nungs":13838,"soft":13839,"wört":13840,"évalu":13841,"inne":13842,"isser":13843,"define":13844,"alous":13845,"auprès":13846,"sees":13847,"omin":13848,"ura":13849,"cependant":13850,"beziehen":13851,"vey":13852,"facial":13853,"suchte":13854,"ulen":13855,"répl":13856,"avoc":13857,"steuern":13858,"Lektion":13859,"mesures":13860,"angible":13861,"besitzt":13862,"vorzustellen":13863,"auton":13864,"placé":13865,"prefer":13866,"intent":13867,"passée":13868,"visages":13869,"matern":13870,"nets":13871,"ischem":13872,"tsun":13873,"planter":13874,"studieren":13875,"Trick":13876,"erties":13877,"anzös":13878,"existing":13879,"deln":13880,"Gebiete":13881,"computing":13882,"Ihres":13883,"welchem":13884,"burn":13885,"fahrer":13886,"midi":13887,"infected":13888,"1998":13889,"Milch":13890,"anchement":13891,"dynamic":13892,"estimate":13893,"selling":13894,"persönliche":13895,"Jahrzehnten":13896,"tâches":13897,"leistungen":13898,"Lasst":13899,"Mikroben":13900,"Cyber":13901,"Löcher":13902,"pierre":13903,"robust":13904,"Hawai":13905,"événement":13906,"Florida":13907,"pleasure":13908,"Fabrik":13909,"previous":13910,"Joshua":13911,"37":13912,"58":13913,"Bahn":13914,"Flie":13915,"IA":13916,"Lune":13917,"Male":13918,"Pho":13919,"Shir":13920,"Zy":13921,"dons":13922,"fische":13923,"gate":13924,"gée":13925,"kno":13926,"wachen":13927,"itern":13928,"legend":13929,"leuchten":13930,"gebraucht":13931,"icale":13932,"umge":13933,"rières":13934,"Inspir":13935,"blement":13936,"Alaska":13937,"Beim":13938,"Versor":13939,"Verbrauch":13940,"ikel":13941,"musul":13942,"garage":13943,"brev":13944,"mini":13945,"bubble":13946,"longues":13947,"properties":13948,"fäh":13949,"Ausstellung":13950,"landen":13951,"regions":13952,"politicians":13953,"Moz":13954,"sample":13955,"krise":13956,"bataille":13957,"recul":13958,"beschloss":13959,"Werbung":13960,"figures":13961,"architectes":13962,"Gemäl":13963,"extraire":13964,"privée":13965,"Gemeinschaften":13966,"Chemie":13967,"Kenned":13968,"représentation":13969,"release":13970,"beweisen":13971,"Zweck":13972,"Wirkung":13973,"schauten":13974,"Symmet":13975,"champs":13976,"Alternat":13977,"Australie":13978,"westlichen":13979,"verstehe":13980,"mécanisme":13981,"manipul":13982,"lustig":13983,"baisse":13984,"Operation":13985,"blieben":13986,"gravity":13987,"combust":13988,"partenaires":13989,"Märkte":13990,"represents":13991,"ancestors":13992,"Dimensionen":13993,"puzzle":13994,"Drucker":13995,"réflexion":13996,"Kombination":13997,"Definition":13998,"Ble":13999,"Cas":14000,"Cour":14001,"Fri":14002,"Fem":14003,"IBM":14004,"Kurs":14005,"categ":14006,"fleur":14007,"hst":14008,"spar":14009,"uba":14010,"ökolog":14011,"chante":14012,"thèses":14013,"apo":14014,"reci":14015,"recy":14016,"retrouve":14017,"reproduire":14018,"itra":14019,"assembl":14020,"ingre":14021,"usalem":14022,"allum":14023,"safet":14024,"sile":14025,"pourrons":14026,"projekt":14027,"surprenant":14028,"ured":14029,"Infe":14030,"Inhalt":14031,"Leon":14032,"obses":14033,"geschn":14034,"Schauspiel":14035,"phants":14036,"Beweise":14037,"foi":14038,"poem":14039,"plays":14040,"kannte":14041,"mainten":14042,"wäl":14043,"buying":14044,"croit":14045,"aks":14046,"créée":14047,"wirkliche":14048,"transpar":14049,"utilisateurs":14050,"string":14051,"frais":14052,"nieder":14053,"Force":14054,"falling":14055,"Merk":14056,"sensitive":14057,"Perhaps":14058,"charger":14059,"Ohne":14060,"funktionierte":14061,"Überrasch":14062,"primé":14063,"Stephen":14064,"physic":14065,"variations":14066,"tagne":14067,"représenter":14068,"transportation":14069,"infections":14070,"1999":14071,"isticated":14072,"Korallen":14073,"étendre":14074,"exploitation":14075,"attraper":14076,"inférie":14077,"flowers":14078,"hydrogen":14079,"mécanique":14080,"traitements":14081,"mächtig":14082,"sophisticated":14083,"quarter":14084,"Wesentlichen":14085,"üstung":14086,"obstacles":14087,"employees":14088,"Taliban":14089,"dinosaures":14090,"chimpanzés":14091,"eindeutig":14092,"recorded":14093,"DVD":14094,"safety":14095,"Eisen":14096,"June":14097,"Jac":14098,"Samen":14099,"Ted":14100,"fying":14101,"öpf":14102,"chester":14103,"ieuses":14104,"arc":14105,"alé":14106,"entgegen":14107,"etten":14108,"oly":14109,"weich":14110,"ndrome":14111,"schlossen":14112,"ctic":14113,"oport":14114,"exprimer":14115,"ulteurs":14116,"sending":14117,"illir":14118,"edy":14119,"advent":14120,"added":14121,"noon":14122,"accent":14123,"essions":14124,"finish":14125,"Unfall":14126,"komm":14127,"August":14128,"solved":14129,"carré":14130,"worldwide":14131,"Sea":14132,"aking":14133,"however":14134,"transfer":14135,"langfrist":14136,"culaires":14137,"goods":14138,"cycles":14139,"signs":14140,"probabilité":14141,"publics":14142,"arium":14143,"montrant":14144,"trains":14145,"weitern":14146,"boute":14147,"beschrieben":14148,"singing":14149,"théâtre":14150,"entendez":14151,"générer":14152,"proposition":14153,"élections":14154,"baute":14155,"Harry":14156,"detect":14157,"Programme":14158,"spectacle":14159,"Helden":14160,"Paar":14161,"mathematical":14162,"Papa":14163,"fascinant":14164,"seltsam":14165,"Tasman":14166,"occupe":14167,"Proteine":14168,"conseil":14169,"espérons":14170,"manufacturing":14171,"anticip":14172,"städt":14173,"newspaper":14174,"maîtr":14175,"Schwierigkeiten":14176,"explanation":14177,"Watson":14178,"beinhaltet":14179,"Baus":14180,"Cur":14181,"DR":14182,"Esp":14183,"Lester":14184,"Med":14185,"Nair":14186,"Pingu":14187,"Ram":14188,"Wi":14189,"bam":14190,"cieux":14191,"rans":14192,"uum":14193,"yl":14194,"yan":14195,"enix":14196,"envoie":14197,"chiens":14198,"atic":14199,"assemble":14200,"derer":14201,"meurs":14202,"trol":14203,"traur":14204,"trinken":14205,"verblü":14206,"users":14207,"plätze":14208,"sacre":14209,"whel":14210,"forcer":14211,"sucre":14212,"gres":14213,"stehe":14214,"reser":14215,"adis":14216,"Lewis":14217,"pendence":14218,"rug":14219,"obos":14220,"blauen":14221,"Schließ":14222,"Ungleich":14223,"utete":14224,"getragen":14225,"Environ":14226,"Entrop":14227,"porté":14228,"centaine":14229,"ients":14230,"étation":14231,"boden":14232,"Tech":14233,"miroir":14234,"untersucht":14235,"coral":14236,"Früh":14237,"zusätz":14238,"environments":14239,"border":14240,"factors":14241,"Herren":14242,"frem":14243,"graphiques":14244,"Staats":14245,"zählt":14246,"designs":14247,"ski":14248,"weiße":14249,"interests":14250,"applied":14251,"innovative":14252,"quantum":14253,"implique":14254,"copie":14255,"facteur":14256,"großartigen":14257,"Finalement":14258,"voisin":14259,"épais":14260,"wärmung":14261,"photographs":14262,"Kulturen":14263,"virtuelle":14264,"grünen":14265,"Brad":14266,"sticks":14267,"punkte":14268,"Potenz":14269,"Mehrheit":14270,"naturellement":14271,"mud":14272,"occurred":14273,"veränderte":14274,"convinced":14275,"schlafen":14276,"prostate":14277,"Erfindung":14278,"Stattdessen":14279,"pointed":14280,"sacrif":14281,"Buchstaben":14282,"bouteille":14283,"Abst":14284,"Cr":14285,"Emot":14286,"Fait":14287,"Kla":14288,"Kong":14289,"Mom":14290,"Ohren":14291,"Pitt":14292,"Top":14293,"chip":14294,"choc":14295,"repar":14296,"repas":14297,"ledig":14298,"degré":14299,"elimin":14300,"descen":14301,"mack":14302,"height":14303,"soviel":14304,"ansieht":14305,"haften":14306,"roit":14307,"liest":14308,"exter":14309,"aufnehmen":14310,"grau":14311,"cesse":14312,"téles":14313,"Leider":14314,"anget":14315,"pengu":14316,"shoul":14317,"Geistes":14318,"trafen":14319,"whenever":14320,"ultural":14321,"assistance":14322,"Only":14323,"controlled":14324,"wareness":14325,"realen":14326,"magique":14327,"mises":14328,"scared":14329,"Träume":14330,"normalement":14331,"cinéma":14332,"organisieren":14333,"ouverte":14334,"submer":14335,"holds":14336,"suivent":14337,"individuelle":14338,"Spann":14339,"burger":14340,"agenda":14341,"stattdessen":14342,"entertain":14343,"verkauf":14344,"watched":14345,"Kenia":14346,"protéine":14347,"ständen":14348,"reached":14349,"hôpit":14350,"ingénieur":14351,"fondamental":14352,"increased":14353,"Australien":14354,"modifier":14355,"Damals":14356,"mountains":14357,"faszinierend":14358,"intégrer":14359,"apporté":14360,"panneaux":14361,"analysis":14362,"récupérer":14363,"encein":14364,"Hunger":14365,"Zitat":14366,"Links":14367,"systemat":14368,"Restaurant":14369,"bibliothèque":14370,"Phase":14371,"Fortschritte":14372,"Emotionen":14373,"hôpitaux":14374,"Lungen":14375,"Lern":14376,"Moder":14377,"Opt":14378,"Such":14379,"aï":14380,"belt":14381,"cig":14382,"hof":14383,"nchen":14384,"zeln":14385,"ergibt":14386,"erweitern":14387,"thick":14388,"oux":14389,"oust":14390,"itzer":14391,"arf":14392,"entfernen":14393,"geomet":14394,"verdam":14395,"igern":14396,"schme":14397,"compromis":14398,"peurs":14399,"ctur":14400,"param":14401,"berichten":14402,"modes":14403,"permission":14404,"extension":14405,"ultime":14406,"anniver":14407,"dok":14408,"serons":14409,"wars":14410,"coupe":14411,"empower":14412,"zeigten":14413,"übernehmen":14414,"Beach":14415,"cers":14416,"interactive":14417,"ardons":14418,"format":14419,"Republic":14420,"Gesichter":14421,"cherch":14422,"liefern":14423,"hnte":14424,"précision":14425,"speziellen":14426,"overwhel":14427,"Chancen":14428,"graphis":14429,"Mondiale":14430,"nuage":14431,"présenté":14432,"oreilles":14433,"tenter":14434,"lums":14435,"häus":14436,"collision":14437,"industries":14438,"honte":14439,"unglaublichen":14440,"siècles":14441,"appears":14442,"excitant":14443,"fabriqué":14444,"Süden":14445,"baleines":14446,"exploit":14447,"verwandelt":14448,"Symbol":14449,"Sternen":14450,"installations":14451,"knapp":14452,"héritage":14453,"victims":14454,"véritablement":14455,"artistique":14456,"inspire":14457,"panneau":14458,"Betracht":14459,"Anwendung":14460,"pourcentage":14461,"Kontinent":14462,"carburant":14463,"débarras":14464,"Kennedy":14465,"900":14466,"Ali":14467,"Bö":14468,"Bir":14469,"Gute":14470,"Laut":14471,"Tok":14472,"WK":14473,"dî":14474,"gun":14475,"mant":14476,"odes":14477,"tall":14478,"wil":14479,"enrich":14480,"inher":14481,"incar":14482,"thème":14483,"itarian":14484,"toile":14485,"prat":14486,"schlau":14487,
[...]
