{"version":"1.0","truncation":null,"padding":null,"added_tokens":[{"id":0,"special":true,"content":"[MASK]","single_word":false,"lstrip":false,"rstrip":false,"normalized":false},{"id":1,"special":true,"content":"[CLS]","single_word":false,"lstrip":false,"rstrip":false,"normalized":false},{"id":2,"special":true,"content":"[SEP]","single_word":false,"lstrip":false,"rstrip":false,"normalized":false},{"id":3,"special":true,"content":"[PAD]","single_word":false,"lstrip":false,"rstrip":false,"normalized":false},{"id":4,"special":true,"content":"[UNK]","single_word":false,"lstrip":false,"rstrip":false,"normalized":false},{"id":5,"special":true,"content":"[en]","single_word":false,"lstrip":false,"rstrip":false,"normalized":false},{"id":6,"special":true,"content":"[fr]","single_word":false,"lstrip":false,"rstrip":false,"normalized":false},{"id":7,"special":true,"content":"[de]","single_word":false,"lstrip":false,"rstrip":false,"normalized":false}],"normalizer":null,"pre_tokenizer":{"type":"Whitespace"},"post_processor":{"type":"TemplateProcessing","single":[{"SpecialToken":{"id":"[CLS]","type_id":0}},{"Sequence":{"id":"A","type_id":0}},{"SpecialToken":{"id":"[SEP]","type_id":0}}],"pair":[{"SpecialToken":{"id":"[CLS]","type_id":0}},{"Sequence":{"id":"A","type_id":0}},{"SpecialToken":{"id":"[SEP]","type_id":0}},{"Sequence":{"id":"B","type_id":1}},{"SpecialToken":{"id":"[SEP]","type_id":1}}],"special_tokens":{"[CLS]":{"id":"[CLS]","ids":[1],"tokens":["[CLS]"]},"[SEP]":{"id":"[SEP]","ids":[2],"tokens":["[SEP]"]}}},"decoder":null,"model":{"type":"BPE","dropout":null,"unk_token":"[UNK]","continuing_subword_prefix":null,"end_of_word_suffix":null,"fuse_unk":false,"vocab":{"[MASK]":0,"[CLS]":1,"[SEP]":2,"[PAD]":3,"[UNK]":4,"[en]":5,"[fr]":6,"[de]":7,"!":8,"\"":9,"#":10,"$":11,"%":12,"&":13,"'":14,"(":15,")":16,"*":17,"+":18,",":19,"-":20,".":21,"/":22,"0":23,"1":24,"2":25,"3":26,"4":27,"5":28,"6":29,"7":30,"8":31,"9":32,":":33,";":34,"<":35,"=":36,">":37,"?":38,"@":39,"A":40,"B":41,"C":42,"D":43,"E":44,"F":45,"G":46,"H":47,"I":48,"J":49,"K":50,"L":51,"M":52,"N":53,"O":54,"P":55,"Q":56,"R":57,"S":58,"T":59,"U":60,"V":61,"W":62,"X":63,"Y":64,"Z":65,"[":66,"\\":67,"]":68,"^":69,"_":70,"`":71,"a":72,"b":73,"c":74,"d":75,"e":76,"f":77,"g":78,"h":79,"i":80,"j":81,"k":82,"l":83,"m":84,"n":85,"o":86,"p":87,"q":88,"r":89,"s":90,"t":91,"u":92,"v":93,"w":94,"x":95,"y":96,"z":97,"{":98,"}":99,"~":100,"":101,"":102,"":103,"":104,"":105,"":106,"":107,"":108,"":109,"":110,"":111,"":112,"":113,"":114,"":115,"":116,"":117,"":118,"":119,"":120,"":121,"":122,"":123,"":124,"":125,"":126,"":127,"":128,"":129,"¡":130,"¢":131,"£":132,"¤":133,"¥":134,"¦":135,"§":136,"¨":137,"©":138,"ª":139,"«":140,"¬":141,"­":142,"®":143,"¯":144,"°":145,"±":146,"²":147,"³":148,"´":149,"µ":150,"¶":151,"·":152,"¸":153,"¹":154,"º":155,"»":156,"¼":157,"½":158,"¾":159,"¿":160,"À":161,"Á":162,"Â":163,"Ã":164,"Ä":165,"Å":166,"Æ":167,"Ç":168,"È":169,"É":170,"Ê":171,"Ë":172,"Ì":173,"Í":174,"Î":175,"Ï":176,"Ð":177,"Ñ":178,"Ò":179,"Ó":180,"Ô":181,"Õ":182,"Ö":183,"×":184,"Ø":185,"Ù":186,"Ú":187,"Û":188,"Ü":189,"Ý":190,"Þ":191,"ß":192,"à":193,"á":194,"â":195,"ã":196,"ä":197,"å":198,"æ":199,"ç":200,"è":201,"é":202,"ê":203,"ë":204,"ì":205,"í":206,"î":207,"ï":208,"ð":209,"ñ":210,"ò":211,"ó":212,"ô":213,"õ":214,"ö":215,"÷":216,"ø":217,"ù":218,"ú":219,"û":220,"ü":221,"ý":222,"þ":223,"ÿ":224,"Ā":225,"ā":226,"Ă":227,"ă":228,"Ą":229,"ą":230,"Ć":231,"ć":232,"ĉ":233,"Ċ":234,"ċ":235,"Č":236,"č":237,"Ď":238,"ď":239,"Đ":240,"đ":241,"Ē":242,"ē":243,"Ĕ":244,"ĕ":245,"Ė":246,"ė":247,"ę":248,"Ě":249,"ě":250,"Ĝ":251,"ĝ":252,"Ğ":253,"ğ":254,"Ġ":255,"ġ":256,"Ģ":257,"ģ":258,"ĥ":259,"Ħ":260,"ħ":261,"ĩ":262,"Ī":263,"ī":264,"ĭ":265,"į":266,"İ":267,"ı":268,"Ķ":269,"ķ":270,"ĺ":271,"ļ":272,"Ľ":273,"ľ":274,"Ŀ":275,"Ł":276,"ł":277,"Ń":278,"ń":279,"ņ":280,"ň":281,"ŋ":282,"Ō":283,"ō":284,"ŏ":285,"Ő":286,"ő":287,"Œ":288,"œ":289,"ŕ":290,"Ř":291,"ř":292,"Ś":293,"ś":294,"ŝ":295,"Ş":296,"ş":297,"Š":298,"š":299,"Ţ":300,"ţ":301,"Ť":302,"ť":303,"ũ":304,"Ū":305,"ū":306,"ŭ":307,"ů":308,"Ű":309,"ű":310,"ų":311,"Ŷ":312,"Ÿ":313,"Ź":314,"ź":315,"Ż":316,"ż":317,"Ž":318,"ž":319,"ƒ":320,"ơ":321,"ư":322,"ƹ":323,"ǁ":324,"ǃ":325,"ǎ":326,"ǐ":327,"ǒ":328,"ǔ":329,"ǚ":330,"Ǧ":331,"ǫ":332,"ǯ":333,"Ǻ":334,"Ș":335,"ș":336,"Ț":337,"ț":338,"ȣ":339,"ɑ":340,"ɒ":341,"ɔ":342,"ɖ":343,"ɗ":344,"ə":345,"ɛ":346,"ɪ":347,"ɹ":348,"ɾ":349,"ʀ":350,"ʊ":351,"ʏ":352,"ʔ":353,"ʲ":354,"ʷ":355,"ʹ":356,"ʻ":357,"ʼ":358,"ʾ":359,"ʿ":360,"ˆ":361,"ˇ":362,"ˈ":363,"ˊ":364,"ˌ":365,"ː":366,"˘":367,"˚":368,"˜":369,"˝":370,"́":371,"̇":372,"̈":373,"̊":374,"̌":375,"̏":376,"̨":377,"̶":378,"΄":379,"Ά":380,"·":381,"Έ":382,"Ή":383,"Ί":384,"Ό":385,"Ύ":386,"Ώ":387,"ΐ":388,"Α":389,"Β":390,"Γ":391,"Δ":392,"Ε":393,"Ζ":394,"Η":395,"Θ":396,"Ι":397,"Κ":398,"Λ":399,"Μ":400,"Ν":401,"Ξ":402,"Ο":403,"Π":404,"Ρ":405,"Σ":406,"Τ":407,"Υ":408,"Φ":409,"Χ":410,"Ψ":411,"Ω":412,"Ϋ":413,"ά":414,"έ":415,"ή":416,"ί":417,"ΰ":418,"α":419,"β":420,"γ":421,"δ":422,"ε":423,"ζ":424,"η":425,"θ":426,"ι":427,"κ":428,"λ":429,"μ":430,"ν":431,"ξ":432,"ο":433,"π":434,"ρ":435,"ς":436,"σ":437,"τ":438,"υ":439,"φ":440,"χ":441,"ψ":442,"ω":443,"ϊ":444,"ϋ":445,"ό":446,"ύ":447,"ώ":448,"ϑ":449,"ϒ":450,"Ё":451,"Ђ":452,"Ѕ":453,"І":454,"Ў":455,"Џ":456,"А":457,"Б":458,"В":459,"Г":460,"Д":461,"Е":462,"Ж":463,"З":464,"И":465,"Й":466,"К":467,"Л":468,"М":469,"Н":470,"О":471,"П":472,"Р":473,"С":474,"Т":475,"У":476,"Ф":477,"Х":478,"Ц":479,"Ч":480,"Ш":481,"Щ":482,"Ъ":483,"Ы":484,"Ь":485,"Э":486,"Ю":487,"Я":488,"а":489,"б":490,"в":491,"г":492,"д":493,"е":494,"ж":495,"з":496,"и":497,"й":498,"к":499,"л":500,"м":501,"н":502,"о":503,"п":504,"р":505,"с":506,"т":507,"у":508,"ф":509,"х":510,"ц":511,"ч":512,"ш":513,"щ":514,"ъ":515,"ы":516,"ь":517,"э":518,"ю":519,"я":520,"ё":521,"є":522,"ѕ":523,"і":524,"ї":525,"ј":526,"љ":527,"њ":528,"ћ":529,"ў":530,"џ":531,"Җ":532,"җ":533,"қ":534,"ҧ":535,"Ҫ":536,"ҫ":537,"һ":538,"ӓ":539,"ә":540,"ӧ":541,"Ա":542,"Դ":543,"Է":544,"Լ":545,"Խ":546,"Յ":547,"Ն":548,"Չ":549,"Ս":550,"Օ":551,"Ֆ":552,"ա":553,"բ":554,"գ":555,"դ":556,"ե":557,"է":558,"ը":559,"թ":560,"ի":561,"լ":562,"խ":563,"ծ":564,"կ":565,"հ":566,"ղ":567,"մ":568,"յ":569,"ն":570,"ո":571,"պ":572,"ս":573,"վ":574,"տ":575,"ր":576,"ց":577,"ւ":578,"ք":579,"և":580,"ְ":581,"ֲ":582,"ִ":583,"ֵ":584,"ֶ":585,"ַ":586,"ָ":587,"ֹ":588,"ּ":589,"־":590,"ֿ":591,"ׁ":592,"א":593,"ב":594,"ג":595,"ד":596,"ה":597,"ו":598,"ז":599,"ח":600,"ט":601,"י":602,"כ":603,"ל":604,"ם":605,"מ":606,"ן":607,"נ":608,"ס":609,"ע":610,"ף":611,"פ":612,"צ":613,"ק":614,"ר":615,"ש":616,"ת":617,"،":618,"؟":619,"ء":620,"آ":621,"أ":622,"ؤ":623,"إ":624,"ئ":625,"ا":626,"ب":627,"ة":628,"ت":629,"ث":630,"ج":631,"ح":632,"خ":633,"د":634,"ذ":635,"ر":636,"ز":637,"س":638,"ش":639,"ص":640,"ض":641,"ط":642,"ظ":643,"ع":644,"غ":645,"ـ":646,"ف":647,"ق":648,"ك":649,"ل":650,"م":651,"ن":652,"ه":653,"و":654,"ى":655,"ي":656,"ً":657,"َ":658,"ُ":659,"ِ":660,"ّ":661,"ْ":662,"٠":663,"١":664,"٢":665,"٣":666,"٥":667,"٦":668,"٩":669,"٪":670,"ٱ":671,"ٹ":672,"پ":673,"چ":674,"ډ":675,"ژ":676,"ک":677,"ھ":678,"ہ":679,"ۇ":680,"ی":681,"ې":682,"ە":683,"۱":684,"۸":685,"۹":686,"ँ":687,"ं":688,"ः":689,"अ":690,"आ":691,"इ":692,"ई":693,"उ":694,"ऊ":695,"ए":696,"ऐ":697,"ऑ":698,"ओ":699,"औ":700,"क":701,"ख":702,"ग":703,"घ":704,"च":705,"छ":706,"ज":707,"झ":708,"ञ":709,"ट":710,"ठ":711,"ड":712,"ढ":713,"ण":714,"त":715,"थ":716,"द":717,"ध":718,"न":719,"प":720,"फ":721,"ब":722,"भ":723,"म":724,"य":725,"र":726,"ल":727,"व":728,"श":729,"ष":730,"स":731,"ह":732,"़":733,"ा":734,"ि":735,"ी":736,"ु":737,"ू":738,"ृ":739,"े":740,"ै":741,"ॉ":742,"ो":743,"ौ":744,"्":745,"फ़":746,"।":747,"ং":748,"অ":749,"উ":750,"এ":751,"ক":752,"জ":753,"ত":754,"দ":755,"প":756,"ব":757,"ম":758,"য":759,"র":760,"ষ":761,"়":762,"া":763,"ী":764,"ে":765,"ো":766,"্":767,"੬":768,"க":769,"ந":770,"ன":771,"ற":772,"ா":773,"ி":774,"ு":775,"்":776,"ం":777,"ద":778,"బ":779,"శ":780,"్":781,"ಂ":782,"ಖ":783,"ಗ":784,"ಟ":785,"ಡ":786,"ದ":787,"ನ":788,"ಪ":789,"ಫ":790,"ಬ":791,"ಮ":792,"ರ":793,"ಸ":794,"ಿ":795,"ು":796,"ೆ":797,"ೋ":798,"್":799,"ം":800,"അ":801,"മ":802,"യ":803,"ല":804,"ള":805,"ാ":806,"്":807,"ං":808,"අ":809,"ක":810,"ග":811,"ඟ":812,"ට":813,"න":814,"ප":815,"ය":816,"ර":817,"ල":818,"ව":819,"හ":820,"්":821,"ා":822,"ි":823,"ු":824,"฀":825,"ก":826,"ข":827,"ค":828,"ง":829,"จ":830,"ฉ":831,"ช":832,"ซ":833,"ญ":834,"ณ":835,"ด":836,"ต":837,"ถ":838,"ท":839,"ธ":840,"น":841,"บ":842,"ป":843,"พ":844,"ฟ":845,"ภ":846,"ม":847,"ย":848,"ร":849,"ล":850,"ว":851,"ศ":852,"ส":853,"ห":854,"อ":855,"ะ":856,"ั":857,"า":858,"ำ":859,"ิ":860,"ี":861,"ึ":862,"ื":863,"ุ":864,"ู":865,"เ":866,"แ":867,"โ":868,"ใ":869,"ไ":870,"ๆ":871,"็":872,"่":873,"้":874,"์":875,"ກ":876,"ຂ":877,"ງ":878,"ນ":879,"ພ":880,"ລ":881,"ວ":882,"ສ":883,"ອ":884,"ຮ":885,"າ":886,"ູ":887,"ົ":888,"ຽ":889,"ເ":890,"ແ":891,"້":892,"ໜ":893,"က":894,"ခ":895,"င":896,"ဆ":897,"တ":898,"န":899,"ပ":900,"မ":901,"လ":902,"သ":903,"အ":904,"ာ":905,"ိ":906,"ီ":907,"ေ":908,"ဲ":909,"း":910,"်":911,"ျ":912,"ြ":913,"Ⴃ":914,"ა":915,"ბ":916,"გ":917,"დ":918,"ე":919,"ვ":920,"ზ":921,"თ":922,"ი":923,"კ":924,"მ":925,"ნ":926,"ო":927,"რ":928,"ს":929,"ტ":930,"უ":931,"ფ":932,"ქ":933,"შ":934,"ჩ":935,"წ":936,"ხ":937,"ჯ":938,"ჰ":939,"ሃ":940,"ሊ":941,"መ":942,"ማ":943,"ር":944,"ሸ":945,"ሻ":946,"ኔ":947,"ኛ":948,"አ":949,"ክ":950,"ዳ":951,"Ꭶ":952,"Ꮹ":953,"ᙦ":954,"ក":955,"ជ":956,"ដ":957,"ណ":958,"យ":959,"រ":960,"ល":961,"វ":962,"ហ":963,"អ":964,"ា":965,"ិ":966,"ើ":967,"្":968,"ᵒ":969,"ḗ":970,"Ḥ":971,"ḥ":972,"Ḩ":973,"ḩ":974,"Ḫ":975,"ḫ":976,"Ḱ":977,"ḱ":978,"ḳ":979,"Ḵ":980,"ṅ":981,"ṇ":982,"ṕ":983,"ṛ":984,"ṟ":985,"ṣ":986,"Ṭ":987,"ṭ":988,"ṯ":989,"Ẁ":990,"ẖ":991,"ạ":992,"ả":993,"ấ":994,"ầ":995,"ậ":996,"ắ":997,"ế":998,"ễ":999,"ệ":1000,"ị":1001,"ọ":1002,"ố":1003,"ồ":1004,"ộ":1005,"ớ":1006,"ờ":1007,"ủ":1008,"ứ":1009,"ử":1010,"ữ":1011,"ự":1012,"ỳ":1013,"ἀ":1014,"Ἀ":1015,"ἐ":1016,"ἔ":1017,"ἰ":1018,"ὀ":1019,"ὁ":1020,"ᾶ":1021,"ῖ":1022,"ῦ":1023,"​":1024,"‌":1025,"‍":1026,"‎":1027,"‏":1028,"‐":1029,"‑":1030,"‒":1031,"–":1032,"—":1033,"―":1034,"‘":1035,"’":1036,"‚":1037,"‛":1038,"“":1039,"”":1040,"„":1041,"‟":1042,"†":1043,"‡":1044,"•":1045,"…":1046,"‭":1047,"‰":1048,"′":1049,"″":1050,"‹":1051,"›":1052,"※":1053,"‿":1054,"⁄":1055,"⁴":1056,"⁷":1057,"₁":1058,"₂":1059,"₆":1060,"₩":1061,"₫":1062,"€":1063,"₮":1064,"℃":1065,"№":1066,"℘":1067,"™":1068,"Ω":1069,"⅙":1070,"←":1071,"↑":1072,"→":1073,"↓":1074,"↔":1075,"↩":1076,"⇒":1077,"∂":1078,"∅":1079,"∆":1080,"∇":1081,"∑":1082,"−":1083,"∗":1084,"∙":1085,"√":1086,"∞":1087,"∪":1088,"∴":1089,"∼":1090,"≈":1091,"≠":1092,"≡":1093,"≣":1094,"≤":1095,"≥":1096,"≪":1097,"≫":1098,"⋅":1099,"⌦":1100,"⌫":1101,"⎯":1102,"①":1103,"②":1104,"③":1105,"④":1106,"⑤":1107,"⑥":1108,"─":1109,"│":1110,"├":1111,"┤":1112,"═":1113,"║":1114,"░":1115,"■":1116,"□":1117,"▪":1118,"▲":1119,"△":1120,"►":1121,"▻":1122,"▼":1123,"◄":1124,"◆":1125,"◊":1126,"○":1127,"●":1128,"◗":1129,"◦":1130,"◾":1131,"★":1132,"☎":1133,"☒":1134,"☞":1135,"☺":1136,"☼":1137,"♀":1138,"♠":1139,"♣":1140,"♥":1141,"♦":1142,"♪":1143,"♫":1144,"♬":1145,"⚭":1146,"✈":1147,"✓":1148,"✔":1149,"✰":1150,"❑":1151,"❒":1152,"❚":1153,"❤":1154,"❱":1155,"➔":1156,"➜":1157,"➢":1158,"➤":1159,"ⰳ":1160,"ⰹ":1161,"ⱁ":1162,"ⴰ":1163,"ⴳ":1164,"ⴷ":1165,"ⴻ":1166,"ⵇ":1167,"ⵉ":1168,"ⵏ":1169,"ⵓ":1170,"ⵙ":1171,"ⵟ":1172,"ⵣ":1173,"、":1174,"。":1175,"《":1176,"》":1177,"」":1178,"『":1179,"』":1180,"【":1181,"】":1182,"〖":1183,"〗":1184,"あ":1185,"い":1186,"う":1187,"え":1188,"お":1189,"か":1190,"が":1191,"き":1192,"く":1193,"け":1194,"げ":1195,"こ":1196,"さ":1197,"し":1198,"す":1199,"た":1200,"だ":1201,"ち":1202,"っ":1203,"つ":1204,"て":1205,"で":1206,"と":1207,"な":1208,"に":1209,"ね":1210,"の":1211,"は":1212,"び":1213,"べ":1214,"ほ":1215,"ま":1216,"ゃ":1217,"よ":1218,"ら":1219,"り":1220,"る":1221,"れ":1222,"わ":1223,"を":1224,"ん":1225,"ァ":1226,"ア":1227,"ィ":1228,"イ":1229,"ウ":1230,"ェ":1231,"エ":1232,"ォ":1233,"オ":1234,"カ":1235,"ガ":1236,"キ":1237,"ク":1238,"ケ":1239,"コ":1240,"サ":1241,"シ":1242,"ジ":1243,"ス":1244,"ズ":1245,"ソ":1246,"タ":1247,"ダ":1248,"チ":1249,"ッ":1250,"テ":1251,"デ":1252,"ト":1253,"ド":1254,"ナ":1255,"ノ":1256,"ハ":1257,"バ":1258,"パ":1259,"ヒ":1260,"ビ":1261,"ピ":1262,"フ":1263,"ブ":1264,"プ":1265,"ベ":1266,"ポ":1267,"マ":1268,"ミ":1269,"ム":1270,"メ":1271,"モ":1272,"ャ":1273,"ヤ":1274,"ュ":1275,"ラ":1276,"リ":1277,"ル":1278,"レ":1279,"ワ":1280,"ン":1281,"・":1282,"ー":1283,"一":1284,"七":1285,"万":1286,"三":1287,"上":1288,"下":1289,"不":1290,"与":1291,"专":1292,"世":1293,"业":1294,"东":1295,"两":1296,"严":1297,"个":1298,"中":1299,"为":1300,"主":1301,"丽":1302,"举":1303,"么":1304,"之":1305,"乎":1306,"乐":1307,"乙":1308,"九":1309,"也":1310,"乡":1311,"书":1312,"买":1313,"亂":1314,"了":1315,"予":1316,"事":1317,"二":1318,"于":1319,"互":1320,"五":1321,"井":1322,"亚":1323,"些":1324,"亞":1325,"亡":1326,"交":1327,"产":1328,"享":1329,"亲":1330,"人":1331,"什":1332,"今":1333,"介":1334,"从":1335,"仕":1336,"他":1337,"付":1338,"代":1339,"令":1340,"以":1341,"们":1342,"件":1343,"价":1344,"任":1345,"份":1346,"伊":1347,"休":1348,"优":1349,"会":1350,"伟":1351,"传":1352,"伤":1353,"伦":1354,"伸":1355,"似":1356,"但":1357,"位":1358,"低":1359,"体":1360,"何":1361,"余":1362,"作":1363,"你":1364,"使":1365,"侯":1366,"侶":1367,"便":1368,"俄":1369,"俗":1370,"保":1371,"信":1372,"倍":1373,"倒":1374,"候":1375,"倫":1376,"倾":1377,"假":1378,"做":1379,"停":1380,"健":1381,"催":1382,"傲":1383,"傳":1384,"像":1385,"儚":1386,"元":1387,"充":1388,"先":1389,"光":1390,"克":1391,"免":1392,"入":1393,"內":1394,"全":1395,"八":1396,"公":1397,"六":1398,"兰":1399,"共":1400,"关":1401,"兴":1402,"其":1403,"具":1404,"典":1405,"兹":1406,"养":1407,"内":1408,"円":1409,"册":1410,"写":1411,"军":1412,"农":1413,"冬":1414,"况":1415,"冷":1416,"净":1417,"几":1418,"出":1419,"击":1420,"刀":1421,"分":1422,"切":1423,"刊":1424,"列":1425,"刚":1426,"利":1427,"别":1428,"到":1429,"制":1430,"刺":1431,"前":1432,"剤":1433,"剩":1434,"劉":1435,"劓":1436,"力":1437,"办":1438,"加":1439,"务":1440,"动":1441,"助":1442,"努":1443,"劳":1444,"動":1445,"勾":1446,"包":1447,"化":1448,"北":1449,"匠":1450,"区":1451,"医":1452,"十":1453,"千":1454,"升":1455,"午":1456,"半":1457,"华":1458,"协":1459,"单":1460,"南":1461,"単":1462,"博":1463,"卡":1464,"卫":1465,"印":1466,"危":1467,"即":1468,"厂":1469,"历":1470,"压":1471,"厘":1472,"厚":1473,"原":1474,"去":1475,"县":1476,"参":1477,"及":1478,"友":1479,"反":1480,"发":1481,"取":1482,"受":1483,"古":1484,"另":1485,"叨":1486,"只":1487,"叫":1488,"召":1489,"可":1490,"右":1491,"叶":1492,"号":1493,"司":1494,"吃":1495,"各":1496,"合":1497,"吉":1498,"同":1499,"名":1500,"后":1501,"向":1502,"吗":1503,"否":1504,"听":1505,"吸":1506,"告":1507,"员":1508,"周":1509,"味":1510,"命":1511,"和":1512,"品":1513,"哈":1514,"哥":1515,"哦":1516,"哪":1517,"售":1518,"唯":1519,"商":1520,"啊":1521,"問":1522,"喜":1523,"單":1524,"嗜":1525,"嗯":1526,"四":1527,"回":1528,"因":1529,"团":1530,"団":1531,"园":1532,"困":1533,"図":1534,"国":1535,"图":1536,"國":1537,"園":1538,"圖":1539,"在":1540,"地":1541,"场":1542,"址":1543,"均":1544,"坛":1545,"型":1546,"城":1547,"埔":1548,"培":1549,"基":1550,"報":1551,"場":1552,"塑":1553,"塔":1554,"塘":1555,"境":1556,"增":1557,"墨":1558,"墮":1559,"士":1560,"壮":1561,"壶":1562,"壽":1563,"处":1564,"备":1565,"変":1566,"复":1567,"夏":1568,"夕":1569,"外":1570,"多":1571,"大":1572,"天":1573,"太":1574,"夫":1575,"失":1576,"头":1577,"夷":1578,"奇":1579,"奋":1580,"奏":1581,"奥":1582,"奧":1583,"奮":1584,"女":1585,"好":1586,"如":1587,"妃":1588,"妇":1589,"妓":1590,"妙":1591,"姆":1592,"始":1593,"姐":1594,"姫":1595,"威":1596,"婉":1597,"婚":1598,"媒":1599,"媚":1600,"子":1601,"字":1602,"孙":1603,"季":1604,"孤":1605,"学":1606,"孫":1607,"學":1608,"它":1609,"宇":1610,"安":1611,"宋":1612,"完":1613,"宏":1614,"定":1615,"宜":1616,"实":1617,"実":1618,"室":1619,"宮":1620,"害":1621,"家":1622,"容":1623,"宽":1624,"密":1625,"寇":1626,"察":1627,"寧":1628,"寸":1629,"对":1630,"寺":1631,"寻":1632,"导":1633,"将":1634,"將":1635,"小":1636,"少":1637,"尔":1638,"尚":1639,"尝":1640,"尤":1641,"就":1642,"尺":1643,"尼":1644,"层":1645,"居":1646,"屋":1647,"履":1648,"屯":1649,"山":1650,"岁":1651,"岛":1652,"岡":1653,"峙":1654,"島":1655,"川":1656,"州":1657,"工":1658,"左":1659,"巨":1660,"差":1661,"己":1662,"已":1663,"巴":1664,"市":1665,"布":1666,"师":1667,"希":1668,"帐":1669,"帝":1670,"带":1671,"師":1672,"帮":1673,"常":1674,"幕":1675,"干":1676,"平":1677,"年":1678,"并":1679,"广":1680,"広":1681,"庆":1682,"庇":1683,"应":1684,"店":1685,"府":1686,"度":1687,"座":1688,"庭":1689,"康":1690,"廠":1691,"建":1692,"开":1693,"式":1694,"引":1695,"张":1696,"强":1697,"当":1698,"影":1699,"往":1700,"征":1701,"待":1702,"很":1703,"後":1704,"徐":1705,"得":1706,"微":1707,"德":1708,"心":1709,"必":1710,"志":1711,"忘":1712,"快":1713,"念":1714,"态":1715,"怒":1716,"思":1717,"性":1718,"总":1719,"恐":1720,"恩":1721,"息":1722,"恶":1723,"恽":1724,"患":1725,"您":1726,"情":1727,"惠":1728,"惡":1729,"想":1730,"意":1731,"愛":1732,"感":1733,"愤":1734,"愿":1735,"慈":1736,"慍":1737,"慢":1738,"慣":1739,"憎":1740,"懼":1741,"戀":1742,"戈":1743,"戏":1744,"成":1745,"我":1746,"或":1747,"战":1748,"戚":1749,"戦":1750,"戴":1751,"房":1752,"所":1753,"手":1754,"才":1755,"打":1756,"托":1757,"执":1758,"扫":1759,"找":1760,"承":1761,"技":1762,"把":1763,"投":1764,"折":1765,"护":1766,"报":1767,"抯":1768,"抰":1769,"拇":1770,"拉":1771,"拍":1772,"拓":1773,"拔":1774,"拥":1775,"择":1776,"拿":1777,"持":1778,"指":1779,"挑":1780,"挨":1781,"振":1782,"换":1783,"据":1784,"接":1785,"控":1786,"推":1787,"措":1788,"掲":1789,"描":1790,"提":1791,"換":1792,"揮":1793,"携":1794,"摄":1795,"摩":1796,"播":1797,"支":1798,"改":1799,"攻":1800,"放":1801,"政":1802,"效":1803,"救":1804,"敦":1805,"数":1806,"整":1807,"文":1808,"斎":1809,"斑":1810,"料":1811,"斡":1812,"断":1813,"斯":1814,"新":1815,"方":1816,"施":1817,"族":1818,"旗":1819,"无":1820,"既":1821,"日":1822,"旧":1823,"早":1824,"时":1825,"昆":1826,"明":1827,"易":1828,"星":1829,"映":1830,"春":1831,"昨":1832,"是":1833,"時":1834,"晏":1835,"晚":1836,"普":1837,"景":1838,"暖":1839,"暗":1840,"暴":1841,"更":1842,"書":1843,"曹":1844,"曾":1845,"最":1846,"月":1847,"有":1848,"朋":1849,"朗":1850,"望":1851,"朝":1852,"期":1853,"木":1854,"未":1855,"本":1856,"术":1857,"朴":1858,"朵":1859,"机":1860,"杀":1861,"杂":1862,"权":1863,"杉":1864,"李":1865,"材":1866,"村":1867,"条":1868,"来":1869,"杨":1870,"松":1871,"极":1872,"林":1873,"果":1874,"枝":1875,"柏":1876,"某":1877,"染":1878,"柯":1879,"标":1880,"树":1881,"校":1882,"株":1883,"样":1884,"核":1885,"根":1886,"格":1887,"栽":1888,"桑":1889,"档":1890,"桥":1891,"梁":1892,"梅":1893,"梭":1894,"棍":1895,"森":1896,"椅":1897,"植":1898,"楊":1899,"楚":1900,"楼":1901,"概":1902,"模":1903,"樣":1904,"機":1905,"次":1906,"欢":1907,"欣":1908,"欲":1909,"款":1910,"歌":1911,"止":1912,"正":1913,"此":1914,"步":1915,"死":1916,"殊":1917,"残":1918,"殴":1919,"段":1920,"殻":1921,"每":1922,"比":1923,"毛":1924,"民":1925,"气":1926,"氛":1927,"氣":1928,"水":1929,"永":1930,"污":1931,"決":1932,"沙":1933,"沛":1934,"没":1935,"河":1936,"治":1937,"法":1938,"注":1939,"泪":1940,"洗":1941,"洮":1942,"洲":1943,"派":1944,"流":1945,"浅":1946,"浇":1947,"测":1948,"济":1949,"浓":1950,"浩":1951,"海":1952,"消":1953,"淳":1954,"混":1955,"清":1956,"渡":1957,"温":1958,"港":1959,"渴":1960,"游":1961,"湟":1962,"湯":1963,"源":1964,"溪":1965,"滅":1966,"滩":1967,"滿":1968,"演":1969,"澳":1970,"激":1971,"火":1972,"灯":1973,"灵":1974,"炬":1975,"点":1976,"烛":1977,"热":1978,"焕":1979,"無":1980,"然":1981,"焼":1982,"煞":1983,"照":1984,"熟":1985,"燃":1986,"爬":1987,"爱":1988,"父":1989,"爾":1990,"片":1991,"版":1992,"牌":1993,"牛":1994,"物":1995,"特":1996,"状":1997,"狂":1998,"猛":1999,"猴":2000,"獨":2001,"獻":2002,"率":2003,"玉":2004,"王":2005,"玛":2006,"玩":2007,"环":2008,"现":2009,"珀":2010,"球":2011,"理":2012,"瑞":2013,"瑩":2014,"瑪":2015,"瓦":2016,"甜":2017,"生":2018,"用":2019,"甫":2020,"田":2021,"由":2022,"电":2023,"男":2024,"画":2025,"界":2026,"疑":2027,"疗":2028,"疾":2029,"病":2030,"発":2031,"登":2032,"白":2033,"百":2034,"的":2035,"皇":2036,"皮":2037,"盆":2038,"盈":2039,"盐":2040,"盔":2041,"盖":2042,"盛":2043,"目":2044,"直":2045,"相":2046,"省":2047,"看":2048,"県":2049,"真":2050,"眠":2051,"眩":2052,"眼":2053,"着":2054,"知":2055,"矮":2056,"石":2057,"矿":2058,"码":2059,"研":2060,"破":2061,"砸":2062,"确":2063,"碇":2064,"磊":2065,"磐":2066,"磯":2067,"礼":2068,"社":2069,"祝":2070,"神":2071,"票":2072,"禅":2073,"福":2074,"禮":2075,"禰":2076,"离":2077,"私":2078,"种":2079,"科":2080,"秘":2081,"租":2082,"秦":2083,"积":2084,"称":2085,"移":2086,"程":2087,"稿":2088,"究":2089,"穷":2090,"穹":2091,"空":2092,"突":2093,"窟":2094,"窮":2095,"立":2096,"站":2097,"竞":2098,"章":2099,"竹":2100,"笑":2101,"笔":2102,"第":2103,"等":2104,"答":2105,"策":2106,"简":2107,"管":2108,"箱":2109,"篷":2110,"簡":2111,"籍":2112,"米":2113,"类":2114,"粥":2115,"精":2116,"系":2117,"紀":2118,"納":2119,"索":2120,"終":2121,"統":2122,"絶":2123,"維":2124,"網":2125,"緊":2126,"編":2127,"縛":2128,"繁":2129,"约":2130,"级":2131,"纯":2132,"纳":2133,"组":2134,"细":2135,"绍":2136,"经":2137,"结":2138,"给":2139,"络":2140,"绝":2141,"续":2142,"缇":2143,"缘":2144,"缺":2145,"网":2146,"罗":2147,"罚":2148,"署":2149,"羅":2150,"美":2151,"翁":2152,"習":2153,"翟":2154,"翻":2155,"翼":2156,"耀":2157,"老":2158,"考":2159,"者":2160,"而":2161,"聊":2162,"职":2163,"联":2164,"聖":2165,"聯":2166,"肇":2167,"肉":2168,"股":2169,"肥":2170,"肪":2171,"肯":2172,"背":2173,"能":2174,"脂":2175,"腐":2176,"臣":2177,"自":2178,"臬":2179,"至":2180,"致":2181,"舒":2182,"航":2183,"般":2184,"舶":2185,"船":2186,"良":2187,"色":2188,"艾":2189,"节":2190,"芒":2191,"花":2192,"芳":2193,"若":2194,"英":2195,"范":2196,"茅":2197,"茲":2198,"草":2199,"荐":2200,"莫":2201,"莲":2202,"获":2203,"菜":2204,"萄":2205,"营":2206,"萦":2207,"落":2208,"著":2209,"葛":2210,"葡":2211,"葵":2212,"蓍":2213,"蓟":2214,"蔵":2215,"蕾":2216,"薩":2217,"薬":2218,"藤":2219,"蘇":2220,"虑":2221,"虫":2222,"虽":2223,"蜗":2224,"蜜":2225,"蜡":2226,"蝴":2227,"蝶":2228,"融":2229,"螳":2230,"血":2231,"行":2232,"術":2233,"街":2234,"衛":2235,"表":2236,"衫":2237,"衷":2238,"被":2239,"装":2240,"西":2241,"要":2242,"覃":2243,"見":2244,"規":2245,"覺":2246,"见":2247,"观":2248,"规":2249,"视":2250,"觉":2251,"触":2252,"計":2253,"話":2254,"誌":2255,"語":2256,"諾":2257,"謝":2258,"謡":2259,"證":2260,"譜":2261,"議":2262,"订":2263,"认":2264,"讨":2265,"让":2266,"讯":2267,"许":2268,"论":2269,"讽":2270,"设":2271,"访":2272,"证":2273,"评":2274,"诉":2275,"译":2276,"试":2277,"诗":2278,"话":2279,"语":2280,"说":2281,"请":2282,"诸":2283,"读":2284,"课":2285,"谈":2286,"谢":2287,"豆":2288,"象":2289,"負":2290,"貧":2291,"買":2292,"賈":2293,"賽":2294,"财":2295,"贤":2296,"败":2297,"质":2298,"购":2299,"贴":2300,"费":2301,"赁":2302,"资":2303,"赏":2304,"赤":2305,"走":2306,"起":2307,"超":2308,"越":2309,"趣":2310,"足":2311,"路":2312,"身":2313,"車":2314,"軍":2315,"載":2316,"輔":2317,"车":2318,"软":2319,"轻":2320,"较":2321,"辆":2322,"辑":2323,"辞":2324,"辩":2325,"达":2326,"过":2327,"迈":2328,"迎":2329,"运":2330,"近":2331,"返":2332,"还":2333,"这":2334,"进":2335,"远":2336,"连":2337,"迪":2338,"迫":2339,"送":2340,"适":2341,"逃":2342,"选":2343,"通":2344,"速":2345,"造":2346,"連":2347,"進":2348,"遇":2349,"道":2350,"達":2351,"遗":2352,"遺":2353,"避":2354,"邁":2355,"那":2356,"邪":2357,"邮":2358,"郎":2359,"部":2360,"都":2361,"配":2362,"酒":2363,"醍":2364,"醐":2365,"醬":2366,"里":2367,"重":2368,"野":2369,"量":2370,"金":2371,"鋒":2372,"鋼":2373,"錢":2374,"鎮":2375,"鐵":2376,"针":2377,"钱":2378,"铜":2379,"银":2380,"错":2381,"镇":2382,"長":2383,"长":2384,"門":2385,"閃":2386,"開":2387,"閏":2388,"間":2389,"関":2390,"閻":2391,"關":2392,"门":2393,"问":2394,"间":2395,"闻":2396,"阀":2397,"阅":2398,"队":2399,"阵":2400,"陃":2401,"际":2402,"陆":2403,"陈":2404,"降":2405,"限":2406,"除":2407,"险":2408,"陳":2409,"陶":2410,"隆":2411,"随":2412,"隐":2413,"难":2414,"雄":2415,"集":2416,"雙":2417,"雨":2418,"雪":2419,"雷":2420,"需":2421,"靈":2422,"青":2423,"非":2424,"靠":2425,"面":2426,"韩":2427,"音":2428,"領":2429,"頸":2430,"題":2431,"願":2432,"顯":2433,"顱":2434,"页":2435,"项":2436,"顺":2437,"顾":2438,"顿":2439,"预":2440,"题":2441,"颜":2442,"额":2443,"風":2444,"风":2445,"食":2446,"飯":2447,"餅":2448,"館":2449,"饭":2450,"饼":2451,"首":2452,"香":2453,"馬":2454,"駆":2455,"马":2456,"验":2457,"骑":2458,"骗":2459,"體":2460,"髗":2461,"高":2462,"鬼":2463,"魂":2464,"魔":2465,"鲜":2466,"鳥":2467,"鷹":2468,"鹏":2469,"鹿":2470,"麦":2471,"黑":2472,"鼓":2473,"鼠":2474,"齊":2475,"龍":2476,"ꜰ":2477,"ꞌ":2478,"가":2479,"간":2480,"갈":2481,"강":2482,"거":2483,"건":2484,"결":2485,"곤":2486,"공":2487,"광":2488,"괴":2489,"교":2490,"구":2491,"국":2492,"군":2493,"굶":2494,"그":2495,"글":2496,"기":2497,"길":2498,"나":2499,"날":2500,"너":2501,"년":2502,"노":2503,"농":2504,"는":2505,"니":2506,"다":2507,"단":2508,"담":2509,"대":2510,"댄":2511,"데":2512,"덴":2513,"돈":2514,"둥":2515,"들":2516,"디":2517,"라":2518,"락":2519,"랄":2520,"람":2521,"랑":2522,"랙":2523,"러":2524,"레":2525,"령":2526,"로":2527,"록":2528,"론":2529,"루":2530,"룩":2531,"르":2532,"리":2533,"린":2534,"림":2535,"립":2536,"만":2537,"말":2538,"매":2539,"멜":2540,"명":2541,"모":2542,"문":2543,"밇":2544,"밊":2545,"및":2546,"바":2547,"박":2548,"받":2549,"배":2550,"베":2551,"부":2552,"블":2553,"비":2554,"빛":2555,"사":2556,"상":2557,"생":2558,"샤":2559,"석":2560,"선":2561,"셈":2562,"션":2563,"셴":2564,"소":2565,"속":2566,"수":2567,"술":2568,"스":2569,"습":2570,"승":2571,"시":2572,"식":2573,"쌍":2574,"쓰":2575,"아":2576,"않":2577,"알":2578,"암":2579,"야":2580,"어":2581,"업":2582,"에":2583,"엘":2584,"영":2585,"예":2586,"왕":2587,"요":2588,"용":2589,"우":2590,"운":2591,"울":2592,"원":2593,"월":2594,"위":2595,"윙":2596,"유":2597,"은":2598,"의":2599,"이":2600,"일":2601,"있":2602,"자":2603,"잘":2604,"잠":2605,"장":2606,"재":2607,"잿":2608,"저":2609,"전":2610,"절":2611,"정":2612,"제":2613,"조":2614,"좀":2615,"종":2616,"주":2617,"즈":2618,"지":2619,"진":2620,"짐":2621,"짜":2622,"창":2623,"천":2624,"철":2625,"체":2626,"초":2627,"총":2628,"추":2629,"칼":2630,"캐":2631,"코":2632,"쿤":2633,"퀀":2634,"크":2635,"클":2636,"타":2637,"태":2638,"테":2639,"토":2640,"투":2641,"틸":2642,"파":2643,"판":2644,"팟":2645,"팡":2646,"펑":2647,"포":2648,"퐁":2649,"품":2650,"프":2651,"피":2652,"학":2653,"한":2654,"합":2655,"호":2656,"혼":2657,"화":2658,"환":2659,"황":2660,"회":2661,"흑":2662,"":2663,"":2664,"":2665,"":2666,"":2667,"":2668,"":2669,"":2670,"":2671,"":2672,"":2673,"":2674,"":2675,"":2676,"":2677,"":2678,"":2679,"":2680,"":2681,"":2682,"":2683,"":2684,"":2685,"":2686,"":2687,"":2688,"":2689,"":2690,"":2691,"":2692,"":2693,"":2694,"":2695,"":2696,"":2697,"":2698,"":2699,"":2700,"":2701,"":2702,"":2703,"":2704,"":2705,"":2706,"":2707,"":2708,"":2709,"ﬀ":2710,"ﬁ":2711,"ﬂ":2712,"ﬃ":2713,"ﯞ":2714,"ﯧ":2715,"ﯩ":2716,"﷓":2717,"ﺋ":2718,"ﺎ":2719,"ﺗ":2720,"ﺮ":2721,"ﺰ":2722,"ﻐ":2723,"ﻔ":2724,"ﻯ":2725,"ﻻ":2726,"﻿":2727,"！":2728,"（":2729,"）":2730,"，":2731,"－":2732,"：":2733,"；":2734,"～":2735,"￡":2736,"�":2737,"𒅕":2738,"𒆠":2739,"𝔐":2740,"🇸":2741,"🇾":2742,"😔":2743,"en":2744,"er":2745,"es":2746,"in":2747,"on":2748,"an":2749,"th":2750,"ti":2751,"re":2752,"is":2753,"ch":2754,"ou":2755,"or":2756,"de":2757,"al":2758,"the":2759,"it":2760,"ar":2761,"le":2762,"te":2763,"un":2764,"tion":2765,"as":2766,"ent":2767,"at":2768,"om":2769,"ie":2770,"of":2771,"and":2772,"la":2773,"ur":2774,"et":2775,"to":2776,"pr":2777,"ing":2778,"qu":2779,"au":2780,"se":2781,"il":2782,"st":2783,"ce":2784,"ation":2785,"li":2786,"ve":2787,"me":2788,"ra":2789,"si":2790,"ment":2791,"der":2792,"be":2793,"ir":2794,"ge":2795,"di":2796,"he":2797,"des":2798,"our":2799,"les":2800,"con":2801,"ne":2802,"for":2803,"ter":2804,"du":2805,"ol":2806,"ri":2807,"ver":2808,"pro":2809,"ac":2810,"pe":2811,"us":2812,"ab":2813,"20":2814,"com":2815,"lo":2816,"ic":2817,"ant":2818,"am":2819,"ich":2820,"no":2821,"par":2822,"est":2823,"..":2824,"el":2825,"ad":2826,"ro":2827,"im":2828,"su":2829,"po":2830,"den":2831,"que":2832,"ist":2833,"ma":2834,"ung":2835,"ci":2836,"ed":2837,"und":2838,"ein":2839,"ly":2840,"ten":2841,"res":2842,"ig":2843,"ans":2844,"ut":2845,"die":2846,"you":2847,"ere":2848,"ap":2849,"ta":2850,"ts":2851,"ex":2852,"per":2853,"we":2854,"that":2855,"ay":2856,"ag":2857,"mo":2858,"wh":2859,"um":2860,"so":2861,"ber":2862,"wi":2863,"ous":2864,"tr":2865,"The":2866,"are":2867,"por":2868,"ff":2869,"sch":2870,"ted":2871,"200":2872,"ht":2873,"ul":2874,"ré":2875,"dé":2876,"ai":2877,"all":2878,"with":2879,"vi":2880,"gen":2881,"do":2882,"ct":2883,"em":2884,"ces":2885,"In":2886,"hr":2887,"ave":2888,"ke":2889,"op":2890,"sion":2891,"ser":2892,"out":2893,"son":2894,"ll":2895,"une":2896,"tre":2897,"és":2898,"pour":2899,"19":2900,"tu":2901,"sh":2902,"pl":2903,"was":2904,"ach":2905,"end":2906,"ine":2907,"ion":2908,"mit":2909,"ill":2910,"00":2911,"ate":2912,"tra":2913,"fr":2914,"av":2915,"ld":2916,"co":2917,"sur":2918,"ction":2919,"oun":2920,"man":2921,"ck":2922,"zu":2923,"...":2924,"by":2925,"qui":2926,"ations":2927,"port":2928,"ity":2929,"pas":2930,"tic":2931,"go":2932,"not":2933,"ther":2934,"Th":2935,"omm":2936,"Un":2937,"che":2938,"An":2939,"201":2940,"je":2941,"das":2942,"dans":2943,"age":2944,"Re":2945,"té":2946,"ance":2947,"fü":2948,"ers":2949,"aux":2950,"this":2951,"von":2952,"form":2953,"gu":2954,"lu":2955,"fin":2956,"min":2957,"ven":2958,"one":2959,"icht":2960,"its":2961,"ru":2962,"ier":2963,"tions":2964,"pu":2965,"wor":2966,"ann":2967,"od":2968,"chen":2969,"ale":2970,"ins":2971,"lic":2972,"auf":2973,"ure":2974,"sen":2975,"tive":2976,"ble":2977,"have":2978,"ard":2979,"ments":2980,"ste":2981,"ite":2982,"fa":2983,"aus":2984,"inter":2985,"from":2986,"ien":2987,"ité":2988,"Le":2989,"ph":2990,"fe":2991,"can":2992,"ques":2993,"mes":2994,"gr":2995,"sa":2996,"men":2997,"ould":2998,"vo":2999,"ont":3000,"wer":3001,"gra":3002,"ob":3003,"id":3004,"ust":3005,"ér":3006,"able":3007,"ges":3008,"ow":3009,"Sie":3010,"10":3011,"ée":3012,"dem":3013,"wir":3014,"up":3015,"dis":3016,"für":3017,"ord":3018,"will":3019,"ww":3020,"ses":3021,"if":3022,"now":3023,"comp":3024,"ah":3025,"comm":3026,"gi":3027,"ain":3028,"ome":3029,"Ar":3030,"lich":3031,"nicht":3032,"mar":3033,"Ver":3034,"ission":3035,"ze":3036,"En":3037,"pre":3038,"urs":3039,"fo":3040,"nation":3041,"cer":3042,"De":3043,"ren":3044,"ux":3045,"ind":3046,"ise":3047,"Se":3048,"It":3049,"ire":3050,"No":3051,"We":3052,"ben":3053,"Wh":3054,"fer":3055,"gan":3056,"You":3057,"tif":3058,"ue":3059,"lle":3060,"mon":3061,"pla":3062,"eine":3063,"St":3064,"your":3065,"ves":3066,"ais":3067,"has":3068,"ons":3069,"vis":3070,"af":3071,"ear":3072,"ence":3073,"Pro":3074,"bo":3075,"12":3076,"don":3077,"als":3078,"ies":3079,"ty":3080,"her":3081,"Comm":3082,"Eur":3083,"gh":3084,"Can":3085,"mer":3086,"ère":3087,"ties":3088,"ger":3089,"Je":3090,"ary":3091,"cial":3092,"pres":3093,"which":3094,"ok":3095,"lie":3096,"ple":3097,"aut":3098,"dies":3099,"ées":3100,"lis":3101,"plus":3102,"use":3103,"Par":3104,"He":3105,"inc":3106,"ner":3107,"Au":3108,"sich":3109,"air":3110,"ght":3111,"Con":3112,"aire":3113,"bu":3114,"produ":3115,"pos":3116,"Be":3117,"bre":3118,"11":3119,"ell":3120,"vie":3121,"nen":3122,"sy":3123,"oll":3124,"Sch":3125,").":3126,"ase":3127,"ast":3128,"ors":3129,"),":3130,"get":3131,"//":3132,"Ich":3133,"work":3134,"vous":3135,"199":3136,"Ch":3137,"tp":3138,"sp":3139,"my":3140,"ded":3141,"Die":3142,"app":3143,"ls":3144,"gram":3145,"http":3146,"acc":3147,"ants":3148,"cont":3149,"national":3150,"ak":3151,"off":3152,"sie":3153,"://":3154,"war":3155,"ni":3156,"but":3157,"ally":3158,"ungen":3159,"other":3160,"low":3161,"velo":3162,"ents":3163,"pri":3164,"La":3165,"cess":3166,"sti":3167,"15":3168,"cur":3169,"elle":3170,"lation":3171,"ait":3172,"reg":3173,"know":3174,"ati":3175,"pub":3176,"bes":3177,"part":3178,"enn":3179,"ures":3180,"ated":3181,"any":3182,"ange":3183,"int":3184,"ope":3185,"ink":3186,"formation":3187,"cu":3188,"pré":3189,"br":3190,"ank":3191,"wo":3192,"Er":3193,"day":3194,"Com":3195,"ates":3196,"ille":3197,"18":3198,"spe":3199,"ess":3200,"very":3201,"ong":3202,"ack":3203,"16":3204,"ound":3205,"iz":3206,"val":3207,"ens":3208,"velop":3209,"lt":3210,"ada":3211,"thing":3212,"mber":3213,"än":3214,"__":3215,"there":3216,"sont":3217,"ari":3218,"über":3219,"cal":3220,"cent":3221,"ree":3222,"ile":3223,"sel":3224,"way":3225,"été":3226,"ass":3227,"avec":3228,"17":3229,"rie":3230,"time":3231,"ry":3232,"ès":3233,"bet":3234,"bil":3235,"ang":3236,"mp":3237,"hen":3238,"their":3239,"13":3240,"hab":3241,"va":3242,"os":3243,"og":3244,"act":3245,"ding":3246,"person":3247,"dur":3248,"na":3249,"Ge":3250,"under":3251,"wie":3252,"Les":3253,"Al":3254,"been":3255,"eff":3256,"they":3257,"ot":3258,"ats":3259,"over":3260,"car":3261,"vic":3262,"Europe":3263,"14":3264,"da":3265,"ater":3266,"who":3267,"more":3268,"Canada":3269,"vor":3270,"dire":3271,"cre":3272,"some":3273,"trans":3274,"This":3275,"also":3276,"cl":3277,"parti":3278,"ég":3279,"cht":3280,"30":3281,"én":3282,"Commission":3283,"être":3284,"On":3285,"tes":3286,"Il":3287,"were":3288,"ette":3289,"rou":3290,"www":3291,"about":3292,"sub":3293,"pon":3294,"werden":3295,"ca":3296,"vent":3297,"vers":3298,"poli":3299,"rit":3300,"land":3301,"gn":3302,"program":3303,"sup":3304,"cher":3305,"ip":3306,"rap":3307,"sind":3308,"entre":3309,"hat":3310,"For":3311,"ho":3312,"what":3313,"organ":3314,"Fr":3315,"year":3316,"ese":3317,"his":3318,"tel":3319,"posi":3320,"cou":3321,"col":3322,"Mar":3323,"aff":3324,"igh":3325,"tain":3326,"Ne":3327,"dass":3328,"plo":3329,"cri":3330,"ft":3331,"new":3332,"fol":3333,"pen":3334,"mb":3335,"So":3336,"tig":3337,"ih":3338,"ide":3339,"cour":3340,"ose":3341,"jet":3342,"diff":3343,"25":3344,"Qu":3345,"cip":3346,"ticle":3347,"ms":3348,"olu":3349,"mil":3350,"ischen":3351,"net":3352,"ia":3353,"kt":3354,"red":3355,"ungs":3356,"coun":3357,"would":3358,"And":3359,"oder":3360,"fi":3361,"hal":3362,"tri":3363,"ight":3364,"cis":3365,"lan":3366,"commun":3367,"met":3368,"auch":3369,"like":3370,"stru":3371,"cts":3372,"main":3373,"éta":3374,"pay":3375,"Das":3376,"acti":3377,"sé":3378,"As":3379,"sou":3380,"oc":3381,"ils":3382,"mal":3383,"just":3384,"ctive":3385,"ön":3386,"bei":3387,"sein":3388,"mé":3389,"cy":3390,"nous":3391,"jour":3392,"vices":3393,"king":3394,"vir":3395,"Ab":3396,"prés":3397,"dro":3398,"let":3399,"ouve":3400,"wn":3401,"had":3402,"nach":3403,"ds":3404,"tout":3405,"wird":3406,"here":3407,"information":3408,"should":3409,"right":3410,"sed":3411,"ür":3412,"ités":3413,"import":3414,"fir":3415,"22":3416,"uch":3417,"them":3418,"ved":3419,"public":3420,"ient":3421,"conom":3422,"What":3423,"indi":3424,"mi":3425,"him":3426,"ler":3427,"fic":3428,"nement":3429,"ory":3430,"iter":3431,"cep":3432,"fore":3433,"ful":3434,"eur":3435,"fait":3436,"oi":3437,"tell":3438,"==":3439,"ét":3440,"ON":3441,"iss":3442,"ied":3443,"EU":3444,"lement":3445,"ress":3446,"stand":3447,"see":3448,"einen":3449,"inclu":3450,"bas":3451,"Inter":3452,"led":3453,"concer":3454,"appro":3455,"place":3456,"cas":3457,"chn":3458,"EC":3459,"aires":3460,"cul":3461,"dition":3462,"vice":3463,"24":3464,"cau":3465,"hren":3466,"adi":3467,"fon":3468,"zur":3469,"uns":3470,"provi":3471,"ign":3472,"ating":3473,"art":3474,"cor":3475,"23":3476,"ick":3477,"ique":3478,"come":3479,"zen":3480,"unter":3481,"ris":3482,"olog":3483,"Ho":3484,"Te":3485,"pris":3486,"haben":3487,"need":3488,"ub":3489,"ät":3490,"European":3491,"ib":3492,"ort":3493,"50":3494,"sit":3495,"rela":3496,"ER":3497,"ions":3498,"than":3499,"oh":3500,"tur":3501,"alle":3502,"ities":3503,"non":3504,"into":3505,"lin":3506,"soci":3507,"ild":3508,"uti":3509,"Me":3510,"Es":3511,"ages":3512,"only":3513,"dent":3514,"iel":3515,"bar":3516,"Wir":3517,"21":3518,"ial":3519,"tis":3520,"view":3521,"may":3522,"Ex":3523,"did":3524,"ha":3525,"minist":3526,"isation":3527,"2016":3528,"ES":3529,"oper":3530,"bor":3531,"ken":3532,"leg":3533,"Ein":3534,"Or":3535,"....":3536,"Tu":3537,"ouver":3538,"ish":3539,"cap":3540,"services":3541,"set":3542,"éri":3543,"zt":3544,"syste":3545,"ème":3546,"ture":3547,"viron":3548,"einer":3549,"iten":3550,"kann":3551,"such":3552,"EN":3553,"bien":3554,"rent":3555,"amp":3556,"mais":3557,"comme":3558,"Po":3559,"Mr":3560,"iti":3561,"Mit":3562,"wur":3563,"AN":3564,"when":3565,"uation":3566,"teur":3567,"är":3568,"ople":3569,"tal":3570,"abil":3571,"Aus":3572,"IN":3573,"cette":3574,"shall":3575,"sible":3576,"igen":3577,"where":3578,"emplo":3579,"gar":3580,"né":3581,"leur":3582,"applic":3583,"Mon":3584,"mein":3585,"cause":3586,"contr":3587,"cted":3588,"000":3589,"fen":3590,"mm":3591,"Oh":3592,"grou":3593,"these":3594,"Ja":3595,"ited":3596,"ener":3597,"back":3598,"she":3599,"mark":3600,"ud":3601,"aid":3602,"ctions":3603,"eren":3604,"cle":3605,"num":3606,"ting":3607,"Coun":3608,"mis":3609,"présent":3610,"sign":3611,"Pr":3612,"develop":3613,"lé":3614,"28":3615,"oir":3616,"Sp":3617,"27":3618,"partic":3619,"ün":3620,"international":3621,"26":3622,"ück":3623,"two":3624,"Sta":3625,"01":3626,"Min":3627,"qual":3628,"2006":3629,"fri":3630,"ister":3631,"well":3632,"gre":3633,"cation":3634,"nes":3635,"ning":3636,"titu":3637,"ys":3638,"Ma":3639,"fac":3640,"kön":3641,"sten":3642,"people":3643,"quel":3644,"dit":3645,"dust":3646,"Der":3647,"gro":3648,"nom":3649,"sure":3650,"pend":3651,"29":3652,"cé":3653,"ton":3654,"effe":3655,"plan":3656,"vant":3657,"autres":3658,"2007":3659,"--":3660,"finan":3661,"good":3662,"anti":3663,"tou":3664,"ör":3665,"That":3666,"04":3667,"AT":3668,"ps":3669,"lar":3670,"old":3671,"ned":3672,"AR":3673,"consi":3674,"first":3675,"iden":3676,"Ges":3677,"ical":3678,"hl":3679,"ving":3680,"faire":3681,"aten":3682,"II":3683,"aft":3684,"many":3685,"komm":3686,"lig":3687,"char":3688,"Gr":3689,"las":3690,"vention":3691,"olution":3692,"ween":3693,"08":3694,"got":3695,"jus":3696,"03":3697,"uss":3698,"must":3699,"exam":3700,"think":3701,"tique":3702,"2005":3703,"____":3704,"But":3705,"tet":3706,"07":3707,"durch":3708,"prof":3709,"Co":3710,"Mo":3711,"cil":3712,"ular":3713,"ante":3714,"point":3715,"take":3716,"position":3717,"str":3718,"want":3719,"vol":3720,"tik":3721,"ribu":3722,"ça":3723,"05":3724,"appe":3725,"then":3726,"lichen":3727,"mat":3728,"Her":3729,"mir":3730,"09":3731,"ace":3732,"ice":3733,"eng":3734,"voir":3735,"Was":3736,"nur":3737,"dern":3738,"trava":3739,"2004":3740,"Fe":3741,"could":3742,"198":3743,"Is":3744,"respon":3745,"alth":3746,"how":3747,"gén":3748,"Bo":3749,"tro":3750,"nex":3751,"between":3752,"clu":3753,"techn":3754,"rough":3755,"bin":3756,"Union":3757,"contin":3758,"hel":3759,"change":3760,"ga":3761,"ctor":3762,"ju":3763,"ship":3764,"again":3765,"htm":3766,"dar":3767,"prom":3768,"peut":3769,"say":3770,"most":3771,"bis":3772,"cré":3773,"2008":3774,"environ":3775,"prin":3776,"dom":3777,"Ber":3778,"ême":3779,"follow":3780,"pays":3781,"einem":3782,"ef":3783,"Ét":3784,"years":3785,"km":3786,"amil":3787,"try":3788,"31":3789,"uman":3790,"IS":3791,"down":3792,"vra":3793,"rég":3794,"ères":3795,"ital":3796,"Ser":3797,"through":3798,"vre":3799,"ember":3800,"06":3801,"gel":3802,"ince":3803,"Article":3804,"Et":3805,"made":3806,"hand":3807,"gt":3808,"cro":3809,"était":3810,"Ad":3811,"States":3812,"ration":3813,"cision":3814,"fra":3815,"accord":3816,"02":3817,"prote":3818,"Du":3819,"ik":3820,"ication":3821,"If":3822,"nor":3823,"ards":3824,"ject":3825,"ande":3826,"près":3827,"zum":3828,"All":3829,"schen":3830,"ath":3831,"wä":3832,"nouve":3833,"those":3834,"fu":3835,"long":3836,"own":3837,"ablis":3838,"make":3839,"ert":3840,"ales":3841,"ports":3842,"alement":3843,"enne":3844,"tle":3845,"ature":3846,"med":3847,"ources":3848,"To":3849,"ep":3850,"rest":3851,"chte":3852,"bal":3853,"medi":3854,"Ger":3855,"Per":3856,"Council":3857,"inté":3858,"read":3859,"europ":3860,"Ze":3861,"employ":3862,"noch":3863,"put":3864,"line":3865,"ings":3866,"site":3867,"2015":3868,"ances":3869,"There":3870,"after":3871,"US":3872,"Commun":3873,"order":3874,"reas":3875,"ele":3876,"Do":3877,"fre":3878,"every":3879,"deux":3880,"used":3881,"jo":3882,"sor":3883,"dist":3884,"ss":3885,"clo":3886,"Und":3887,"hier":3888,"utilis":3889,"Ro":3890,"sult":3891,"lui":3892,"look":3893,"isse":3894,"four":3895,"ali":3896,"aur":3897,"immer":3898,"mitte":3899,"Ih":3900,"process":3901,"tern":3902,"CE":3903,"vé":3904,"tru":3905,"dra":3906,"bl":3907,"ische":3908,"ced":3909,"génér":3910,"cra":3911,"top":3912,"atz":3913,"vision":3914,"Ce":3915,"Man":3916,"activ":3917,"mich":3918,"respe":3919,"present":3920,"2009":3921,"UN":3922,"ern":3923,"milli":3924,"cti":3925,"thor":3926,"ihr":3927,"hu":3928,"rate":3929,"bt":3930,"soll":3931,"ires":3932,"enti":3933,"cla":3934,"liche":3935,"service":3936,"ets":3937,"cons":3938,"dam":3939,"sche":3940,"seil":3941,"nment":3942,"keit":3943,"vel":3944,"dr":3945,"gener":3946,"important":3947,"agement":3948,"organis":3949,"system":3950,"Vous":3951,"2010":3952,"nel":3953,"wurde":3954,"member":3955,"number":3956,"avoir":3957,"können":3958,"bon":3959,"même":3960,"ative":3961,"lit":3962,"less":3963,"Pre":3964,"Unter":3965,"They":3966,"particip":3967,"gy":3968,"ks":3969,"fun":3970,"Res":3971,"docu":3972,"ual":3973,"May":3974,"Ju":3975,"Nations":3976,"aber":3977,"temp":3978,"wel":3979,"Member":3980,"self":3981,"tex":3982,"bi":3983,"prend":3984,"ute":3985,"At":3986,"Bes":3987,"requi":3988,"mehr":3989,"2003":3990,"indust":3991,"agen":3992,"fil":3993,"Vor":3994,"tous":3995,"ches":3996,"neh":3997,"found":3998,"pte":3999,"ouse":4000,"ente":4001,"dévelop":4002,"nung":4003,"issu":4004,"New":4005,"40":4006,"uer":4007,"Tr":4008,"United":4009,"ral":4010,"tical":4011,"mission":4012,"wei":4013,"possible":4014,"report":4015,"action":4016,"atten":4017,"article":4018,"moi":4019,"IT":4020,"Don":4021,"bus":4022,"stitu":4023,"cli":4024,"tries":4025,"wenn":4026,"sta":4027,"parag":4028,"ough":4029,"peu":4030,"sive":4031,"exper":4032,"sions":4033,"going":4034,"ource":4035,"ata":4036,"Ok":4037,"high":4038,"bur":4039,"ici":4040,"pement":4041,"fact":4042,"does":4043,"Pour":4044,"alt":4045,"Reg":4046,"dre":4047,"secon":4048,"sui":4049,"ivers":4050,"Im":4051,"pt":4052,"100":4053,"imp":4054,"adop":4055,"??":4056,"inst":4057,"atur":4058,"Go":4059,"2011":4060,".\"":4061,"avai":4062,"gle":4063,"support":4064,"teurs":4065,"vil":4066,"Des":4067,"hed":4068,"pur":4069,"cus":4070,"eu":4071,"Dire":4072,"stat":4073,"ahl":4074,"question":4075,"mö":4076,"lä":4077,"mittee":4078,"resul":4079,"Auf":4080,"üs":4081,"said":4082,"ditions":4083,"Lo":4084,"teil":4085,"Conseil":4086,"tw":4087,"gover":4088,"Gener":4089,"programme":4090,"35":4091,"ster":4092,"even":4093,"vom":4094,"termin":4095,"Br":4096,"det":4097,"gs":4098,"Well":4099,"aussi":4100,"Komm":4101,"development":4102,"ders":4103,"ences":4104,"ues":4105,"heit":4106,"Europ":4107,"CO":4108,"ina":4109,"Sy":4110,"kon":4111,"bro":4112,"countries":4113,"current":4114,"Fre":4115,"ige":4116,"ables":4117,"publi":4118,"ines":4119,"2000":4120,"She":4121,"2002":4122,"Si":4123,"Canadi":4124,"play":4125,"world":4126,"45":4127,"mbre":4128,"child":4129,"Fin":4130,"bie":4131,"peti":4132,"human":4133,"avant":4134,"certain":4135,"gon":4136,"obje":4137,"being":4138,"alis":4139,"meet":4140,"chan":4141,"room":4142,"**":4143,"meas":4144,"before":4145,"2012":4146,"sol":4147,"AL":4148,"aly":4149,"suis":4150,"Tra":4151,"speci":4152,"plement":4153,"asse":4154,"date":4155,"cours":4156,"sibil":4157,"tsch":4158,"mor":4159,"because":4160,"Dies":4161,"europé":4162,"initi":4163,"concern":4164,"Wor":4165,"ask":4166,"Pres":4167,"exp":4168,"tiques":4169,"lau":4170,"gouver":4171,"projet":4172,"IC":4173,"life":4174,"leurs":4175,"lations":4176,"institu":4177,"hin":4178,"quoi":4179,"PM":4180,"sk":4181,"fur":4182,"Off":4183,"times":4184,"til":4185,"ters":4186,"habe":4187,"wen":4188,"wa":4189,"Kon":4190,"ption":4191,"travail":4192,"UR":4193,"schaft":4194,"Jan":4195,"mu":4196,"Li":4197,"inte":4198,"conomic":4199,"AM":4200,"2013":4201,"law":4202,"glich":4203,"2001":4204,"hol":4205,"famil":4206,"requ":4207,"36":4208,"arbe":4209,"tifs":4210,"fall":4211,"ION":4212,"side":4213,"ody":4214,"best":4215,"social":4216,"Regu":4217,"Program":4218,"author":4219,"gue":4220,"fois":4221,"ped":4222,"limit":4223,"labor":4224,"DE":4225,"ainsi":4226,"49":4227,"conf":4228,"same":4229,"application":4230,"dir":4231,"ßen":4232,"OR":4233,"ars":4234,"sident":4235,"sous":4236,"inv":4237,"rés":4238,"test":4239,"développement":4240,"contribu":4241,"votre":4242,"nah":4243,"earch":4244,"colle":4245,"lles":4246,"ament":4247,"tin":4248,"rec":4249,"How":4250,"General":4251,"help":4252,"administ":4253,"actu":4254,"comple":4255,"rè":4256,"amen":4257,"Sh":4258,"syst":4259,"particular":4260,"ense":4261,"bit":4262,"omen":4263,"iness":4264,"rapport":4265,"kommen":4266,"ount":4267,"elles":4268,"Committee":4269,"rais":4270,"pes":4271,"tour":4272,"führ":4273,"autre":4274,"33":4275,"eah":4276,"Ap":4277,"clar":4278,"consider":4279,"diese":4280,"orig":4281,"fem":4282,"Nor":4283,"cho":4284,"tement":4285,"EUR":4286,"sais":4287,"protection":4288,"stell":4289,"ational":4290,"ref":4291,"ghts":4292,"ja":4293,"Su":4294,"including":4295,"dig":4296,"princip":4297,"conditions":4298,"within":4299,"contre":4300,"ident":4301,"anz":4302,"AS":4303,"peri":4304,"open":4305,"table":4306,"demand":4307,"market":4308,"gesch":4309,"AC":4310,"bere":4311,"où":4312,"nombre":4313,"ene":4314,"rece":4315,"ducation":4316,"arm":4317,"197":4318,"Da":4319,"mande":4320,"following":4321,"Ste":4322,"temps":4323,"care":4324,"Nach":4325,"gin":4326,"2014":4327,"last":4328,"Ac":4329,"lier":4330,"éle":4331,"reich":4332,"ights":4333,"oto":4334,"rele":4335,"los":4336,"hy":4337,"establis":4338,"Car":4339,"puis":4340,"too":4341,"tikel":4342,"\",":4343,"conn":4344,"Zeit":4345,"production":4346,".,":4347,"olo":4348,"case":4349,"licy":4350,"enf":4351,"États":4352,"Nous":4353,"cat":4354,"lable":4355,"find":4356,"dieser":4357,"économ":4358,"each":4359,"page":4360,"differ":4361,"sant":4362,"mul":4363,"pose":4364,"ordin":4365,"rê":4366,"cha":4367,"offic":4368,"39":4369,"ought":4370,"Men":4371,"isten":4372,"pou":4373,"ways":4374,"blo":4375,"isch":4376,"zie":4377,"train":4378,"propos":4379,"également":4380,"cture":4381,"graph":4382,"bring":4383,"doit":4384,"Produ":4385,"dou":4386,"nehmen":4387,"üt":4388,"34":4389,"60":4390,"érie":4391,"Gu":4392,"dich":4393,"Pri":4394,"dence":4395,"tari":4396,"38":4397,"much":4398,"aller":4399,"rich":4400,"ling":4401,"stu":4402,"vation":4403,"bles":4404,"Artikel":4405,"sus":4406,"mati":4407,"sec":4408,"geb":4409,"Ou":4410,"happ":4411,"hom":4412,"situation":4413,"donn":4414,"Zu":4415,"show":4416,"still":4417,"gonna":4418,"hn":4419,"arri":4420,"curity":4421,"37":4422,"gent":4423,"against":4424,"add":4425,"popu":4426,"Di":4427,"call":4428,"az":4429,"nationale":4430,"mbres":4431,"48":4432,"force":4433,"iques":4434,"zw":4435,"membres":4436,"both":4437,"del":4438,"Apr":4439,"core":4440,"ready":4441,"arch":4442,"belie":4443,"après":4444,"march":4445,"My":4446,"jours":4447,"dio":4448,"health":4449,"spé":4450,"region":4451,"lage":4452,"Mais":4453,"aient":4454,"inten":4455,"Wi":4456,"UT":4457,"ession":4458,"cad":4459,"clear":4460,"droits":4461,"vidu":4462,"three":4463,"ator":4464,"respect":4465,"partment":4466,"name":4467,"org":4468,"refer":4469,"face":4470,"iert":4471,"fé":4472,"nie":4473,"data":4474,"ko":4475,"real":4476,"ément":4477,"CH":4478,"proble":4479,"Regulation":4480,"sans":4481,"culture":4482,"Col":4483,"curité":4484,"tem":4485,"tor":4486,"\".":4487,"mean":4488,"second":4489,"direct":4490,"opér":4491,"ism":4492,"Um":4493,"commer":4494,"during":4495,"head":4496,"wever":4497,"Dans":4498,"sto":4499,"tice":4500,"RE":4501,"sing":4502,"ID":4503,"beau":4504,"War":4505,"body":4506,"contra":4507,"cherche":4508,"Elle":4509,"tober":4510,"semb":4511,"issen":4512,"ones":4513,"aving":4514,"exist":4515,"Hey":4516,"light":4517,"great":4518,"state":4519,"sc":4520,"total":4521,"zus":4522,"ade":4523,"recomm":4524,"elt":4525,"dont":4526,"ability":4527,"country":4528,"available":4529,"area":4530,"mise":4531,"io":4532,"effic":4533,"32":4534,"tax":4535,"Yeah":4536,"vari":4537,"vin":4538,"cost":4539,"post":4540,"operation":4541,"water":4542,"senti":4543,"étu":4544,"bud":4545,"inform":4546,"fut":4547,"nal":4548,"cover":4549,"Let":4550,"xim":4551,"level":4552,"zer":4553,"Non":4554,"something":4555,"moins":4556,"ye":4557,"bat":4558,"products":4559,"ammen":4560,"Wie":4561,"Nove":4562,"soit":4563,"give":4564,"Chr":4565,"Septe":4566,"regard":4567,"loc":4568,"geben":4569,"individu":4570,"Am":4571,"gust":4572,"esti":4573,"éli":4574,"questions":4575,"glie":4576,"iste":4577,"avait":4578,"mom":4579,"ness":4580,"enter":4581,"without":4582,"hö":4583,"uni":4584,"Grou":4585,"55":4586,"Pl":4587,"large":4588,"prises":4589,"ization":4590,"gest":4591,"September":4592,"els":4593,"rights":4594,"Ré":4595,"jor":4596,"little":4597,"bour":4598,"house":4599,"grand":4600,"atives":4601,"inde":4602,"November":4603,"valuation":4604,"ihre":4605,"Arbe":4606,"International":4607,"inf":4608,"ology":4609,"local":4610,"urch":4611,"government":4612,"gouvernement":4613,"effor":4614,"sécurité":4615,"har":4616,"raph":4617,"addition":4618,"really":4619,"Organ":4620,"God":4621,"star":4622,"ktion":4623,"prior":4624,"1999":4625,"Über":4626,"Community":4627,"priv":4628,"Spe":4629,"Fa":4630,"Pe":4631,"kes":4632,"tenant":4633,"ohn":4634,"programmes":4635,"State":4636,"modi":4637,"onder":4638,"prise":4639,"friend":4640,"ield":4641,"ific":4642,"TH":4643,"lot":4644,"allow":4645,"origin":4646,"never":4647,"suc":4648,"Canadian":4649,"vities":4650,"lors":4651,"très":4652,"ode":4653,"offer":4654,"permet":4655,"President":4656,"quer":4657,"bed":4658,"là":4659,"médi":4660,"vou":4661,"tant":4662,"kte":4663,"implement":4664,"beso":4665,"rage":4666,"devra":4667,"type":4668,"ints":4669,"period":4670,"ieren":4671,"44":4672,"59":4673,"accep":4674,"special":4675,"prim":4676,"fig":4677,"agree":4678,"wee":4679,"sehr":4680,"particu":4681,"demande":4682,"ôle":4683,"nements":4684,"mble":4685,"tels":4686,"partie":4687,"month":4688,"avez":4689,"document":4690,"ian":4691,"suff":4692,"Mär":4693,"dy":4694,"buil":4695,"unden":4696,"eter":4697,"liament":4698,"Ko":4699,"crit":4700,"tains":4701,"droit":4702,"posed":4703,"constru":4704,"Ter":4705,"gie":4706,"fund":4707,"associ":4708,"Eng":4709,"bru":4710,"different":4711,"santé":4712,"April":4713,"ward":4714,"cell":4715,"control":4716,"Person":4717,"ihn":4718,"Bar":4719,"cing":4720,"August":4721,"glo":4722,"economic":4723,"instru":4724,"ban":4725,"require":4726,"halten":4727,"gé":4728,"win":4729,"weiter":4730,"row":4731,"ität":4732,"onn":4733,"Information":4734,"Wenn":4735,"Nä":4736,"since":4737,"appropri":4738,"autor":4739,"Janu":4740,"cup":4741,"Amer":4742,"gestion":4743,"cr":4744,"prendre":4745,"mobil":4746,"lung":4747,"ache":4748,"policy":4749,"provide":4750,"Gover":4751,"based":4752,"quent":4753,"PR":4754,"47":4755,"Web":4756,"Afri":4757,"didn":4758,"home":4759,"________":4760,"key":4761,"vier":4762,"ests":4763,"46":4764,"inves":4765,"free":4766,"zeu":4767,"gri":4768,"personnes":4769,"Dé":4770,"keine":4771,"ße":4772,"ply":4773,"positions":4774,"ologi":4775,"gegen":4776,"Cour":4777,"cie":4778,"règ":4779,"assur":4780,"children":4781,"recei":4782,"fonction":4783,"lon":4784,"mas":4785,"constitu":4786,"ichts":4787,"nive":4788,"duction":4789,"région":4790,"wieder":4791,"fä":4792,"gibt":4793,"Convention":4794,"dann":4795,"cadre":4796,"capac":4797,"measures":4798,"eines":4799,"eing":4800,"Wo":4801,"cies":4802,"Europä":4803,"toute":4804,"environment":4805,"identif":4806,"gleich":4807,"ker":4808,"base":4809,"assist":4810,"consu":4811,"Bet":4812,"müs":4813,"notre":4814,"load":4815,"ily":4816,"session":4817,"ander":4818,"Mitglie":4819,"Wer":4820,"Lu":4821,"Okay":4822,"sm":4823,"conclu":4824,"sex":4825,"provided":4826,"Act":4827,"Jo":4828,"Univers":4829,"cir":4830,"Land":4831,"ST":4832,"affe":4833,"research":4834,"ool":4835,"nis":4836,"chni":4837,"activités":4838,"love":4839,"spr":4840,"März":4841,"canadi":4842,"activities":4843,"zung":4844,"Aber":4845,"daß":4846,"million":4847,"sci":4848,"business":4849,"nature":4850,"Gesch":4851,"mesures":4852,"LE":4853,"management":4854,"unser":4855,"moy":4856,"lég":4857,"wür":4858,"schon":4859,"ror":4860,"bel":4861,"impro":4862,"hist":4863,"nu":4864,"Kommission":4865,"cin":4866,"ized":4867,"vue":4868,"illi":4869,"utes":4870,"jur":4871,"Une":4872,"pa":4873,"ition":4874,"while":4875,"hör":4876,"parties":4877,"profession":4878,"allen":4879,"sera":4880,"course":4881,"emp":4882,"better":4883,"link":4884,"bst":4885,"Pos":4886,"power":4887,"turn":4888,"range":4889,"57":4890,"reat":4891,"Hotel":4892,"major":4893,"Where":4894,"effect":4895,"sent":4896,"Trans":4897,"women":4898,"Dis":4899,"cop":4900,"données":4901,"seu":4902,"taken":4903,"ared":4904,"mod":4905,"tics":4906,"book":4907,"ête":4908,"esp":4909,"facil":4910,"tent":4911,"necess":4912,"afin":4913,"mand":4914,"coup":4915,"around":4916,"obser":4917,"Na":4918,"différ":4919,"working":4920,"ric":4921,"AP":4922,"crimin":4923,"section":4924,"Oc":4925,"paragraph":4926,"Char":4927,"gal":4928,"ane":4929,"ird":4930,"financial":4931,"èmes":4932,"56":4933,"amment":4934,"Source":4935,"ites":4936,"currently":4937,"58":4938,"With":4939,"tun":4940,"toi":4941,"came":4942,"fast":4943,"resp":4944,"exer":4945,"Mal":4946,"nit":4947,"specific":4948,"tenir":4949,"produits":4950,"mater":4951,"système":4952,"quality":4953,"oney":4954,"compte":4955,"access":4956,"Ihr":4957,"Americ":4958,"pendant":4959,"43":4960,"Parliament":4961,"gut":4962,"peuvent":4963,"Ph":4964,"uses":4965,"Ihre":4966,"Jahr":4967,"pati":4968,"France":4969,"asses":4970,"wal":4971,"wan":4972,"toutes":4973,"group":4974,"AD":4975,"cks":4976,"Yes":4977,"diffic":4978,"days":4979,"90":4980,"sement":4981,"sal":4982,"When":4983,"veux":4984,"woll":4985,"muss":4986,"why":4987,"imm":4988,"rer":4989,"lais":4990,"Assemb":4991,"stag":4992,"müssen":4993,"sig":4994,"Mer":4995,"tar":4996,"äch":4997,"ierung":4998,"lor":4999,"Ihnen":5000,"trou":5001,"Internet":5002,"vais":5003,"Dr":5004,"tie":5005,"personne":5006,"répon":5007,"neu":5008,"eas":5009,"öff":5010,"dia":5011,"term":5012,"Cor":5013,"Hau":5014,"sag":5015,"jou":5016,"fais":5017,"anim":5018,"means":5019,"oblig":5020,"dure":5021,"encore":5022,"transport":5023,"41":5024,"premi":5025,"langu":5026,"iner":5027,");":5028,"Date":5029,"strate":5030,"condu":5031,"explo":5032,"timm":5033,"June":5034,"Alle":5035,"ged":5036,"trois":5037,"increas":5038,"äu":5039,"tom":5040,"Leben":5041,"Ta":5042,"tron":5043,"lassen":5044,"night":5045,"Herr":5046,"80":5047,"tigen":5048,"Why":5049,"Stu":5050,"sehen":5051,"abo":5052,"moment":5053,"meine":5054,"tives":5055,"EL":5056,"politique":5057,"cember":5058,"enz":5059,"tung":5060,"territ":5061,"porte":5062,"budget":5063,"population":5064,"suite":5065,"IP":5066,"consult":5067,"pat":5068,"lick":5069,"deli":5070,"December":5071,"Posted":5072,"diesem":5073,"promo":5074,"viel":5075,"March":5076,"nos":5077,"matière":5078,"far":5079,"itation":5080,"bri":5081,"actions":5082,"gether":5083,"publique":5084,"):":5085,"sage":5086,"further":5087,"hour":5088,"ago":5089,"adt":5090,"probl":5091,"late":5092,"Comité":5093,"Minister":5094,"forme":5095,"ames":5096,"mie":5097,"another":5098,"représent":5099,"field":5100,"stre":5101,"........":5102,"National":5103,"always":5104,"via":5105,"recherche":5106,"fix":5107,"enfants":5108,"aum":5109,"ustom":5110,"jetzt":5111,"waren":5112,"weit":5113,"already":5114,"ßer":5115,"Sam":5116,"agri":5117,"42":5118,"server":5119,"Now":5120,"move":5121,"away":5122,"ron":5123,"commen":5124,"ately":5125,"whe":5126,"zeit":5127,"Are":5128,"html":5129,"mach":5130,"continu":5131,"pourra":5132,"Jah":5133,"iger":5134,"homme":5135,"phy":5136,"ception":5137,"pi":5138,"lex":5139,"kind":5140,"web":5141,"änder":5142,"IV":5143,"keep":5144,"ensure":5145,"stra":5146,"project":5147,"represent":5148,"fas":5149,"defin":5150,"fav":5151,"yer":5152,"ana":5153,"dien":5154,"connais":5155,"hor":5156,"fér":5157,"lat":5158,"sum":5159,"pm":5160,"ordnung":5161,"ried":5162,"analy":5163,"gment":5164,"bra":5165,"ws":5166,"pression":5167,"Pub":5168,"sof":5169,"zwischen":5170,"kle":5171,"monde":5172,"fication":5173,"taking":5174,"tific":5175,"text":5176,"oman":5177,"invol":5178,"hau":5179,"Febru":5180,"necessary":5181,"lack":5182,"pol":5183,"Af":5184,"tiv":5185,"reven":5186,"fach":5187,"proje":5188,"techni":5189,"weiß":5190,"zahl":5191,"understand":5192,"Come":5193,"péri":5194,"family":5195,"cate":5196,"nights":5197,"respons":5198,"experien":5199,"photo":5200,"sicher":5201,"list":5202,"ely":5203,"financi":5204,"together":5205,"versch":5206,"ommes":5207,"stän":5208,"regist":5209,"doing":5210,"raphe":5211,"appli":5212,"wes":5213,"ôt":5214,"decision":5215,"areas":5216,"procé":5217,"given":5218,"feel":5219,"résult":5220,"Frau":5221,"européenne":5222,"coming":5223,"environnement":5224,"lish":5225,"99":5226,"çon":5227,"cet":5228,"ctives":5229,"équi":5230,"lag":5231,"finden":5232,"mier":5233,"ever":5234,"inner":5235,"1998":5236,"concernant":5237,"ference":5238,"quested":5239,"stud":5240,"ba":5241,"ET":5242,"Zus":5243,"äf":5244,"Mitglied":5245,"legen":5246,"October":5247,"wit":5248,"général":5249,"anderen":5250,"Agen":5251,"niveau":5252,"file":5253,"URL":5254,"requested":5255,"opération":5256,"security":5257,"bab":5258,"These":5259,"dan":5260,"femmes":5261,"proce":5262,"avons":5263,"efforts":5264,"subst":5265,"Sou":5266,"54":5267,"éch":5268,"mitted":5269,"grow":5270,"vious":5271,"Stra":5272,"mus":5273,"tural":5274,"exem":5275,"Poli":5276,"Not":5277,"gir":5278,"mettre":5279,"rée":5280,"start":5281,"institutions":5282,"Fir":5283,"OP":5284,"sowie":5285,"establish":5286,"visions":5287,"next":5288,"equi":5289,"active":5290,"dri":5291,"gehen":5292,"aide":5293,"cret":5294,"tige":5295,"due":5296,"things":5297,"doi":5298,"big":5299,"lang":5300,"training":5301,"rup":5302,"êtes":5303,"iller":5304,"jam":5305,"Nr":5306,"ager":5307,"six":5308,"Pré":5309,"ious":5310,"members":5311,"Tag":5312,"anks":5313,"AB":5314,"ging":5315,"doch":5316,"Ob":5317,"treat":5318,"company":5319,"future":5320,"occup":5321,"wurden":5322,"OM":5323,"tien":5324,"paragraphe":5325,"ière":5326,"rien":5327,"nt":5328,"Vo":5329,"redu":5330,"dieses":5331,"viol":5332,"Kin":5333,"run":5334,"ureau":5335,"fahren":5336,"hast":5337,"Ils":5338,"année":5339,"expe":5340,"might":5341,"Deut":5342,"doivent":5343,"meth":5344,"taire":5345,"zeich":5346,"entlich":5347,"pg":5348,"Rus":5349,"effective":5350,"tial":5351,"small":5352,"July":5353,"phone":5354,"full":5355,"sic":5356,"ologie":5357,"Nächte":5358,"review":5359,"ENT":5360,"hon":5361,"sho":5362,"Bel":5363,"vu":5364,"proper":5365,"faut":5366,"satz":5367,"seine":5368,"machen":5369,"AG":5370,"happen":5371,"Har":5372,"élé":5373,"Office":5374,"believe":5375,"reco":5376,"account":5377,"fahr":5378,"etwas":5379,"bs":5380,"hic":5381,"Ru":5382,"Got":5383,"EM":5384,"perfor":5385,"EG":5386,"portun":5387,"pie":5388,"school":5389,"issues":5390,"doll":5391,"mocra":5392,"oire":5393,"Government":5394,"IL":5395,"Germany":5396,"called":5397,"essenti":5398,"design":5399,"itor":5400,"dial":5401,"Syste":5402,"Ça":5403,"documents":5404,"Your":5405,"zurück":5406,"ED":5407,"Lie":5408,"today":5409,"70":5410,"Tur":5411,"hig":5412,"lieu":5413,"objec":5414,"halb":5415,"January":5416,"hlen":5417,"aine":5418,"Che":5419,"education":5420,"ported":5421,"abilité":5422,"État":5423,"52":5424,"building":5425,"considé":5426,"ième":5427,"jpg":5428,"continue":5429,"camp":5430,"traite":5431,"Que":5432,"Stand":5433,"tim":5434,"cription":5435,"Dan":5436,"geht":5437,"Sal":5438,"macht":5439,"php":5440,"example":5441,"qué":5442,"Menschen":5443,"atory":5444,"solu":5445,"half":5446,"améli":5447,"51":5448,"unsere":5449,"tag":5450,"ground":5451,"done":5452,"Who":5453,"Vie":5454,"venir":5455,"points":5456,"talk":5457,"general":5458,"ories":5459,"notamment":5460,"pun":5461,"poten":5462,"tenu":5463,"chez":5464,"ety":5465,"One":5466,"won":5467,"related":5468,"déclar":5469,"inno":5470,"ined":5471,"meeting":5472,"auc":5473,"ran":5474,"road":5475,"wirk":5476,"Just":5477,"Service":5478,"ließ":5479,"Some":5480,"incre":5481,"intro":5482,"among":5483,"role":5484,"iff":5485,"needs":5486,"mate":5487,"bun":5488,"live":5489,"währ":5490,"CT":5491,"antes":5492,"basis":5493,"systems":5494,"mention":5495,"signific":5496,"att":5497,"using":5498,"alles":5499,"lead":5500,"chose":5501,"nécess":5502,"lands":5503,"vrai":5504,"left":5505,"mä":5506,"ying":5507,"arbeit":5508,"eld":5509,"gab":5510,"mag":5511,"job":5512,"zwei":5513,"Gemein":5514,"John":5515,"pic":5516,"idi":5517,"hear":5518,"interest":5519,"amélior":5520,"Pal":5521,"UTC":5522,"product":5523,"Tri":5524,"until":5525,"Teil":5526,"règlement":5527,"personnel":5528,"76":5529,"deta":5530,"food":5531,"press":5532,"53":5533,"IR":5534,"décision":5535,"achie":5536,"prog":5537,"tradition":5538,"trag":5539,"Plan":5540,"surve":5541,"cisions":5542,"Aut":5543,"sele":5544,"milit":5545,"pap":5546,"Minist":5547,"utz":5548,"wich":5549,"sever":5550,"required":5551,"results":5552,"conne":5553,"opportun":5554,"chaque":5555,"aven":5556,"benef":5557,"lines":5558,"burg":5559,"communau":5560,"break":5561,"voy":5562,"Bre":5563,"discus":5564,"inen":5565,"political":5566,"Fo":5567,"aim":5568,"However":5569,"Cette":5570,"Air":5571,"icher":5572,"sector":5573,"fs":5574,"Develop":5575,"Str":5576,"ither":5577,"laire":5578,"yes":5579,"Diese":5580,"Uhr":5581,"donc":5582,"ive":5583,"Unies":5584,"voll":5585,"Por":5586,"toujours":5587,"besoin":5588,"charge":5589,"Oui":5590,"forder":5591,"making":5592,"llen":5593,"relation":5594,"zent":5595,"soli":5596,"subject":5597,"Bas":5598,"practi":5599,"Europäischen":5600,"ka":5601,"manu":5602,"Bed":5603,"city":5604,"Num":5605,"Welt":5606,"habit":5607,"Grund":5608,"version":5609,"Annex":5610,"!!":5611,"fest":5612,"ATION":5613,"wait":5614,"exclu":5615,"risk":5616,"lear":5617,"note":5618,"Ag":5619,"éro":5620,"compl":5621,"exten":5622,"weise":5623,"mail":5624,"atte":5625,"super":5626,"strat":5627,"Sa":5628,"ull":5629,"ino":5630,"Kom":5631,"comes":5632,"accordance":5633,"lease":5634,"week":5635,"ressources":5636,"Cont":5637,"présente":5638,"Pas":5639,"ihm":5640,"cultural":5641,"nte":5642,"implementation":5643,"depuis":5644,"resources":5645,"CR":5646,"hard":5647,"contain":5648,"IM":5649,"cting":5650,"industrie":5651,"Look":5652,"police":5653,"Aust":5654,"amer":5655,"World":5656,"Besch":5657,"peux":5658,"internationale":5659,"kra":5660,"tran":5661,"derni":5662,"Nein":5663,"/-":5664,".)":5665,"custom":5666,"andere":5667,"processus":5668,"money":5669,"196":5670,"télé":5671,"common":5672,"thought":5673,"denen":5674,"stay":5675,"comment":5676,"einfach":5677,"autom":5678,"begin":5679,"ennes":5680,"importance":5681,"Bon":5682,"fort":5683,"include":5684,"few":5685,"Euro":5686,"therefore":5687,"band":5688,"gl":5689,"politiques":5690,"etz":5691,"Group":5692,"please":5693,"result":5694,"cut":5695,"possibil":5696,"instal":5697,"trade":5698,"above":5699,"Programme":5700,"Get":5701,"96":5702,"défin":5703,"offen":5704,"Prä":5705,"stop":5706,"fied":5707,"ellement":5708,"damit":5709,"pan":5710,"ists":5711,"relative":5712,"seig":5713,"Health":5714,"mittel":5715,"möglich":5716,"dru":5717,"rel":5718,"ensemble":5719,"difficul":5720,"airs":5721,"distribu":5722,"prati":5723,"once":5724,"known":5725,"gend":5726,"besch":5727,"fully":5728,"façon":5729,"least":5730,"Isra":5731,"months":5732,"participation":5733,"vale":5734,"capital":5735,"value":5736,"cord":5737,"pass":5738,"log":5739,"quelle":5740,"fis":5741,"etzt":5742,"organisation":5743,"wissen":5744,"ices":5745,"économique":5746,"ng":5747,"groupe":5748,"Kar":5749,"isen":5750,"ticles":5751,"enten":5752,"issue":5753,"OF":5754,"ommen":5755,"évaluation":5756,"satis":5757,"whether":5758,"Gar":5759,"ends":5760,"Mitgliedsta":5761,"relevant":5762,"okay":5763,"Region":5764,"esse":5765,"wr":5766,"tschaft":5767,"mel":5768,"invest":5769,"amar":5770,"Hel":5771,"lut":5772,"minutes":5773,"Gra":5774,"wish":5775,"1997":5776,"cken":5777,"problem":5778,"encou":5779,"rier":5780,"étab":5781,"88":5782,"Bere":5783,"condition":5784,"500":5785,"Ben":5786,"TR":5787,"ieurs":5788,"Verordnung":5789,"Art":5790,"stren":5791,"alité":5792,"wards":5793,"construction":5794,"yl":5795,"ös":5796,"jà":5797,"penses":5798,"whole":5799,"mois":5800,"nahmen":5801,"maxim":5802,"marché":5803,"anything":5804,"Seite":5805,"Frank":5806,"EP":5807,"TV":5808,"iser":5809,"appropriate":5810,"pack":5811,"situ":5812,"ping":5813,"ret":5814,"laboration":5815,"communication":5816,"hä":5817,"év":5818,"deut":5819,"global":5820,"ira":5821,"sim":5822,"hatte":5823,"uring":5824,"atch":5825,"assistance":5826,"shop":5827,"tier":5828,"Centre":5829,"kom":5830,"Jahre":5831,"jusqu":5832,"islation":5833,"having":5834,"stehen":5835,"lad":5836,"Fra":5837,"1996":5838,"années":5839,"sicht":5840,"weil":5841,"works":5842,"quand":5843,"mance":5844,"schaf":5845,"selon":5846,"75":5847,"community":5848,"requirements":5849,"El":5850,"conform":5851,"Mor":5852,"entes":5853,"weg":5854,"Mu":5855,"deal":5856,"close":5857,"anal":5858,"tification":5859,"mont":5860,"energy":5861,"minim":5862,"endre":5863,"déjà":5864,"Bri":5865,"reach":5866,"Part":5867,"cteur":5868,"flo":5869,"finance":5870,"bist":5871,"ix":5872,"compris":5873,"San":5874,"took":5875,"Good":5876,"increase":5877,"OL":5878,"extra":5879,"communic":5880,"legal":5881,"bau":5882,"dollars":5883,"bou":5884,"centre":5885,"nisse":5886,"changes":5887,"loi":5888,"industry":5889,"success":5890,"Entw":5891,"complete":5892,"chem":5893,"gas":5894,"illeurs":5895,"tut":5896,"wick":5897,"transfer":5898,"Sub":5899,"fam":5900,"chten":5901,"reason":5902,"Ke":5903,"ief":5904,"third":5905,"spéci":5906,"destin":5907,"folgen":5908,"CD":5909,"fai":5910,"Dar":5911,"denn":5912,"See":5913,"ausge":5914,"Development":5915,"jamais":5916,"though":5917,"juste":5918,"nouveau":5919,"regional":5920,"Republic":5921,"Bu":5922,"besser":5923,"Public":5924,"lea":5925,"equip":5926,"lée":5927,"renseig":5928,"commercial":5929,"étaient":5930,"compan":5931,"deral":5932,"porter":5933,"approach":5934,"isti":5935,"OS":5936,"Hol":5937,"illed":5938,"sagen":5939,"wend":5940,"Bank":5941,"hib":5942,"savoir":5943,"word":5944,"tation":5945,"cand":5946,"attention":5947,"éné":5948,"guide":5949,"writ":5950,"bank":5951,"pf":5952,"ises":5953,"détermin":5954,"cooperation":5955,"générale":5956,"Entwick":5957,"valu":5958,"lies":5959,"wohl":5960,"conse":5961,"Directive":5962,"etc":5963,"opin":5964,"fras":5965,"ateur":5966,"ley":5967,"UE":5968,"party":5969,"appar":5970,"98":5971,"secteur":5972,"cm":5973,"Environ":5974,"kun":5975,"Our":5976,"période":5977,"annex":5978,"alors":5979,"atri":5980,"contact":5981,"bad":5982,"streng":5983,"zo":5984,"private":5985,"öl":5986,"résultats":5987,"nichts":5988,"administration":5989,"keiten":5990,"millions":5991,"provin":5992,"95":5993,"rem":5994,"ork":5995,"Then":5996,"Pol":5997,"resolution":5998,"vient":5999,"frastru":6000,"cases":6001,"projects":6002,"Fri":6003,"Ces":6004,"Son":6005,"terror":6006,"held":6007,"matter":6008,"bec":6009,"Techn":6010,"THE":6011,"erre":6012,"ids":6013,"appu":6014,"dic":6015,"ichte":6016,"Pla":6017,"iben":6018,"near":6019,"tres":6020,"knowled":6021,"Services":6022,"fau":6023,"luss":6024,"ctiv":6025,"original":6026,"Mas":6027,"sat":6028,"Organisation":6029,"Indust":6030,"tional":6031,"brau":6032,"ville":6033,"COM":6034,"hang":6035,"organiz":6036,"ohne":6037,"February":6038,"town":6039,"stati":6040,"Tele":6041,"97":6042,"fran":6043,"Unternehmen":6044,"told":6045,"mäß":6046,"become":6047,"cannot":6048,"ctron":6049,"ev":6050,"pel":6051,"Stadt":6052,"ceux":6053,"Sk":6054,"Ak":6055,"union":6056,"Mann":6057,"SC":6058,"Für":6059,"spécial":6060,"taux":6061,"quar":6062,"partner":6063,"établis":6064,"improve":6065,"ball":6066,"alter":6067,"visit":6068,"euch":6069,"mesure":6070,"ii":6071,"ible":6072,"ination":6073,"suit":6074,"administra":6075,"Deutsch":6076,"rank":6077,"assess":6078,"peace":6079,"content":6080,"gens":6081,"address":6082,"First":6083,"tellt":6084,"competi":6085,"multi":6086,"cept":6087,"premier":6088,"lagen":6089,"Board":6090,"nahme":6091,"team":6092,"première":6093,"zone":6094,"Cap":6095,"Win":6096,"III":6097,"Please":6098,"gang":6099,"66":6100,"utilisation":6101,"Here":6102,"Çá":6103,"five":6104,"Eine":6105,"isme":6106,"chts":6107,"coordin":6108,"entreprises":6109,"zel":6110,"cole":6111,"Prof":6112,"Home":6113,"ums":6114,"Famil":6115,"laub":6116,"informations":6117,"seit":6118,"férence":6119,"üh":6120,"Ur":6121,"lated":6122,"regu":6123,"nothing":6124,"1995":6125,"speak":6126,"ems":6127,"rench":6128,"grande":6129,"cking":6130,"77":6131,"front":6132,"acter":6133,"Den":6134,"impact":6135,"staff":6136,"Ener":6137,"nelle":6138,"organisations":6139,"nam":6140,"frame":6141,"IF":6142,"ond":6143,"raison":6144,"sujet":6145,"oeu":6146,"Sur":6147,"lik":6148,"selbst":6149,"method":6150,"Tel":6151,"unique":6152,"Indi":6153,"Aug":6154,"ciety":6155,"illas":6156,"recommend":6157,"letz":6158,"established":6159,"physi":6160,"provisions":6161,"missions":6162,"sia":6163,"stüt":6164,"Bien":6165,"eau":6166,"var":6167,"atta":6168,"Mich":6169,"gni":6170,"ross":6171,"civil":6172,"cela":6173,"richt":6174,"York":6175,"mic":6176,"histor":6177,"By":6178,"van":6179,"Fol":6180,"kauf":6181,"tariat":6182,"Loi":6183,"Hand":6184,"groups":6185,"Fil":6186,"various":6187,"BAR":6188,"accès":6189,"bert":6190,"assi":6191,"amount":6192,"costs":6193,"éten":6194,"record":6195,"University":6196,"Zusammen":6197,"Human":6198,"avis":6199,"German":6200,"aspe":6201,"heute":6202,"exemple":6203,"\":":6204,"normal":6205,"examen":6206,"Sel":6207,"ury":6208,"Vol":6209,"Emp":6210,"tware":6211,"devrait":6212,"coû":6213,"diesen":6214,"employment":6215,"ased":6216,"Fer":6217,"flu":6218,"san":6219,"apply":6220,"Jahren":6221,"English":6222,"renseignements":6223,"saf":6224,"rules":6225,"ître":6226,"plans":6227,"beaucoup":6228,"ennent":6229,"deci":6230,"cast":6231,"Ele":6232,"Tout":6233,"French":6234,"SP":6235,"iß":6236,"dated":6237,"wach":6238,"upon":6239,"significant":6240,"leave":6241,"Gen":6242,"Haus":6243,"pouvoir":6244,"located":6245,"titre":6246,"projets":6247,"plusieurs":6248,"mun":6249,"pers":6250,"everything":6251,"structure":6252,"maintenant":6253,"ending":6254,"adap":6255,"authorities":6256,"pense":6257,"ilo":6258,"intérê":6259,"Aff":6260,"Mach":6261,"request":6262,"ateurs":6263,"ries":6264,"dev":6265,"mig":6266,"zusammen":6267,"Bus":6268,"würde":6269,"After":6270,"ural":6271,"verse":6272,"employe":6273,"father":6274,"judi":6275,"Ty":6276,"remain":6277,"agreement":6278,"Jus":6279,"tele":6280,"Hal":6281,"aw":6282,"sau":6283,"puter":6284,"confi":6285,",\"":6286,"ehen":6287,"claim":6288,"qualité":6289,"sû":6290,"Comment":6291,"Sicher":6292,"experience":6293,"unes":6294,"ili":6295,"kehr":6296,"prechen":6297,"prix":6298,"hold":6299,"particuli":6300,"looking":6301,"och":6302,"occas":6303,"ganz":6304,"ING":6305,"yet":6306,"price":6307,"several":6308,"went":6309,"Berlin":6310,"beste":6311,"correspon":6312,"certains":6313,"ihrer":6314,"compar":6315,"final":6316,"assurer":6317,"dents":6318,"ogue":6319,"Daten":6320,"Ca":6321,"Jap":6322,"ented":6323,"lah":6324,"réalis":6325,"Bei":6326,"augment":6327,"führt":6328,"office":6329,"Rap":6330,"ium":6331,"béné":6332,"ograph":6333,"determin":6334,"seiner":6335,"besonder":6336,"jan":6337,"Ontari":6338,"fine":6339,"bot":6340,"hours":6341,"Proble":6342,"eth":6343,"concent":6344,"hope":6345,"perfe":6346,"atural":6347,"itä":6348,"considered":6349,"kl":6350,"aines":6351,"Christ":6352,"Richt":6353,"iens":6354,"recent":6355,"appr":6356,"ffen":6357,"Pau":6358,"effet":6359,"Ontario":6360,"young":6361,"trouver":6362,"vince":6363,"persons":6364,"ics":6365,"Ti":6366,"serve":6367,"stain":6368,"Est":6369,"sorry":6370,"seulement":6371,"ico":6372,"stri":6373,"Sit":6374,"export":6375,"èrement":6376,"Durch":6377,"vels":6378,"favor":6379,"candid":6380,"board":6381,"????":6382,"uh":6383,"Reply":6384,"unde":6385,"Treat":6386,"wide":6387,"sons":6388,"mother":6389,"Sup":6390,"radio":6391,"Hier":6392,"justice":6393,"performance":6394,"sug":6395,"recommand":6396,"erst":6397,"quelque":6398,"%)":6399,"société":6400,"fédé":6401,"olle":6402,"seen":6403,"1994":6404,"werde":6405,"later":6406,"actually":6407,"inci":6408,"vas":6409,"amt":6410,"Paris":6411,"1990":6412,"mind":6413,"fish":6414,"mut":6415,"Institu":6416,"mains":6417,"voit":6418,"iné":6419,"87":6420,"King":6421,"SE":6422,"gies":6423,"sollte":6424,"PC":6425,"parten":6426,"ually":6427,"acy":6428,"ail":6429,"acqu":6430,"vos":6431,"lè":6432,"Also":6433,"terms":6434,"reser":6435,"dée":6436,"ahn":6437,"haus":6438,"Court":6439,"ule":6440,"zial":6441,"VI":6442,"zz":6443,"mental":6444,"emploi":6445,"plant":6446,"86":6447,"divers":6448,"ologies":6449,"West":6450,"enth":6451,"mode":6452,"Hotels":6453,"ischer":6454,"personal":6455,"ification":6456,"tage":6457,"joint":6458,"ring":6459,"knowledge":6460,"œu":6461,"Did":6462,"Cent":6463,"dor":6464,"choi":6465,"influ":6466,"His":6467,"nels":6468,"location":6469,"received":6470,"_BAR":6471,"telle":6472,"confir":6473,"technology":6474,"nouvelle":6475,"mort":6476,"violence":6477,"adopted":6478,"introdu":6479,"selves":6480,"dispositions":6481,"aged":6482,"strong":6483,"_BAR_":6484,"ency":6485,"Dien":6486,"istes":6487,"develo":6488,"aider":6489,"contrôle":6490,"single":6491,"sens":6492,"auto":6493,"resse":6494,"enough":6495,"More":6496,"according":6497,"85":6498,"bind":6499,"ological":6500,"combin":6501,"Ange":6502,"hän":6503,"solution":6504,"From":6505,"Président":6506,"zwe":6507,"igt":6508,"Other":6509,"individual":6510,"short":6511,"responsibil":6512,"Bra":6513,"yle":6514,"CC":6515,"user":6516,"ama":6517,"referred":6518,"ners":6519,"rieur":6520,"sites":6521,"gration":6522,"safety":6523,"dead":6524,"licher":6525,"hui":6526,"Fall":6527,"acts":6528,"ised":6529,"treatment":6530,"technical":6531,"aver":6532,"hät":6533,"län":6534,"Comp":6535,"Präsident":6536,"Spr":6537,"central":6538,"manière":6539,"wanted":6540,"Associ":6541,"Sor":6542,"event":6543,"welt":6544,"arrê":6545,"share":6546,"cum":6547,"bility":6548,"heure":6549,"Val":6550,"acces":6551,"kommt":6552,"bestimm":6553,"however":6554,"South":6555,"uten":6556,"ihnen":6557,"OK":6558,"ctors":6559,"Arbeit":6560,"seront":6561,"istan":6562,"cit":6563,"=\"":6564,"Kinder":6565,"nut":6566,"check":6567,"65":6568,"Mitgliedstaaten":6569,"appel":6570,"China":6571,"89":6572,"uel":6573,"pourrait":6574,"cs":6575,"300":6576,"language":6577,"jourd":6578,"fru":6579,"Tor":6580,"fire":6581,"vide":6582,"Thank":6583,"princi":6584,"domaine":6585,"perman":6586,"déce":6587,"provides":6588,"LA":6589,"mieux":6590,"ène":6591,"pal":6592,"Table":6593,"beh":6594,"Ents":6595,"problems":6596,"Ist":6597,"girl":6598,"concerned":6599,"ysis":6600,"reç":6601,"OT":6602,"dos":6603,"ras":6604,"tés":6605,"eli":6606,"kill":6607,"falls":6608,"code":6609,"coopération":6610,"Management":6611,"méth":6612,"patients":6613,"64":6614,"hotel":6615,"aint":6616,"Will":6617,"Social":6618,"discrimin":6619,"Op":6620,"ayant":6621,"Bereich":6622,"alten":6623,"game":6624,"relations":6625,"résolution":6626,"tir":6627,"others":6628,"lleicht":6629,"ining":6630,"reli":6631,"rä":6632,"tischen":6633,"particulier":6634,"atre":6635,"consé":6636,"serait":6637,"Zimmer":6638,"ming":6639,"function":6640,"Assembly":6641,"genommen":6642,"univers":6643,"führen":6644,"Department":6645,"neue":6646,"exé":6647,"Arbeits":6648,"gesehen":6649,"partir":6650,"doesn":6651,"additional":6652,"study":6653,"Jes":6654,"fonds":6655,"types":6656,"Nord":6657,"Flu":6658,"Gro":6659,"ett":6660,"Juli":6661,"else":6662,"gence":6663,"Bild":6664,"nouvelles":6665,"vance":6666,"online":6667,"ÿÿ":6668,"ffe":6669,"schri":6670,"agne":6671,"hing":6672,"Mark":6673,"living":6674,"environmental":6675,"offe":6676,"rédu":6677,"gime":6678,"Pap":6679,"mid":6680,"Maß":6681,"Pra":6682,"images":6683,"space":6684,"companies":6685,"curren":6686,"bunal":6687,"FR":6688,"stellen":6689,"rôle":6690,"grö":6691,"goods":6692,"gene":6693,"isla":6694,"AND":6695,"opinion":6696,"const":6697,"texte":6698,"recogni":6699,"source":6700,"affaires":6701,"levels":6702,"guy":6703,"ellen":6704,"ligne":6705,"joy":6706,"Informationen":6707,"connaiss":6708,"éner":6709,"directive":6710,"Proje":6711,"zimmer":6712,"gew":6713,"organizations":6714,"trop":6715,"Mil":6716,"DF":6717,"Main":6718,"American":6719,"eded":6720,"sir":6721,"index":6722,"celui":6723,"initiatives":6724,"äh":6725,"cretary":6726,"Of":6727,"parce":6728,"uelle":6729,"Treaty":6730,"kur":6731,"kein":6732,"Parla":6733,"System":6734,"».":6735,"articles":6736,"return":6737,"station":6738,"growth":6739,"recht":6740,"Rest":6741,"commit":6742,"paration":6743,"européen":6744,"communications":6745,"concerne":6746,"EEC":6747,"conformément":6748,"death":6749,"developed":6750,"leben":6751,"former":6752,"vaux":6753,"Every":6754,"Tour":6755,"either":6756,"suivant":6757,"Bal":6758,"infrastru":6759,"fan":6760,"particularly":6761,"eigen":6762,"measure":6763,"Pourquoi":6764,"laquelle":6765,"Preis":6766,"enqu":6767,"scien":6768,"often":6769,"lir":6770,"tez":6771,"Buch":6772,"möchte":6773,"grund":6774,"heart":6775,"Secré":6776,"sustain":6777,"ext":6778,"mine":6779,"material":6780,"Dann":6781,"ihren":6782,"ieur":6783,"Code":6784,"vidence":6785,"décembre":6786,"ya":6787,"investig":6788,"Security":6789,"oeuvre":6790,"neur":6791,"pé":6792,"simp":6793,"film":6794,"»,":6795,"illet":6796,"along":6797,"amb":6798,"guar":6799,"véri":6800,"zed":6801,"ills":6802,"tend":6803,"touch":6804,"tool":6805,"corre":6806,"espe":6807,"vote":6808,"fab":6809,"serious":6810,"views":6811,"91":6812,"North":6813,"indic":6814,"juin":6815,"Bau":6816,"rant":6817,"rates":6818,"included":6819,"participants":6820,"objet":6821,"Absatz":6822,"descri":6823,"saw":6824,"andel":6825,"Ri":6826,"Stre":6827,"bringen":6828,"ior":6829,"sea":6830,"standard":6831,"Agree":6832,"applicable":6833,"Research":6834,"previous":6835,"cience":6836,"Gott":6837,"quanti":6838,"gique":6839,"past":6840,"mari":6841,"liste":6842,"USA":6843,"lait":6844,"tot":6845,"rum":6846,"67":6847,"ado":6848,"aria":6849,"Rights":6850,"capacity":6851,"92":6852,"Ed":6853,"prison":6854,"sition":6855,"ney":6856,"Fran":6857,"len":6858,"vid":6859,"1992":6860,"standards":6861,"Proto":6862,"füg":6863,"meins":6864,"contract":6865,"sam":6866,"ktur":6867,"PS":6868,"contribution":6869,"CN":6870,"door":6871,"1993":6872,"égard":6873,"Fund":6874,"infor":6875,"direction":6876,"équ":6877,"thern":6878,")*":6879,"emer":6880,"bild":6881,"chance":6882,"liegt":6883,"presented":6884,"soon":6885,"econom":6886,"plied":6887,"Cal":6888,"bé":6889,"High":6890,"meille":6891,"tigt":6892,"ax":6893,"Economic":6894,"responsible":6895,"nationaux":6896,"occasion":6897,"Tro":6898,"concerning":6899,"dau":6900,"Fu":6901,"verschie":6902,"bate":6903,"anci":6904,"cru":6905,"Unis":6906,"fal":6907,"pages":6908,"offers":6909,"pot":6910,"Lux":6911,"thé":6912,"Bureau":6913,"proposed":6914,"neuen":6915,"vraiment":6916,"ators":6917,"mann":6918,"initiative":6919,"cker":6920,"couver":6921,"OC":6922,"immobil":6923,"groupes":6924,"unch":6925,"fourn":6926,"poser":6927,"Kön":6928,"Roy":6929,"parents":6930,"hält":6931,"IB":6932,"Mc":6933,"ecu":6934,"eux":6935,"zug":6936,"era":6937,"ordre":6938,"berg":6939,"cially":6940,"Mö":6941,"cke":6942,"ez":6943,"anning":6944,"tiful":6945,"viele":6946,"Accord":6947,"donné":6948,"organismes":6949,"ality":6950,"fair":6951,"tellen":6952,"schein":6953,"état":6954,"dement":6955,"liance":6956,"dest":6957,"Parlement":6958,"institution":6959,"vement":6960,"Post":6961,"rooms":6962,"liegen":6963,"forms":6964,"true":6965,"celle":6966,"commission":6967,"wollen":6968,"OJ":6969,"Ha":6970,"mechan":6971,"diction":6972,"heim":6973,"inn":6974,"words":6975,"bereits":6976,"framework":6977,"wirklich":6978,"gestellt":6979,"Verein":6980,"ventions":6981,"placed":6982,"objectifs":6983,"focus":6984,"news":6985,"Wasser":6986,"ano":6987,"monitor":6988,"juridi":6989,"problèmes":6990,"prä":6991,"drei":6992,"toire":6993,"vehic":6994,"Bro":6995,"donner":6996,"Mein":6997,"tisch":6998,"proposal":6999,"equipment":7000,"tz":7001,"issance":7002,"vons":7003,"amarillas":7004,"command":7005,"Cer":7006,"mg":7007,"ering":7008,"wirtschaft":7009,"Secretary":7010,"pendent":7011,"atures":7012,"Report":7013,"edoch":7014,"Cas":7015,"tit":7016,"====":7017,"bonne":7018,"während":7019,"EW":7020,"bir":7021,"natural":7022,"Gre":7023,"amend":7024,"problème":7025,"fier":7026,"produit":7027,"Hö":7028,"EX":7029,"Mrs":7030,"Comme":7031,"vations":7032,"quelques":7033,"Agency":7034,"Assemblée":7035,"kosten":7036,"Mai":7037,"ctures":7038,"Conference":7039,"valeur":7040,"worden":7041,"orie":7042,"agt":7043,"avais":7044,"box":7045,"increased":7046,"dows":7047,"vertu":7048,"Ah":7049,"Mag":7050,"cise":7051,"relatives":7052,"SA":7053,"Lab":7054,"Vers":7055,"ît":7056,"Mad":7057,"promotion":7058,"wegen":7059,"Name":7060,"vig":7061,"tellung":7062,"simple":7063,"Sant":7064,"ides":7065,"covered":7066,"Alors":7067,"Bur":7068,"wrong":7069,"makes":7070,"entreprise":7071,"Juni":7072,"poses":7073,"directly":7074,"sements":7075,"cheid":7076,"93":7077,"sources":7078,"syn":7079,"legt":7080,"suiv":7081,"Decision":7082,"soient":7083,"especially":7084,"pens":7085,"irit":7086,"commod":7087,"plu":7088,"partments":7089,"Tou":7090,"idea":7091,"wendung":7092,"Bru":7093,"draft":7094,"œuvre":7095,"zy":7096,"chi":7097,"unk":7098,".:":7099,"aix":7100,"expéri":7101,"developing":7102,"nécessaire":7103,"heits":7104,"ki":7105,"reports":7106,"class":7107,"glau":7108,"Offic":7109,"fight":7110,"fel":7111,"liber":7112,"minister":7113,"ham":7114,"Cro":7115,"olf":7116,"image":7117,"dispon":7118,"rial":7119,"Jour":7120,"née":7121,"ähr":7122,"arti":7123,"tiz":7124,"sier":7125,"gemein":7126,"Dieu":7127,"arrange":7128,"early":7129,"moyen":7130,"traitement":7131,"ersten":7132,"besondere":7133,"Wed":7134,"ielen":7135,"aliment":7136,"reichen":7137,"Net":7138,"mation":7139,"vio":7140,"prep":7141,"________________":7142,"fl":7143,"ox":7144,"broad":7145,"sound":7146,"apit":7147,"Lord":7148,"complex":7149,"seul":7150,"progress":7151,"steht":7152,"propri":7153,"sondern":7154,"forces":7155,"icip":7156,"porteur":7157,"nice":7158,"wäre":7159,"challen":7160,"Africa":7161,"illance":7162,"sei":7163,"Auto":7164,"atic":7165,"Fahr":7166,"desig":7167,"entire":7168,"ilfe":7169,"Park":7170,"character":7171,"mos":7172,"za":7173,"lose":7174,"indre":7175,"cès":7176,"Association":7177,"ouvez":7178,"pension":7179,"property":7180,"Agreement":7181,"City":7182,"simil":7183,"sait":7184,"gaben":7185,"aujourd":7186,"Merci":7187,"Number":7188,"IG":7189,"policies":7190,"schre":7191,"kg":7192,"media":7193,"Any":7194,"goti":7195,"court":7196,"happened":7197,"nun":7198,"rale":7199,"society":7200,"famille":7201,"classi":7202,"sollten":7203,"Because":7204,"investis":7205,"vée":7206,"jedoch":7207,"round":7208,"Allah":7209,"mars":7210,"78":7211,"exécu":7212,"outside":7213,"gues":7214,"sommes":7215,"ara":7216,"Groupe":7217,"Eins":7218,"findet":7219,"pau":7220,"tempor":7221,"refle":7222,"::":7223,"Ot":7224,"says":7225,"consul":7226,"Mom":7227,"getting":7228,"LL":7229,"ished":7230,"target":7231,"heures":7232,"déta":7233,"pursu":7234,"rag":7235,"Rah":7236,"schließ":7237,"dés":7238,"financement":7239,"wahr":7240,"AF":7241,"Wel":7242,"parts":7243,"ffic":7244,"safe":7245,"straté":7246,"hé":7247,"positive":7248,"Israel":7249,"House":7250,"bio":7251,"400":7252,"tures":7253,"dein":7254,"Sof":7255,"femme":7256,"61":7257,"Entwicklung":7258,"tische":7259,"ame":7260,"technologies":7261,"distribution":7262,"watch":7263,"Japan":7264,"dez":7265,"Lon":7266,"rement":7267,"involved":7268,"guys":7269,"genann":7270,"GR":7271,"nav":7272,"Span":7273,"enregist":7274,"portion":7275,"sell":7276,"someone":7277,"aspects":7278,"hi":7279,"miss":7280,"Free":7281,"wed":7282,"Special":7283,"provision":7284,"68":7285,"inspe":7286,"procedure":7287,"prices":7288,"nouveaux":7289,"Director":7290,"systèmes":7291,"ny":7292,"acci":7293,"obligations":7294,"IA":7295,"rése":7296,"atür":7297,"Hi":7298,"nell":7299,"parler":7300,"Mehr":7301,"formu":7302,"1991":7303,"remember":7304,"Hab":7305,"ften":7306,"instruments":7307,"travaux":7308,"déci":7309,"asked":7310,"similar":7311,"Saint":7312,"restaur":7313,"Von":7314,"activity":7315,"risque":7316,"94":7317,"sian":7318,"ships":7319,"visant":7320,"compag":7321,"ials":7322,"towards":7323,"TO":7324,"besoins":7325,"plic":7326,"below":7327,"eben":7328,"quant":7329,"walt":7330,"boy":7331,"Europa":7332,"ril":7333,"Fax":7334,"digen":7335,"affen":7336,"flex":7337,"avon":7338,"Ham":7339,"history":7340,"République":7341,"beim":7342,"direc":7343,"beautiful":7344,"gabe":7345,"äd":7346,"longer":7347,"purpose":7348,"lez":7349,"attra":7350,"lished":7351,"percent":7352,"info":7353,"alone":7354,".”":7355,"membre":7356,"expres":7357,"aring":7358,"teach":7359,"potential":7360,"woman":7361,"legislation":7362,"clients":7363,"paix":7364,"scre":7365,"garanti":7366,"flow":7367,"dois":7368,"claration":7369,"Mes":7370,"Geor":7371,"Tre":7372,"Tot":7373,"Pho":7374,"prü":7375,"America":7376,"Ital":7377,"heard":7378,"transpar":7379,"programs":7380,"seinen":7381,"sle":7382,"linie":7383,"files":7384,"fit":7385,"assessment":7386,"Pan":7387,"arian":7388,"tained":7389,"hören":7390,"hung":7391,"outre":7392,"bul":7393,"across":7394,"jeunes":7395,"loss":7396,"halt":7397,"pain":7398,"ministre":7399,"Bud":7400,"schaften":7401,"lign":7402,"passe":7403,"psy":7404,"effects":7405,"guarante":7406,"genau":7407,"oy":7408,"maine":7409,"antwor":7410,"itself":7411,"message":7412,"annexe":7413,"Bit":7414,"vul":7415,"useum":7416,"experts":7417,"Als":7418,"aps":7419,"Met":7420,"ize":7421,"tient":7422,"minor":7423,"études":7424,"consist":7425,"sence":7426,"musi":7427,"bitte":7428,"existing":7429,"exception":7430,"affir":7431,"èle":7432,"harmon":7433,"easy":7434,"wood":7435,"lay":7436,"clean":7437,"elect":7438,"tobre":7439,"MP":7440,"stor":7441,"categ":7442,"cedures":7443,"rées":7444,"dge":7445,"terme":7446,"venue":7447,"unserer":7448,"solutions":7449,"/-/-":7450,"bénéfic":7451,"analysis":7452,"analyse":7453,"Law":7454,"adoption":7455,"infe":7456,"trying":7457,"dete":7458,"Bil":7459,"separ":7460,"Down":7461,"sco":7462,"montr":7463,"operations":7464,"atal":7465,"excell":7466,"titude":7467,"restri":7468,"Oktober":7469,"Ton":7470,"maximum":7471,"Ara":7472,"................":7473,"kam":7474,"rather":7475,"events":7476,"modern":7477,"pourquoi":7478,"hört":7479,"Add":7480,"diver":7481,"Maybe":7482,"double":7483,"jud":7484,"negoti":7485,"morning":7486,"hommes":7487,"gaz":7488,"Rahmen":7489,"applications":7490,"bereit":7491,"tigung":7492,"Wes":7493,"Fur":7494,"paid":7495,"étant":7496,"crois":7497,"62":7498,"trait":7499,"Nicht":7500,"dépend":7501,"Up":7502,"Weg":7503,"born":7504,"étr":7505,"higher":7506,"compéten":7507,"qualif":7508,"ternal":7509,"iles":7510,"entwick":7511,"cô":7512,"search":7513,"IE":7514,"needed":7515,"réglement":7516,"étude":7517,"answer":7518,"foreign":7519,"music":7520,"trä":7521,"issant":7522,"mondi":7523,"Tit":7524,"ote":7525,"register":7526,"basic":7527,"wert":7528,"avaient":7529,"discrimination":7530,"TS":7531,"----":7532,"Oper":7533,"hum":7534,"Administ":7535,"Entscheid":7536,"yourself":7537,"pren":7538,"expected":7539,"Portu":7540,"Inde":7541,"rapports":7542,"govern":7543,"volution":7544,"feu":7545,"brought":7546,"Deutschland":7547,"rain":7548,"Personen":7549,"loy":7550,"fense":7551,"cris":7552,"gemäß":7553,"Jesus":7554,"tish":7555,"Best":7556,"rom":7557,"statt":7558,"orient":7559,"fle":7560,"almost":7561,"rations":7562,"figure":7563,"blood":7564,"aucune":7565,"kid":7566,"certaines":7567,"step":7568,"ason":7569,"améliorer":7570,"kunft":7571,"Sun":7572,"edom":7573,"reference":7574,"carried":7575,"Vis":7576,"Since":7577,"vit":7578,"euro":7579,"drink":7580,"84":7581,"kün":7582,"interes":7583,"Rich":7584,"Sir":7585,"AU":7586,"cool":7587,"octobre":7588,"équipe":7589,"ète":7590,"phase":7591,"****":7592,"prob":7593,"gesagt":7594,"europä":7595,"saires":7596,"David":7597,"hell":7598,"bene":7599,"lum":7600,"issent":7601,"evidence":7602,"caus":7603,"érer":7604,"unge":7605,"tschaf":7606,"kten":7607,"dazu":7608,"compet":7609,"leist":7610,"thank":7611,"cross":7612,"size":7613,"annual":7614,"septe":7615,"talking":7616,"étudi":7617,"website":7618,"created":7619,"activité":7620,"obtenir":7621,"pê":7622,"reste":7623,"encourage":7624,"mai":7625,"oires":7626,"ao":7627,"ritt":7628,"efficac":7629,"éléments":7630,"lorsque":7631,"font":7632,"Sen":7633,"vez":7634,"forward":7635,"greater":7636,"sts":7637,"montant":7638,"danger":7639,"dépenses":7640,"Section":7641,"raft":7642,"utter":7643,"anna":7644,"ands":7645,"72":7646,"OD":7647,"ktor":7648,"forcement":7649,"techniques":7650,"minimum":7651,"lange":7652,"ändern":7653,"dat":7654,"SM":7655,"âce":7656,"friends":7657,"surance":7658,"außer":7659,"Ergeb":7660,"carry":7661,"status":7662,"wing":7663,"Dez":7664,"entra":7665,"affect":7666,"technique":7667,"posé":7668,"bietet":7669,"cice":7670,"FOR":7671,"Mme":7672,"Jack":7673,"prê":7674,"create":7675,"federal":7676,"Total":7677,"procedures":7678,"Tod":7679,"funding":7680,"Ori":7681,"agre":7682,"zeug":7683,"links":7684,"gain":7685,"Fon":7686,"TER":7687,"News":7688,"remo":7689,"Cons":7690,"suchen":7691,"CON":7692,"conna":7693,"valid":7694,"enh":7695,"dings":7696,"coordination":7697,"gemacht":7698,"Sum":7699,"preu":7700,"septembre":7701,"lion":7702,"income":7703,"Nun":7704,"agit":7705,"died":7706,"emand":7707,"native":7708,"commerce":7709,"suppl":7710,"passé":7711,"Spiel":7712,"manufact":7713,"Mons":7714,"proté":7715,"authority":7716,"150":7717,"Mi":7718,"Paul":7719,"demon":7720,"lossen":7721,"Sim":7722,"schnit":7723,"onto":7724,"Ende":7725,"===":7726,"petit":7727,"olume":7728,"Hin":7729,"gic":7730,"juillet":7731,"einge":7732,"Tem":7733,"père":7734,"strengthen":7735,"attri":7736,"adopté":7737,"éducation":7738,"Lin":7739,"derung":7740,"average":7741,"Parties":7742,"investment":7743,"ätz":7744,"soir":7745,"Lebens":7746,"expla":7747,"soutien":7748,"Mex":7749,"bia":7750,"ria":7751,"Italy":7752,"official":7753,"pul":7754,"inge":7755,"delivery":7756,"balance":7757,"bourg":7758,"exercice":7759,"responsibility":7760,"alen":7761,"könnte":7762,"aisse":7763,"proceed":7764,"davon":7765,"Kle":7766,"Kir":7767,"fung":7768,"fang":7769,"proces":7770,"adu":7771,"oud":7772,"regular":7773,"mbH":7774,"63":7775,"Rè":7776,"maison":7777,"exact":7778,"workers":7779,"lost":7780,"surveillance":7781,"sûr":7782,"Ir":7783,"suffis":7784,"pouvez":7785,"cure":7786,"save":7787,"ami":7788,"laires":7789,"speed":7790,"letter":7791,"contributions":7792,"gave":7793,"London":7794,"ore":7795,"isn":7796,"limited":7797,"dle":7798,"ug":7799,"Hy":7800,"Kü":7801,"vois":7802,"Plus":7803,"eig":7804,"devant":7805,"conser":7806,"increasing":7807,"immedi":7808,"sels":7809,"ison":7810,"renfor":7811,"öffentlich":7812,"ength":7813,"ases":7814,"nove":7815,"Rück":7816,"municip":7817,"TA":7818,"submitted":7819,"champ":7820,"published":7821,"tas":7822,"placement":7823,"respective":7824,"GmbH":7825,"atu":7826,"saying":7827,"benefit":7828,"kenn":7829,"veut":7830,"Maßnahmen":7831,"quatre":7832,"added":7833,"Initi":7834,"west":7835,"itaire":7836,"tention":7837,"minute":7838,"Version":7839,"Strate":7840,"lass":7841,"verwen":7842,"dernier":7843,"estin":7844,"heiten":7845,"foot":7846,"brother":7847,"rise":7848,"collaboration":7849,"punkt":7850,"aucun":7851,"venu":7852,"intérêt":7853,"hur":7854,"network":7855,"sil":7856,"vr":7857,"som":7858,"deine":7859,"rable":7860,"rique":7861,"trau":7862,"ruppe":7863,"opportunity":7864,"Monsieur":7865,"Dam":7866,"Donner":7867,"Sud":7868,"agent":7869,"Dezember":7870,"Windows":7871,"gemeins":7872,"aufge":7873,"leader":7874,"ationen":7875,"lue":7876,"précis":7877,"thus":7878,"assu":7879,"iled":7880,"bres":7881,"Tribunal":7882,"RC":7883,"gangen":7884,"includes":7885,"standing":7886,"deliver":7887,"ingen":7888,"computer":7889,"Rechts":7890,"71":7891,"model":7892,"zeigen":7893,"étais":7894,"benefits":7895,"Partner":7896,"practice":7897,"Time":7898,"Central":7899,"Än":7900,"itable":7901,"aurait":7902,"79":7903,"istance":7904,"Gemeinschaft":7905,"janvier":7906,"hof":7907,"klär":7908,"Ren":7909,"ica":7910,"licence":7911,"DP":7912,"wand":7913,"erste":7914,"Party":7915,"bieten":7916,"dialogue":7917,"Mac":7918,"canadienne":7919,"novembre":7920,"Miss":7921,"odes":7922,"illa":7923,"counter":7924,"série":7925,"publication":7926,"offre":7927,"administrative":7928,"ounts":7929,"utiliser":7930,"Sol":7931,"hô":7932,"dafür":7933,"Hon":7934,"TC":7935,"lection":7936,"zi":7937,"celles":7938,"73":7939,"èces":7940,")(":7941,"81":7942,"oth":7943,"Milli":7944,"vés":7945,"supply":7946,"maines":7947,"seite":7948,"ckt":7949,"Super":7950,"Medi":7951,"procédure":7952,"atoire":7953,"pet":7954,"clin":7955,"Premi":7956,"temper":7957,"Wal":7958,"wife":7959,"deg":7960,"bede":7961,"seconds":7962,"exploitation":7963,"wichtig":7964,"Geld":7965,"zes":7966,"park":7967,"smo":7968,"achen":7969,"supérie":7970,"Mittel":7971,"intention":7972,"avril":7973,"mur":7974,"nten":7975,"themselves":7976,"82":7977,"ût":7978,"figur":7979,"onom":7980,"radi":7981,"Commissioner":7982,"ray":7983,"compon":7984,"ätze":7985,"Sche":7986,"Sü":7987,"einz":7988,"spital":7989,"leich":7990,"takes":7991,"ably":7992,"engine":7993,"UM":7994,"exchange":7995,"arbeiten":7996,"Glo":7997,"sagte":7998,"enjoy":7999,"lives":8000,"Priv":8001,"ford":8002,"walk":8003,"Sto":8004,"British":8005,"democra":8006,"regarding":8007,"1er":8008,"Out":8009,"quick":8010,"grès":8011,"lower":8012,"acht":8013,"bureau":8014,"mix":8015,"extre":8016,"fications":8017,"bekann":8018,"response":8019,"Slo":8020,"objectives":8021,"circu":8022,"reported":8023,"fallen":8024,"schie":8025,"Inc":8026,"enseig":8027,"auté":8028,"decisions":8029,"quences":8030,"ilt":8031,"Vide":8032,"send":8033,"iele":8034,"travel":8035,"quite":8036,"Pac":8037,"argent":8038,"Bul":8039,"CF":8040,"OU":8041,"NA":8042,"paper":8043,"Rat":8044,"comprend":8045,"signal":8046,"führung":8047,"woh":8048,"Form":8049,"größ":8050,"Nie":8051,"wall":8052,"designed":8053,"race":8054,"fins":8055,"égie":8056,"accept":8057,"haut":8058,"PL":8059,"studies":8060,"cinq":8061,"Rom":8062,"ulture":8063,"rapide":8064,"attack":8065,"Zahl":8066,"zei":8067,"],":8068,"Link":8069,"aging":8070,"estic":8071,"traité":8072,"Break":8073,"onen":8074,"oil":8075,"èce":8076,"employees":8077,"chter":8078,"clé":8079,"turned":8080,"sac":8081,"rig":8082,"providing":8083,"avantage":8084,"Journal":8085,"retour":8086,"Last":8087,"itag":8088,"création":8089,"PA":8090,"dant":8091,"Namen":8092,"tiers":8093,"baby":8094,"difficult":8095,"effectu":8096,"69":8097,"wise":8098,"materials":8099,"permis":8100,"Règ":8101,"tigkeit":8102,"listen":8103,"goci":8104,"generated":8105,"Dru":8106,"unt":8107,"stage":8108,"naires":8109,"Warum":8110,"dabei":8111,"perfect":8112,"Donnerstag":8113,"Tom":8114,"Back":8115,"client":8116,"cond":8117,"apter":8118,"crime":8119,"ressed":8120,"devraient":8121,"ael":8122,"avi":8123,"series":8124,"Musi":8125,"seiten":8126,"map":8127,"signed":8128,"infrastructure":8129,"ellschaft":8130,"cot":8131,"83":8132,"usion":8133,"bably":8134,"Van":8135,"bath":8136,"pil":8137,"stellung":8138,"Phil":8139,"König":8140,"context":8141,"cessaires":8142,"wind":8143,"kre":8144,"gegeben":8145,"Transport":8146,"wonder":8147,"début":8148,"gerade":8149,"gros":8150,"Möglich":8151,"pp":8152,"autorités":8153,"dort":8154,"quence":8155,"matic":8156,"Rates":8157,"Schul":8158,"suivi":8159,"Richtlinie":8160,"Mission":8161,"Ira":8162,"ilvia":8163,"beg":8164,"military":8165,"PE":8166,"aison":8167,"gig":8168,"moder":8169,"relating":8170,"item":8171,"prevent":8172,"Samstag":8173,"ns":8174,"auprès":8175,"mage":8176,"Over":8177,"nécessaires":8178,"ladys":8179,"surface":8180,"Mus":8181,"platz":8182,"rieben":8183,"mt":8184,"pool":8185,"started":8186,"Lors":8187,"intérieur":8188,"corpor":8189,"Qué":8190,"mécan":8191,"forum":8192,"einmal":8193,"Finanz":8194,"consultation":8195,"supplément":8196,"feed":8197,"myself":8198,"insbesondere":8199,"purposes":8200,"Prote":8201,"Freitag":8202,"siert":8203,"Wohn":8204,"effets":8205,"venant":8206,"opérations":8207,"Fi":8208,"Fun":8209,"canadien":8210,"killed":8211,"planning":8212,"mess":8213,"bodies":8214,"mination":8215,"Start":8216,"distri":8217,"organization":8218,"Grün":8219,"étrang":8220,"président":8221,"Bericht":8222,"olutions":8223,"decided":8224,"micro":8225,"Wa":8226,"ml":8227,"endant":8228,"appear":8229,"Work":8230,"advant":8231,"ams":8232,"innen":8233,"tified":8234,"achieve":8235,"ays":8236,"Secrétaire":8237,"province":8238,"Freund":8239,"cuse":8240,"ège":8241,"beach":8242,"facilities":8243,"ift":8244,"économiques":8245,"Photo":8246,"oben":8247,"village":8248,"whose":8249,"uis":8250,"worth":8251,"certific":8252,"ider":8253,"knew":8254,"tschafts":8255,"argu":8256,"lique":8257,"partners":8258,"happy":8259,"monitoring":8260,"advance":8261,"itz":8262,"voie":8263,"frais":8264,"Affairs":8265,"Camp":8266,"Quel":8267,"souvent":8268,"quelles":8269,"gst":8270,"dix":8271,"objectif":8272,"Frage":8273,"Schla":8274,"wollte":8275,"rus":8276,"chois":8277,"klar":8278,"ole":8279,"quels":8280,"vres":8281,"terre":8282,"deuxième":8283,"Qual":8284,"%.":8285,"fla":8286,"aime":8287,"normes":8288,"receive":8289,"Satur":8290,"quie":8291,"darauf":8292,"ceed":8293,"tawa":8294,"ghter":8295,"spirit":8296,"stock":8297,"pratiques":8298,"East":8299,"ladysilvia":8300,"deren":8301,"hätte":8302,"Right":8303,"incor":8304,"Loc":8305,"mère":8306,"prest":8307,"regions":8308,"Ort":8309,"strategy":8310,"fron":8311,"unst":8312,"Under":8313,"credit":8314,"1989":8315,"communities":8316,"AA":8317,"betre":8318,"cteurs":8319,"catég":8320,"milie":8321,"economy":8322,"Beis":8323,"issement":8324,"Dom":8325,"erhalten":8326,"prépar":8327,"suffic":8328,"farm":8329,"enda":8330,"photos":8331,"alisation":8332,"bereich":8333,"aries":8334,"Zent":8335,"nelles":8336,"ather":8337,"till":8338,"pret":8339,"jeder":8340,"aj":8341,"négoci":8342,"dernière":8343,"Kur":8344,"sun":8345,"régions":8346,"modifi":8347,"Ottawa":8348,"Dad":8349,"Amé":8350,"Québec":8351,"spécifi":8352,"seinem":8353,"sociale":8354,"Peter":8355,"passer":8356,"enfant":8357,"Geschäf":8358,"trol":8359,"values":8360,"kr":8361,"beginning":8362,"criter":8363,"swe":8364,"lying":8365,"route":8366,"Ministère":8367,"coûts":8368,"ühr":8369,"Regel":8370,"piel":8371,"discussion":8372,"ash":8373,"portant":8374,"durable":8375,"Qui":8376,".?":8377,"calend":8378,"capacité":8379,"Red":8380,"eting":8381,"aud":8382,"cine":8383,"avo":8384,"choses":8385,"moyens":8386,"Dre":8387,"Januar":8388,"Lat":8389,"Zur":8390,"weight":8391,"trouve":8392,"lande":8393,"DES":8394,"aher":8395,"Institute":8396,"ador":8397,"werk":8398,"regar":8399,"professional":8400,"Have":8401,"UL":8402,"mou":8403,"weis":8404,"Cy":8405,"hors":8406,"inger":8407,"pop":8408,"Bitte":8409,"relig":8410,"offr":8411,"species":8412,"sul":8413,"funds":8414,"schließlich":8415,"Dienst":8416,"ierte":8417,"74":8418,"ware":8419,"différents":8420,"Finan":8421,"dule":8422,"hoch":8423,"fournir":8424,"likely":8425,"meinen":8426,"substances":8427,"perspe":8428,"Uni":8429,"compla":8430,"pir":8431,"lock":8432,"bran":8433,"Pa":8434,"dimen":8435,"sense":8436,"Policy":8437,"illes":8438,"internal":8439,"welche":8440,"Ent":8441,"letzten":8442,"Tim":8443,"décisions":8444,"manif":8445,"Lou":8446,"Foto":8447,"Take":8448,"path":8449,"schnell":8450,"Pat":8451,"précé":8452,"SS":8453,"plom":8454,"unterstüt":8455,"croissance":8456,"tizens":8457,"äter":8458,"dens":8459,"software":8460,"Ban":8461,"freedom":8462,"risques":8463,"énergie":8464,"sw":8465,"Justice":8466,"Friday":8467,"Restaur":8468,"Gouver":8469,"intervention":8470,"HT":8471,"amin":8472,"Uh":8473,"ailleurs":8474,"vac":8475,"shit":8476,"Quand":8477,"seule":8478,"rein":8479,"unit":8480,"approved":8481,"CB":8482,"gone":8483,"associated":8484,"spo":8485,"proposition":8486,"étés":8487,"style":8488,"nombreux":8489,"Ziel":8490,"völ":8491,"essential":8492,"Kunden":8493,"coles":8494,"läu":8495,"Mem":8496,"einige":8497,"frei":8498,"garde":8499,"Anzahl":8500,"ierten":8501,"Jean":8502,"weeks":8503,"120":8504,"proto":8505,"wasn":8506,"permanent":8507,"card":8508,"def":8509,"viens":8510,"Luxem":8511,"moun":8512,"citizens":8513,"llt":8514,"principal":8515,"Med":8516,"Kingdom":8517,"atürlich":8518,"dessus":8519,"influence":8520,"combat":8521,"loads":8522,"dad":8523,"règles":8524,"mass":8525,"afen":8526,"gos":8527,"ultur":8528,"Star":8529,"Forum":8530,"näch":8531,"volume":8532,"Ris":8533,"orrow":8534,"Toute":8535,"DLL":8536,"rea":8537,"grün":8538,"poor":8539,"Note":8540,"allem":8541,"Pati":8542,"sibles":8543,"PDF":8544,"dee":8545,"option":8546,"Gal":8547,"dû":8548,"indem":8549,"tenance":8550,"trust":8551,"belle":8552,"passen":8553,"Haupt":8554,"Os":8555,"Child":8556,"operating":8557,">>":8558,"sere":8559,"audi":8560,"ibt":8561,"Règlement":8562,"réunion":8563,"Spain":8564,"funden":8565,"agreed":8566,"vest":8567,"rid":8568,"Woh":8569,"gc":8570,"tard":8571,"ragen":8572,"applied":8573,"gran":8574,"Las":8575,"statement":8576,"machine":8577,"sustainable":8578,"Further":8579,"became":8580,"deleg":8581,"competition":8582,"tä":8583,"poste":8584,"Leute":8585,"mondiale":8586,"setting":8587,"According":8588,"zeigt":8589,"preci":8590,"pendit":8591,"suivre":8592,"sufficient":8593,"conver":8594,"donne":8595,"bewer":8596,"ueur":8597,"blick":8598,"fte":8599,"lus":8600,"vile":8601,"ounded":8602,"industrial":8603,"behind":8604,"keinen":8605,"confér":8606,"stitut":8607,"kennen":8608,"agreements":8609,"Website":8610,"Frauen":8611,"Prin":8612,"hydro":8613,"déclaration":8614,"pén":8615,"efficace":8616,"Energie":8617,"Gree":8618,"geh":8619,"peup":8620,"aden":8621,"Pun":8622,"wants":8623,"tieren":8624,"Gegen":8625,"Markt":8626,"numéro":8627,"raum":8628,"vise":8629,"gehört":8630,"medical":8631,"promote":8632,"Business":8633,"vigueur":8634,"Vi":8635,"Schwe":8636,"Kre":8637,"Roman":8638,"quently":8639,"appui":8640,"(\"":8641,"bare":8642,"continued":8643,"tenue":8644,"approxim":8645,"mises":8646,"internationales":8647,"built":8648,"ürger":8649,"produced":8650,"biet":8651,"Division":8652,"formes":8653,"domin":8654,"ours":8655,"Author":8656,"instrument":8657,"meur":8658,"purch":8659,"inside":8660,"indicate":8661,"CEE":8662,"labour":8663,"tox":8664,"Afrique":8665,"600":8666,"Auch":8667,"gere":8668,"rat":8669,"imag":8670,"ériel":8671,"paie":8672,"autoris":8673,"Saturday":8674,"Nouve":8675,"Page":8676,"igences":8677,"iez":8678,"acté":8679,"agents":8680,"Yu":8681,"wers":8682,"jen":8683,"amended":8684,"citoy":8685,"andelt":8686,"Communauté":8687,"hous":8688,"nehmer":8689,"circum":8690,"department":8691,"matique":8692,"rue":8693,"cretariat":8694,"itäten":8695,"kä":8696,"throughout":8697,"behalf":8698,"dus":8699,"absence":8700,"payment":8701,"recommendations":8702,"Jer":8703,"ules":8704,"Action":8705,"cée":8706,"poin":8707,"Nur":8708,"veness":8709,"Pen":8710,"convention":8711,"rene":8712,"ißt":8713,"UNG":8714,"fro":8715,"defined":8716,"statisti":8717,"communautaire":8718,"HR":8719,"stär":8720,"notes":8721,"prév":8722,"Neu":8723,"ibles":8724,"\":\"":8725,"thous":8726,"läs":8727,"lutte":8728,"Problem":8729,"rait":8730,"iers":8731,"phas":8732,"Far":8733,"fault":8734,"mosph":8735,"places":8736,"XX":8737,"lict":8738,"TE":8739,"phen":8740,"black":8741,"quit":8742,"story":8743,"video":8744,"?\"":8745,"démocra":8746,"rappe":8747,"bey":8748,"While":8749,"immig":8750,"wesen":8751,"etwa":8752,"Docu":8753,"probably":8754,"régime":8755,"Alex":8756,"Parlament":8757,"requests":8758,"shows":8759,"grâce":8760,"announ":8761,"Sat":8762,"Michael":8763,"jemand":8764,"Vater":8765,"amples":8766,"Nacht":8767,"fähr":8768,"Him":8769,"vér":8770,"compos":8771,"Obje":8772,"mentioned":8773,"DR":8774,"Où":8775,"élabor":8776,"\",\"":8777,"rési":8778,"students":8779,"Forsch":8780,"ziehen":8781,"everyone":8782,"independent":8783,"doctor":8784,"dures":8785,"potenti":8786,"hands":8787,"sollen":8788,"enquête":8789,"Ve":8790,"zones":8791,"250":8792,"maybe":8793,"pratique":8794,"domaines":8795,"Agri":8796,"white":8797,"colon":8798,"Great":8799,"fich":8800,"connection":8801,"vrier":8802,"erz":8803,"Thurs":8804,"bag":8805,"evaluation":8806,"Bab":8807,"protect":8808,"Like":8809,"weitere":8810,"MR":8811,"eyes":8812,"sole":8813,"written":8814,"Christi":8815,"Europäische":8816,"seven":8817,"center":8818,"Ret":8819,"Zwe":8820,"bum":8821,"schied":8822,"reign":8823,"ski":8824,"arrive":8825,"ctronic":8826,"chtones":8827,"markets":8828,"große":8829,"sin":8830,"thinking":8831,"mented":8832,"sleep":8833,"plas":8834,"updated":8835,"Allez":8836,"naire":8837,"bleiben":8838,"demandes":8839,"schriften":8840,"audit":8841,"maintain":8842,"technologie":8843,"fail":8844,"unseren":8845,"assung":8846,"stances":8847,"chef":8848,"brauch":8849,"histoire":8850,"innovation":8851,"Mat":8852,"roit":8853,"Beit":8854,"occur":8855,"expérience":8856,"attribu":8857,"users":8858,"atell":8859,"Lan":8860,"traffic":8861,"CI":8862,"ita":8863,"absolu":8864,"Grand":8865,"statis":8866,"states":8867,"Meer":8868,"Team":8869,"wär":8870,"oting":8871,"fond":8872,"Tex":8873,"integra":8874,"hmen":8875,"Fä":8876,"sort":8877,"améri":8878,"domestic":8879,"stuff":8880,"science":8881,"principle":8882,"exigences":8883,"allowed":8884,"ghan":8885,"alian":8886,"agriculture":8887,"hes":8888,"soins":8889,"centres":8890,"hot":8891,"racht":8892,"schön":8893,"noted":8894,"norm":8895,"Thursday":8896,"coll":8897,"ease":8898,"lüs":8899,"ateg":8900,"teilung":8901,"Environment":8902,"Wissen":8903,"prepared":8904,"plor":8905,"floor":8906,"quo":8907,"calcul":8908,"subsi":8909,"Lage":8910,"lap":8911,"principles":8912,"During":8913,"GM":8914,"Stat":8915,"billion":8916,"tled":8917,"profit":8918,"Vorsch":8919,"choice":8920,"dessen":8921,"cés":8922,"meiner":8923,"Film":8924,"Det":8925,"ulation":8926,"identified":8927,"facilit":8928,"debate":8929,"effort":8930,"giving":8931,"Ihren":8932,"Sund":8933,"apartment":8934,"cen":8935,"confor":8936,"existe":8937,"depend":8938,"Cela":8939,"Entscheidung":8940,"gement":8941,"iency":8942,"count":8943,"för":8944,"MA":8945,"réun":8946,"Open":8947,"rez":8948,"roy":8949,"gg":8950,"symp":8951,"/?":8952,"equ":8953,"Ms":8954,"véhic":8955,"établissement":8956,"varie":8957,"mandat":8958,"ched":8959,"Vic":8960,"].":8961,"rep":8962,"Thanks":8963,"ariat":8964,"DER":8965,"options":8966,"Head":8967,"regul":8968,"issued":8969,"QU":8970,"eln":8971,"treten":8972,"Cri":8973,"wouldn":8974,"agenda":8975,"approche":8976,"sport":8977,"Wirtschafts":8978,"termine":8979,"communauté":8980,"opportunities":8981,"criteria":8982,"mê":8983,"exté":8984,"shown":8985,"agencies":8986,"Geschichte":8987,"gratu":8988,"practices":8989,"birth":8990,"Tal":8991,"ération":8992,"employés":8993,"Corpor":8994,"ecutive":8995,"century":8996,"Ass":8997,"revenu":8998,"obligation":8999,"expect":9000,"glichen":9001,"encoura":9002,"Hor":9003,"mondial":9004,"rieb":9005,"objective":9006,"Chair":9007,"tan":9008,"proportion":9009,"Sicherheit":9010,"FA":9011,"großen":9012,"Sw":9013,"fuck":9014,"reduce":9015,"Bi":9016,"Los":9017,"Applic":9018,"tionen":9019,"Port":9020,"Portugal":9021,"termes":9022,"yez":9023,"acquis":9024,"pertin":9025,"dose":9026,"réseau":9027,"Ear":9028,"Ober":9029,"groß":9030,"craft":9031,"dynam":9032,"entraî":9033,"kit":9034,"ek":9035,"anyone":9036,"attend":9037,"Kunst":9038,"Mw":9039,"économie":9040,"entry":9041,"nia":9042,"darf":9043,"assurance":9044,"zeichnet":9045,"hit":9046,"verb":9047,"cycle":9048,"HER":9049,"sud":9050,"clearly":9051,"Bay":9052,"propre":9053,"igung":9054,"nationales":9055,"stimm":9056,"pointed":9057,"laden":9058,"février":9059,"progres":9060,"ague":9061,"contrô":9062,"folgt":9063,"communi":9064,"reasons":9065,"archite":9066,"leading":9067,"reti":9068,"entfer":9069,"demandé":9070,"intégr":9071,"ünsti":9072,"Breakfast":9073,"décou":9074,"Industrie":9075,"sales":9076,"interests":9077,"calcu":9078,"Nut":9079,"amm":9080,"Hu":9081,"pressure":9082,"ändert":9083,"survi":9084,"Ann":9085,"description":9086,"pick":9087,"reform":9088,"zü":9089,"thes":9090,"arily":9091,"Guide":9092,"provincial":9093,"ront":9094,"DI":9095,"ßt":9096,"chac":9097,"responsabilité":9098,"plupart":9099,"Two":9100,"Conférence":9101,"permettre":9102,"creation":9103,"vielleicht":9104,"Alber":9105,"connaissance":9106,"anda":9107,"essor":9108,"compens":9109,"entlichen":9110,"référence":9111,"800":9112,"truth":9113,"utôt":9114,"Gi":9115,"chang":9116,"örper":9117,"proposals":9118,"hlt":9119,"accommod":9120,"Trade":9121,"ersch":9122,"rock":9123,"engage":9124,"African":9125,"undes":9126,"tenus":9127,"engagement":9128,"Gene":9129,"Mutter":9130,"essay":9131,"beiden":9132,"Day":9133,"agricultural":9134,"River":9135,"Global":9136,"collection":9137,"himself":9138,"ikan":9139,"intéress":9140,"fille":9141,"”,":9142,"played":9143,"fucking":9144,"Austral":9145,"zogen":9146,"Dou":9147,"semble":9148,"Constitu":9149,"ismus":9150,"waste":9151,"tab":9152,"kor":9153,"stal":9154,"para":9155,"disposition":9156,"Verfüg":9157,"quelqu":9158,"Design":9159,"orial":9160,"Anwendung":9161,"lichkeit":9162,"différentes":9163,"Em":9164,"gency":9165,"-,":9166,"dige":9167,"Herz":9168,"earth":9169,"enhance":9170,"rän":9171,"association":9172,"procédures":9173,"urer":9174,"marchés":9175,"animal":9176,"couple":9177,"Fonds":9178,"Cur":9179,"Institut":9180,"representatives":9181,"Natur":9182,"Recht":9183,"ferences":9184,"ato":9185,"fy":9186,"offici":9187,"ECU":9188,"details":9189,"Vir":9190,"wanna":9191,"ena":9192,"reporting":9193,"regulations":9194,"1988":9195,"ministère":9196,"atever":9197,"abilities":9198,"Federal":9199,"schnitt":9200,"Tage":9201,"erforder":9202,"goes":9203,"understanding":9204,"consultations":9205,"innerhalb":9206,"aura":9207,"Kol":9208,"weap":9209,"EA":9210,"Ukra":9211,"Software":9212,"demander":9213,"pretty":9214,"lungs":9215,"”.":9216,"armes":9217,"recommandations":9218,"Bos":9219,"çais":9220,"gets":9221,"règle":9222,"%,":9223,"border":9224,"scientif":9225,"laid":9226,"exhib":9227,"Lis":9228,"lam":9229,"1980":9230,"efficient":9231,"Online":9232,"conclusions":9233,"overall":9234,"existence":9235,"Next":9236,"distance":9237,"liqui":9238,"Sonn":9239,"Dem":9240,"spre":9241,"oub":9242,"itaires":9243,"Ci":9244,"UK":9245,"installation":9246,"hospital":9247,"meetings":9248,"consideration":9249,"élaboration":9250,"items":9251,"cter":9252,"fils":9253,"matters":9254,"methods":9255,"DA":9256,"wus":9257,"expendit":9258,"Hoch":9259,"traditional":9260,"itung":9261,"Max":9262,"People":9263,"pêche":9264,"Having":9265,"kar":9266,"emission":9267,"processes":9268,"CP":9269,"porta":9270,"Män":9271,"rail":9272,"Aussch":9273,"Produkte":9274,"Women":9275,"mment":9276,"rendre":9277,"guerre":9278,"supp":9279,"wies":9280,"vative":9281,"réponse":9282,"pursuant":9283,"roll":9284,"Anti":9285,"buy":9286,"origine":9287,"Wait":9288,"cam":9289,"Einzel":9290,"ambre":9291,"Regist":9292,"collectiv":9293,"ché":9294,"cia":9295,"rule":9296,"Ant":9297,"ordonn":9298,"jeden":9299,"schafts":9300,"Bor":9301,"compre":9302,"Education":9303,"recommen":9304,"notice":9305,"commune":9306,"diffusion":9307,"yeah":9308,"Programm":9309,"pedia":9310,"réser":9311,"Anhang":9312,"changed":9313,"efficacité":9314,"Dok":9315,"seems":9316,"ously":9317,"Dieser":9318,"milieu":9319,"importe":9320,"ienne":9321,"ART":9322,"Lim":9323,"Mater":9324,"accor":9325,"copy":9326,"Hallo":9327,"hensive":9328,"hatten":9329,"helfen":9330,"Beispiel":9331,"Mul":9332,"guess":9333,"continuer":9334,"assez":9335,"extreme":9336,"ifen":9337,"worked":9338,"1985":9339,"Après":9340,"ielle":9341,"shal":9342,"représentants":9343,"Dor":9344,"Museum":9345,"Hello":9346,"representative":9347,"priority":9348,"preuve":9349,"accro":9350,"établir":9351,"obst":9352,"_seiten":9353,"lö":9354,"partici":9355,"Wil":9356,"ude":9357,"format":9358,"avoid":9359,"faites":9360,"particulièrement":9361,"électron":9362,"currence":9363,"crisis":9364,"\")":9365,"ände":9366,"Ly":9367,"tens":9368,"gible":9369,"EUROP":9370,"progrès":9371,"conflict":9372,"Luft":9373,"sucht":9374,"mption":9375,"langue":9376,"identi":9377,"tests":9378,"majority":9379,"accident":9380,"ilom":9381,"admis":9382,"inement":9383,"intended":9384,"Sar":9385,"tomorrow":9386,"Pf":9387,"Atlan":9388,"renforcer":9389,".-":9390,"haven":9391,"mlich":9392,"sorte":9393,"relationship":9394,"mala":9395,"Telefon":9396,"comité":9397,"draw":9398,"statut":9399,"populations":9400,"reçu":9401,"laws":9402,"directement":9403,"Geschäfts":9404,"Way":9405,"prit":9406,"Organization":9407,"interested":9408,"Regulations":9409,"magne":9410,"Cre":9411,"NO":9412,"drive":9413,"journal":9414,"darüber":9415,"augmentation":9416,"erie":9417,"marchand":9418,"stratégie":9419,"Lös":9420,"Colom":9421,"réduire":9422,"lia":9423,"Only":9424,"closed":9425,"ologique":9426,"reduction":9427,"Hilfe":9428,"politik":9429,"learn":9430,"Augen":9431,"Working":9432,"completed":9433,"déterminer":9434,"ruption":9435,"étaire":9436,"Tues":9437,"1987":9438,"Waren":9439,"choix":9440,"Radi":9441,"hus":9442,"Standard":9443,"Sunday":9444,"fonda":9445,"lorsqu":9446,"lois":9447,"factors":9448,"kung":9449,"suivants":9450,"ède":9451,"fuge":9452,"Fest":9453,"cées":9454,"ares":9455,"Mail":9456,"auer":9457,"beson":9458,"expression":9459,"hood":9460,"konnte":9461,"fundament":9462,"ony":9463,"commitment":9464,"Kop":9465,"title":9466,"ilà":9467,"Stru":9468,"gän":9469,"nations":9470,"oui":9471,"determined":9472,"correct":9473,"dach":9474,"ona":9475,"gefunden":9476,"Tell":9477,"print":9478,"Arch":9479,"welcome":9480,"pollu":9481,"astro":9482,"gesam":9483,"Brit":9484,"Top":9485,"cab":9486,"assemb":9487,"rau":9488,"thre":9489,"simply":9490,"vine":9491,"rants":9492,"parle":9493,"drop":9494,"Bü":9495,"ktionen":9496,"Groß":9497,"nés":9498,"Monday":9499,"Herrn":9500,"lib":9501,"Ave":9502,"prac":9503,"stoff":9504,"paar":9505,"bilité":9506,"EWG":9507,"exactly":9508,"arme":9509,"plutôt":9510,"follows":9511,"Hers":9512,"recher":9513,"stellt":9514,"ruppen":9515,"Even":9516,"changements":9517,"secteurs":9518,"><":9519,"Colle":9520,"situations":9521,"Russian":9522,"Download":9523,"sale":9524,"diag":9525,"Sil":9526,"playing":9527,"idée":9528,"differen":9529,"successful":9530,"Ali":9531,"autés":9532,"accue":9533,"George":9534,"equal":9535,"stein":9536,"Afghan":9537,"Tuesday":9538,"Dur":9539,"ini":9540,"lio":9541,"Martin":9542,"green":9543,"haps":9544,"biens":9545,"launch":9546,"Fig":9547,"concept":9548,"ME":9549,"valent":9550,"créer":9551,"vait":9552,"Stunden":9553,"possibilité":9554,"glaube":9555,"season":9556,"ichen":9557,"movement":9558,"cue":9559,"aman":9560,"Jetzt":9561,"dép":9562,"knows":9563,"einges":9564,"sagt":9565,"Hen":9566,"aliné":9567,"délég":9568,"sha":9569,"compati":9570,"ONU":9571,"incorpor":9572,"Familie":9573,"fave":9574,"sold":9575,"Iran":9576,"cles":9577,"connu":9578,"Official":9579,"Clu":9580,"Dist":9581,"Gl":9582,"Mé":9583,"appoint":9584,"frage":9585,"rang":9586,"build":9587,"exécution":9588,"jeu":9589,"individuals":9590,"régu":9591,"tte":9592,"beding":9593,"Februar":9594,"establishing":9595,"concerns":9596,"nuclear":9597,"Musik":9598,"fres":9599,"adjust":9600,"elements":9601,"tête":9602,"conclusion":9603,"markt":9604,"cipl":9605,"Thom":9606,"Gouvernement":9607,"Quelle":9608,"patient":9609,"bung":9610,"examiner":9611,"ateral":9612,"erwar":9613,"Second":9614,"fabri":9615,"electric":9616,")-":9617,"Mode":9618,"insurance":9619,"préoccup":9620,"mary":9621,"holders":9622,"gegenüber":9623,"nuit":9624,"Fragen":9625,"vrir":9626,"structures":9627,"granted":9628,"chron":9629,"ließen":9630,"folg":9631,"Russia":9632,"schul":9633,"exclusive":9634,"abord":9635,"principes":9636,"officiel":9637,"partenaires":9638,"alités":9639,"ettes":9640,"1986":9641,"avan":9642,"games":9643,"arma":9644,"dimin":9645,"faite":9646,"ablement":9647,"visite":9648,"ISS":9649,"circumstances":9650,"ouvoir":9651,"pflich":9652,"stated":9653,"importante":9654,"COMM":9655,"gam":9656,"conven":9657,"Exper":9658,"ogle":9659,"emphas":9660,"enable":9661,"EST":9662,"vehicle":9663,"ép":9664,"direkt":9665,"Del":9666,"VER":9667,"hler":9668,"establishment":9669,"Krie":9670,"äl":9671,"aster":9672,"entrée":9673,"excellent":9674,"bla":9675,"profon":9676,"antas":9677,"waiting":9678,"MwSt":9679,"chs":9680,"semaine":9681,"territoire":9682,"Location":9683,"climate":9684,"gentle":9685,"Wednes":9686,"émissions":9687,"intes":9688,"financière":9689,"aktu":9690,"Ihrer":9691,"fiscal":9692,"CS":9693,"nä":9694,"bell":9695,"customers":9696,"screen":9697,"faveur":9698,"Swit":9699,"pus":9700,"abge":9701,"tée":9702,"trouvé":9703,"Food":9704,"expressed":9705,"ensur":9706,"bildung":9707,"BR":9708,"intelle":9709,"actuellement":9710,"mêmes":9711,"Pop":9712,"consoli":9713,"neigh":9714,"intel":9715,"hinter":9716,"disc":9717,"completely":9718,"physical":9719,"insu":9720,"whom":9721,"liday":9722,"essen":9723,"Unterstüt":9724,"arbeitet":9725,"maintenance":9726,"gelbe":9727,"läche":9728,"committee":9729,"compliance":9730,"JO":9731,"Sing":9732,"rog":9733,"durée":9734,"qués":9735,"School":9736,"entsprechen":9737,"blog":9738,"Kr":9739,"quée":9740,"Description":9741,"Kraft":9742,"ader":9743,"Hist":9744,"hst":9745,"hair":9746,"weniger":9747,"Regional":9748,"Pak":9749,"Phone":9750,"gotta":9751,"Agence":9752,"automati":9753,"éra":9754,"orders":9755,"iv":9756,"lequel":9757,"cos":9758,"zeugn":9759,"duty":9760,"jected":9761,"gré":9762,"idé":9763,"mau":9764,"évé":9765,"gern":9766,"usement":9767,"approval":9768,"detailed":9769,"Iraq":9770,"Such":9771,"envis":9772,"timate":9773,"voice":9774,"setzen":9775,"voyage":9776,"eigenen":9777,"heraus":9778,"glob":9779,"Wednesday":9780,"Bürger":9781,"remains":9782,"visory":9783,"Book":9784,"initial":9785,"thro":9786,"Kosten":9787,"Projekt":9788,"described":9789,"ising":9790,"aters":9791,"schle":9792,"élect":9793,"thanks":9794,"dow":9795,"gesetzt":9796,"followed":9797,"Nom":9798,"Put":9799,"Ministry":9800,"except":9801,"apitre":9802,"stück":9803,"gradu":9804,"estival":9805,"calendar":9806,"Sin":9807,"ül":9808,"itt":9809,"irgend":9810,"rural":9811,"lai":9812,"psych":9813,"stadt":9814,"Selon":9815,"gender":9816,"écrit":9817,"liers":9818,"affaire":9819,"utilisé":9820,"Wahr":9821,"annon":9822,"secure":9823,"août":9824,"sélection":9825,"ihrem":9826,"girls":9827,"arrangements":9828,"mist":9829,"igten":9830,"fün":9831,"später":9832,"telles":9833,"nd":9834,"tick":9835,"disease":9836,"Gas":9837,"Rou":9838,"omma":9839,"integration":9840,"Mid":9841,"taires":9842,"consac":9843,"Ken":9844,"cier":9845,"Platz":9846,"length":9847,"worry":9848,"genannten":9849,"sieht":9850,"volon":9851,"liés":9852,"Vielleicht":9853,"amendments":9854,"gouvernements":9855,"phe":9856,"iko":9857,"Dat":9858,"shot":9859,"réduction":9860,"steps":9861,"âge":9862,"tise":9863,"pover":9864,"gilt":9865,"compared":9866,"Luxembourg":9867,"intellect":9868,"ero":9869,"meinem":9870,"Cli":9871,"tragen":9872,"Although":9873,"Währ":9874,"èrent":9875,"immediately":9876,"Woche":9877,"provinces":9878,"abhän":9879,"luck":9880,"animals":9881,"Black":9882,"Pet":9883,"gien":9884,"itions":9885,"comments":9886,"highly":9887,"répondre":9888,"Ach":9889,"partement":9890,"laufen":9891,"insi":9892,"tré":9893,"external":9894,"Inves":9895,"typ":9896,"specified":9897,"enseignement":9898,"Belgi":9899,"Jul":9900,"td":9901,"vised":9902,"Werk":9903,"législation":9904,"transition":9905,"ende":9906,"faction":9907,"BE":9908,"itage":9909,"petite":9910,"FC":9911,"schö":9912,"Project":9913,"Datei":9914,"tiert":9915,"kannst":9916,"parent":9917,"kids":9918,"DU":9919,"évent":9920,"Geb":9921,"consomm":9922,"families":9923,"challenges":9924,"Protection":9925,"tools":9926,"libre":9927,"Minuten":9928,"release":9929,"approximately":9930,"Mary":9931,"ève":9932,"Sorry":9933,"côté":9934,"bevor":9935,"Room":9936,"geschlossen":9937,"Krank":9938,"hunder":9939,"looks":9940,"juridique":9941,"inste":9942,"capit":9943,"although":9944,"grant":9945,"strategic":9946,"Gren":9947,"aren":9948,"ady":9949,"Canadiens":9950,"Protocol":9951,"110":9952,"ori":9953,"atmosph":9954,"geführt":9955,"imple":9956,"handlung":9957,"gelbe_seiten":9958,"ky":9959,"krie":9960,"ald":9961,"electronic":9962,"Mic":9963,"marketing":9964,"Flor":9965,"endra":9966,"recommended":9967,"deration":9968,"eat":9969,"trags":9970,"Video":9971,"MS":9972,"Verbind":9973,"prési":9974,"pourraient":9975,"alternative":9976,"ois":9977,"limin":9978,"maß":9979,"modèle":9980,"stream":9981,"principe":9982,"Länder":9983,"licit":9984,"caracté":9985,"comprehensive":9986,"Bad":9987,"teile":9988,"undertaking":9989,"Haut":9990,"cry":9991,"avy":9992,"Zusammenarbeit":9993,"supported":9994,"fuhr":9995,"Kap":9996,"discipl":9997,"claire":9998,"oft":9999,"Schw":10000,"publics":10001,"substance":10002,"contained":10003,"conformit":10004,"Avec":10005,"deep":10006,"lux":10007,"hnt":10008,"meaning":10009,"europäischen":10010,"cook":10011,"méde":10012,"obstac":10013,"tail":10014,"daily":10015,"south":10016,"Rapport":10017,"suivantes":10018,"lights":10019,"conference":10020,"extent":10021,"dits":10022,"parmi":10023,"défense":10024,"prévention":10025,"wenig":10026,"keeping":10027,"Ker":10028,"formations":10029,"pleas":10030,"Chin":10031,"présenter":10032,"Tür":10033,"vet":10034,"fournit":10035,"DC":10036,"kan":10037,"itet":10038,"aves":10039,"Canadians":10040,"indicated":10041,"gute":10042,"besteht":10043,"connaître":10044,"motor":10045,"track":10046,"Alter":10047,"Kor":10048,"dates":10049,"gag":10050,"commande":10051,"schwer":10052,"sociaux":10053,"processing":10054,"eg":10055,"forget":10056,"ciale":10057,"internet":10058,"Contra":10059,"summer":10060,"registered":10061,"davantage":10062,"Ques":10063,"couldn":10064,"aume":10065,"wort":10066,"Alles":10067,"Water":10068,"einzel":10069,"modifications":10070,"Stop":10071,"listed":10072,"navig":10073,"PH":10074,"istics":10075,"Wind":10076,"akes":10077,"requires":10078,"Jim":10079,"observations":10080,"staat":10081,"allows":10082,"inqui":10083,"iso":10084,"manner":10085,"submit":10086,"discussions":10087,"Financial":10088,"Mot":10089,"éti":10090,"interpre":10091,"zin":10092,"contains":10093,"host":10094,"teilt":10095,"governmental":10096,"Männer":10097,"Bull":10098,"Dra":10099,"appeal":10100,"Reser":10101,"click":10102,"substanti":10103,"consistent":10104,"dium":10105,"classe":10106,"Meine":10107,"Rome":10108,"lant":10109,"pite":10110,"gesamt":10111,"Force":10112,"Kontr":10113,"consen":10114,"https":10115,"calls":10116,"bzw":10117,"reib":10118,"conseil":10119,"gives":10120,"running":10121,"ologiques":10122,"ML":10123,"scale":10124,"Toronto":10125,"ÿÿÿÿ":10126,"soft":10127,"kurz":10128,"Sci":10129,"Staaten":10130,"Dro":10131,"Analy":10132,"craw":10133,"murder":10134,"cers":10135,"aces":10136,"committed":10137,"reached":10138,"débat":10139,"Italian":10140,"Sign":10141,"sectors":10142,"lim":10143,"presents":10144,"maps":10145,"Dieses":10146,"chau":10147,"expan":10148,"niveaux":10149,"ump":10150,"autochtones":10151,"recours":10152,"Schutz":10153,"numbers":10154,"calling":10155,"judici":10156,"Hung":10157,"corps":10158,"affected":10159,"mers":10160,"uner":10161,"befindet":10162,"weisen":10163,"Parti":10164,"topic":10165,"fré":10166,"rière":10167,"denken":10168,"dispos":10169,"appelle":10170,"richten":10171,"gebracht":10172,"Mess":10173,"Sport":10174,"tho":10175,"fill":10176,"download":10177,"conducted":10178,"Western":10179,"Ergebnisse":10180,"Regierung":10181,"verschiedenen":10182,"Test":10183,"dür":10184,"estim":10185,"financiers":10186,"genre":10187,"Entsch":10188,"ganze":10189,"brauchen":10190,"Esp":10191,"plants":10192,"promise":10193,"fixed":10194,"Sonntag":10195,"Jose":10196,"bile":10197,"engag":10198,"zerland":10199,"Cop":10200,"Log":10201,"Somm":10202,"mals":10203,"Baby":10204,"Ukraine":10205,"anzu":10206,"languages":10207,"BC":10208,"spect":10209,"marchandises":10210,"DV":10211,"presence":10212,"Aboriginal":10213,"anglais":10214,"governments":10215,"Änder":10216,"Prü":10217,"tried":10218,"fügt":10219,"baren":10220,"Rob":10221,"Island":10222,"breakfast":10223,"iels":10224,"iling":10225,"einander":10226,"bois":10227,"Ord":10228,"exceed":10229,"ABl":10230,"achieved":10231,"aware":10232,"beyond":10233,"Bundes":10234,"comprendre":10235,"magn":10236,"travailleurs":10237,"voulez":10238,"évalu":10239,"recru":10240,"uels":10241,"anst":10242,"Seiten":10243,"AV":10244,"Saf":10245,"schutz":10246,"matériel":10247,"residen":10248,"Excuse":10249,"écou":10250,"propose":10251,"Alberta":10252,"NG":10253,"territory":10254,"kämp":10255,"secret":10256,"estate":10257,"rester":10258,"Sep":10259,"dang":10260,"promouvoir":10261,"criminal":10262,"installations":10263,"Toutefois":10264,"Etats":10265,"3D":10266,"integrated":10267,"determine":10268,"nein":10269,"ired":10270,"squ":10271,"reden":10272,"Position":10273,"ov":10274,"vain":10275,"principaux":10276,"valeurs":10277,"claims":10278,"blan":10279,"attemp":10280,"gative":10281,"pauvre":10282,"HIV":10283,"began":10284,"neut":10285,"faits":10286,"gelegt":10287,"Demo":10288,"collabor":10289,"==*":10290,"Liste":10291,"aign":10292,"usually":10293,"travers":10294,"difficile":10295,"immobili":10296,"senden":10297,"avenir":10298,"Swe":10299,"tifi":10300,"durant":10301,"Pass":10302,"inkl":10303,"supposed":10304,"max":10305,"entitled":10306,"approu":10307,"Switzerland":10308,"repe":10309,"juris":10310,"Initiative":10311,"sang":10312,"impossible":10313,"facile":10314,"voudra":10315,"responsable":10316,"Gruppe":10317,"Kultur":10318,"Wahl":10319,"ël":10320,"Schiff":10321,"Erfahr":10322,"cape":10323,"scientific":10324,"Unterstützung":10325,"LAN":10326,"dation":10327,"lent":10328,"terri":10329,"apport":10330,"mot":10331,"opti":10332,"bekannt":10333,"appare":10334,"tonight":10335,"primary":10336,"propriété":10337,"rencontr":10338,"reduced":10339,"competent":10340,"Kli":10341,"Colum":10342,"capacités":10343,"lieren":10344,"Most":10345,"nombreuses":10346,"investigation":10347,"MB":10348,"NE":10349,"devons":10350,"ständig":10351,"Cam":10352,"Press":10353,"Sohn":10354,"faisant":10355,"Amérique":10356,"Data":10357,"bom":10358,"drug":10359,"andon":10360,"dog":10361,"White":10362,"Bio":10363,"wine":10364,"adie":10365,"fédéral":10366,"contri":10367,"Leist":10368,"Show":10369,"evalu":10370,"units":10371,"cancer":10372,"Green":10373,"features":10374,"Wieder":10375,"daughter":10376,"Nation":10377,"fonctions":10378,"twoch":10379,"PP":10380,"About":10381,"nuclé":10382,"poverty":10383,"Weise":10384,"travailler":10385,"leistungen":10386,"Tru":10387,"ery":10388,"caractéris":10389,"Kenn":10390,"fif":10391,"Bestimm":10392,"Tax":10393,"regel":10394,"regulation":10395,"outi":10396,"youth":10397,"instance":10398,"Umwelt":10399,"Mittwoch":10400,"produce":10401,"intérêts":10402,"Company":10403,"méthodes":10404,"liberté":10405,"husband":10406,"Fern":10407,"nég":10408,"Willi":10409,"dès":10410,"uk":10411,"Therefore":10412,"street":10413,"Philip":10414,"tos":10415,"clair":10416,"forderungen":10417,"seem":10418,"rol":10419,"selection":10420,"learning":10421,"nutri":10422,"aking":10423,"offered":10424,"Ferien":10425,"islative":10426,"tically":10427,"changement":10428,"exprim":10429,"Inno":10430,"drück":10431,"Politik":10432,"citoyens":10433,"Insel":10434,"adequ":10435,"masch":10436,"James":10437,"nar":10438,"(+":10439,"dump":10440,"favour":10441,"Verfügung":10442,"fundamental":10443,"lungen":10444,"ielt":10445,"destro":10446,"mitt":10447,"lasse":10448,"introduction":10449,"voiture":10450,"ston":10451,"ichten":10452,"Joined":10453,"fangen":10454,"alinéa":10455,"trie":10456,"verschieden":10457,"Save":10458,"belong":10459,"peur":10460,"afri":10461,"Robert":10462,"médica":10463,"customer":10464,"liches":10465,"util":10466,"critères":10467,"Jac":10468,"han":10469,"plat":10470,"Amend":10471,"empê":10472,"heries":10473,"correspond":10474,"Kind":10475,"bound":10476,"lauf":10477,"Street":10478,"separate":10479,"besonders":10480,"Afghanistan":10481,"gun":10482,"égalité":10483,"multil":10484,"estima":10485,"honor":10486,"satell":10487,"aper":10488,"financing":10489,"disponibles":10490,"temperature":10491,"Prom":10492,"famili":10493,"Energy":10494,"identify":10495,"Millionen":10496,"vey":10497,"hypo":10498,"conservation":10499,"entfernt":10500,"->":10501,"Mont":10502,"illust":10503,"ardin":10504,"Ländern":10505,"ktions":10506,"usage":10507,"surtout":10508,"raid":10509,"plate":10510,"vielen":10511,"dente":10512,"FM":10513,"anten":10514,"functions":10515,"mad":10516,"ctural":10517,"Behör":10518,"fts":10519,"Produkt":10520,"matiques":10521,"signif":10522,"choose":10523,"ensuite":10524,"Lit":10525,"ahead":10526,"Brus":10527,"picture":10528,"Autor":10529,"instead":10530,"dernières":10531,"Verwalt":10532,"facteurs":10533,"fondament":10534,"Eas":10535,"scri":10536,"chim":10537,"Lake":10538,"vente":10539,"fragen":10540,"etzen":10541,"perform":10542,"temporary":10543,"participer":10544,"ICE":10545,"zte":10546,"indépend":10547,"bedro":10548,"ferenz":10549,"ically":10550,"visits":10551,"Church":10552,"Site":10553,"chsel":10554,"anken":10555,"identification":10556,"internationaux":10557,"df":10558,"échelle":10559,"master":10560,"nécessité":10561,"bahn":10562,"island":10563,"contexte":10564,"zuge":10565,"contribute":10566,"Price":10567,"français":10568,"manifest":10569,"Wort":10570,"una":10571,"subse":10572,"hotels":10573,"generally":10574,"selected":10575,"nimm":10576,"decre":10577,"appreci":10578,"Doch":10579,"Situation":10580,"bout":10581,"bid":10582,"sometimes":10583,"sociétés":10584,"gers":10585,"north":10586,"fünf":10587,"digital":10588,"raus":10589,"vacc":10590,"chain":10591,"transmission":10592,"growing":10593,"recently":10594,"gés":10595,"ètres":10596,"owner":10597,"cession":10598,"Review":10599,"Wochen":10600,"schrift":10601,"funktion":10602,"charges":10603,"match":10604,"difference":10605,"ae":10606,"rout":10607,"vées":10608,"weak":10609,"possibility":10610,"Patienten":10611,"daran":10612,"faith":10613,"fishing":10614,"tau":10615,"dele":10616,"dict":10617,"ploy":10618,"huh":10619,"category":10620,"slow":10621,"iche":10622,"caract":10623,"install":10624,"modification":10625,"mart":10626,"Eli":10627,"debt":10628,"adresse":10629,"......":10630,"distin":10631,"district":10632,"günsti":10633,"umin":10634,"Ltd":10635,"wp":10636,"itarian":10637,"Media":10638,"Constitution":10639,"getan":10640,"andels":10641,"skills":10642,"writing":10643,"eye":10644,"forest":10645,"obtain":10646,"uploads":10647,"moyenne":10648,"vehicles":10649,"messages":10650,"sister":10651,"rapid":10652,"havi":10653,"religi":10654,"Give":10655,"fonctionnement":10656,"suggest":10657,"daher":10658,"sprechen":10659,"tici":10660,"nez":10661,"Cha":10662,"rapporteur":10663,"fand":10664,"fän":10665,"leb":10666,"gessen":10667,"Verfahren":10668,"stake":10669,"Asia":10670,"Listen":10671,"importants":10672,"starting":10673,"accompl":10674,"Jahres":10675,"Italien":10676,"nic":10677,"Konta":10678,"consumption":10679,"machines":10680,"wunder":10681,"gewähr":10682,"miner":10683,"prepar":10684,"quickly":10685,"Chapter":10686,"fusion":10687,"Ros":10688,"indiqué":10689,"datab":10690,"ajout":10691,"Band":10692,"Call":10693,"ura":10694,"undred":10695,"contrat":10696,"chair":10697,"oph":10698,"tableau":10699,"faible":10700,"Captain":10701,"!\"":10702,"Tar":10703,"Use":10704,"sensi":10705,"gren":10706,"Nähe":10707,"représentant":10708,"stup":10709,"virtu":10710,"fasst":10711,"Tun":10712,"urban":10713,"destru":10714,"planification":10715,"Gesund":10716,"CAN":10717,"Hast":10718,"diplom":10719,"comb":10720,"implemented":10721,"ani":10722,"organisme":10723,"advantage":10724,"propres":10725,"Champ":10726,"lash":10727,"arbeiter":10728,"folgenden":10729,"Möglichkeit":10730,"=>":10731,"Mos":10732,"ancy":10733,"ierungs":10734,"variety":10735,"dier":10736,"entendu":10737,"Year":10738,"kü":10739,"asi":10740,"presse":10741,"travaill":10742,"Bob":10743,"Eh":10744,"bâ":10745,"piece":10746,"conséquent":10747,"Agent":10748,"bly":10749,"propositions":10750,"Gesamt":10751,"jury":10752,"Hause":10753,"druck":10754,"Spanish":10755,"compétences":10756,"Document":10757,"sert":10758,"autant":10759,"présenté":10760,"Sicherheits":10761,"Jun":10762,"ichtet":10763,"réserve":10764,"Statis":10765,"meisten":10766,"river":10767,"param":10768,"Nothing":10769,"Nether":10770,"jobs":10771,"Christian":10772,"cte":10773,"vérification":10774,"negotiations":10775,"Mün":10776,"tâ":10777,"ument":10778,"civile":10779,"Thema":10780,"married":10781,"160":10782,"County":10783,"discuss":10784,"tims":10785,"collective":10786,"jahr":10787,"]]":10788,"chlor":10789,"fehl":10790,"SCH":10791,"Inte":10792,"serv":10793,"langues":10794,"select":10795,"scope":10796,"1000":10797,"illez":10798,"photograph":10799,"lignes":10800,"Mob":10801,"valuer":10802,"introduced":10803,"ettbewer":10804,"Bis":10805,"amélioration":10806,"……":10807,"sugges":10808,"immédi":10809,"mobile":10810,"opposition":10811,"utet":10812,"wider":10813,"efficiency":10814,"EF":10815,"advice":10816,"Computer":10817,"wid":10818,"occu":10819,"iloso":10820,"Each":10821,"rück":10822,"007":10823,"extension":10824,"concentration":10825,"nord":10826,"ark":10827,"cade":10828,"implementing":10829,"anger":10830,"chst":10831,"ollen":10832,"thereof":10833,"directeur":10834,"shops":10835,"lei":10836,"financières":10837,"unless":10838,"ritten":10839,"Mari":10840,"Gesellschaft":10841,"Application":10842,"Dank":10843,"Pic":10844,"zip":10845,"verkauf":10846,"Those":10847,"Many":10848,"aéri":10849,"liter":10850,"anner":10851,"privé":10852,"Netherlands":10853,"ske":10854,"tiger":10855,"exercise":10856,"satisfaction":10857,"division":10858,"convient":10859,"zing":10860,"constitution":10861,"bib":10862,"Secretariat":10863,"supplémentaires":10864,"Mill":10865,"impression":10866,"permettant":10867,"poly":10868,"popular":10869,"MAR":10870,"hait":10871,"entsche":10872,"furt":10873,"quarter":10874,"Center":10875,"äre":10876,"rempla":10877,"restaurant":10878,"Ku":10879,"denti":10880,"liefer":10881,"priorities":10882,"dry":10883,"Verkehr":10884,"publik":10885,"offee":10886,"feld":10887,"würden":10888,"lac":10889,"LO":10890,"roffen":10891,"sichtlich":10892,"negative":10893,"Turkey":10894,"dimension":10895,"ram":10896,"confiance":10897,"arms":10898,"Chief":10899,"ECT":10900,"conférence":10901,"hér":10902,"enty":10903,"Ka":10904,"stations":10905,"usal":10906,"Today":10907,"operate":10908,"alifor":10909,"wareness":10910,"))":10911,"interven":10912,"souff":10913,"lip":10914,"Executive":10915,"inspection":10916,"protéger":10917,"offices":10918,"grands":10919,"acceptable":10920,"Support":10921,"frü":10922,"fax":10923,"color":10924,"integr":10925,"appliquer":10926,"guidelines":10927,"components":10928,"Stock":10929,"firm":10930,"allez":10931,"numer":10932,"dachte":10933,"anges":10934,"Deux":10935,"expli":10936,"conduct":10937,"Quebec":10938,"',":10939,"Ado":10940,"Ire":10941,"rechts":10942,"grandes":10943,"troisième":10944,"storage":10945,"pare":10946,"victimes":10947,"atteindre":10948,"guarantee":10949,"SR":10950,"replaced":10951,"amber":10952,"lien":10953,"medium":10954,"Gem":10955,"Tous":10956,"teilen":10957,"établi":10958,"Schweiz":10959,"Mio":10960,"haf":10961,"Articles":10962,"Washing":10963,"club":10964,"highest":10965,"griff":10966,"orien":10967,"ads":10968,"tify":10969,"regards":10970,"Members":10971,"assets":10972,"présence":10973,"ika":10974,"UB":10975,"church":10976,"zehn":10977,"posts":10978,"Dec":10979,"spielen":10980,"expertise":10981,"Haushal":10982,"absolute":10983,"Palestin":10984,"etzung":10985,"messen":10986,"books":10987,"Blut":10988,"refuge":10989,"formal":10990,"risks":10991,"Austria":10992,"kal":10993,"école":10994,"India":10995,"tei":10996,"déclaré":10997,"stabil":10998,"Cependant":10999,"altung":11000,"ASS":11001,"addressed":11002,"documentation":11003,"Ihrem":11004,"m2":11005,"incidence":11006,"liées":11007,"mbol":11008,"Abend":11009,"Brussels":11010,"Click":11011,"ake":11012,"délai":11013,"employed":11014,"opening":11015,"Chris":11016,"PO":11017,"names":11018,"souhait":11019,"responsabil":11020,"aded":11021,"denke":11022,"Very":11023,"ächlich":11024,"connaissances":11025,"proceedings":11026,"langen":11027,"fields":11028,"Mir":11029,"wahl":11030,"Never":11031,"siè":11032,"wachsen":11033,"uellement":11034,"chiff":11035,"Rei":11036,"PN":11037,"felt":11038,"finally":11039,"décidé":11040,"natürlich":11041,"sogar":11042,"ampf":11043,"constitue":11044,"trouble":11045,"useful":11046,"consommation":11047,"fou":11048,"zwar":11049,"2017":11050,"Fisch":11051,"publiques":11052,"Ireland":11053,"'.":11054,"Does":11055,"ORD":11056,"espèces":11057,"Denn":11058,"énon":11059,"largest":11060,"1984":11061,"hinaus":11062,"accepted":11063,"réglementation":11064,"Joh":11065,"Mun":11066,"ordon":11067,"Point":11068,"jouer":11069,"definition":11070,"strength":11071,"Tages":11072,"parking":11073,"Enter":11074,"hundred":11075,"behavi":11076,"lesen":11077,"aqu":11078,"abe":11079,"remar":11080,"Joe":11081,"“,":11082,"verkehr":11083,"exter":11084,"caused":11085,"Life":11086,"élevé":11087,"Four":11088,"relatif":11089,"survey":11090,"diverses":11091,")?":11092,"Follow":11093,"informed":11094,"loin":11095,"kept":11096,"WH":11097,"guests":11098,"giques":11099,"utilisés":11100,"aimer":11101,"éviter":11102,"adult":11103,"secré":11104,"ützt":11105,"fresh":11106,"prop":11107,"ierre":11108,"Sea":11109,"spiel":11110,"kin":11111,"wier":11112,"brief":11113,"caine":11114,"yeux":11115,"CL":11116,"preser":11117,"DG":11118,"dispar":11119,"richtung":11120,"manque":11121,"applicant":11122,"Frankreich":11123,"meilleure":11124,"nées":11125,"ller":11126,"accords":11127,"bald":11128,"skin":11129,"oxy":11130,"perspective":11131,"ptic":11132,"arbit":11133,"obtained":11134,"degree":11135,"kers":11136,"évaluer":11137,"operational":11138,"avantages":11139,"Sand":11140,"carte":11141,"olé":11142,"unterschied":11143,"canadiennes":11144,"Mel":11145,"fear":11146,"itäts":11147,"dlich":11148,"ält":11149,"çons":11150,"img":11151,"ativ":11152,"isches":11153,"bekommen":11154,"afraid":11155,"letzt":11156,"fäl":11157,"atom":11158,"Unsere":11159,"Bran":11160,"750":11161,"AID":11162,"cf":11163,"urgence":11164,"ctr":11165,"étro":11166,"expert":11167,"richtig":11168,"esprit":11169,"muß":11170,"Selbst":11171,"Bill":11172,"Patri":11173,"Safety":11174,"Washington":11175,"riff":11176,"standen":11177,"sexual":11178,"cart":11179,"völker":11180,"Scot":11181,"ental":11182,"clopedia":11183,"Danke":11184,"Nov":11185,"***":11186,"Machine":11187,"Depuis":11188,"ritte":11189,"endroit":11190,"succès":11191,"Territ":11192,"kleine":11193,"Royaume":11194,"ideal":11195,"uba":11196,"coût":11197,"habt":11198,"campaign":11199,"PI":11200,"priorités":11201,"pilot":11202,"Fac":11203,"Raum":11204,"gare":11205,"depos":11206,"Science":11207,"device":11208,"rian":11209,"willst":11210,"rendement":11211,"Administration":11212,"Text":11213,"damage":11214,"Club":11215,"verste":11216,"Environmental":11217,"Employ":11218,"\"?":11219,"Arab":11220,"SD":11221,"élè":11222,"demo":11223,"prevention":11224,"Flugh":11225,"warum":11226,"Google":11227,"eight":11228,"ots":11229,"mén":11230,"vital":11231,"stress":11232,"write":11233,"Indian":11234,"Found":11235,"critical":11236,"Allemagne":11237,"Parlaments":11238,"ädchen":11239,"Ev":11240,"lü":11241,"tile":11242,"victims":11243,"weder":11244,"agers":11245,"Mexico":11246,"bing":11247,"leadership":11248,"rice":11249,"éché":11250,"containing":11251,"rend":11252,"unver":11253,"atér":11254,"Barce":11255,"terrain":11256,"riers":11257,"quées":11258,"Control":11259,"savez":11260,"zil":11261,"fournisse":11262,"destination":11263,"accommodation":11264,"Thomas":11265,"Thr":11266,"umen":11267,"Invest":11268,"Notre":11269,"Royal":11270,"Gut":11271,"Mädchen":11272,"amis":11273,"consci":11274,"certainly":11275,"hurt":11276,"700":11277,"EB":11278,"Gleich":11279,"schluss":11280,"goal":11281,"investissement":11282,"explor":11283,"Sask":11284,"Restaurant":11285,"lässt":11286,"named":11287,"capable":11288,"pit":11289,"Schlaf":11290,"prohib":11291,"plein":11292,"drawn":11293,"catégorie":11294,"Egy":11295,"mem":11296,"thy":11297,"Vertrag":11298,"gelten":11299,"latest":11300,"kleinen":11301,"zeitig":11302,"régional":11303,"Budget":11304,"moving":11305,"aircraft":11306,"Kan":11307,"prefer":11308,"issaire":11309,"crédit":11310,"constant":11311,"Jud":11312,"tt":11313,"zess":11314,"records":11315,"izing":11316,"released":11317,"prennent":11318,"kitchen":11319,"rasse":11320,"permit":11321,"jedem":11322,"Heil":11323,"Maria":11324,"zig":11325,"bear":11326,"teller":11327,"Prior":11328,"Prozent":11329,"ANN":11330,"Material":11331,"task":11332,"erei":11333,"motion":11334,"Reise":11335,"adame":11336,"Master":11337,"Authority":11338,"ctif":11339,"espace":11340,"automatic":11341,"relax":11342,"internationalen":11343,"actual":11344,"1970":11345,"Folgen":11346,"Vene":11347,"sand":11348,"acte":11349,"CA":11350,"kel":11351,"hervor":11352,"raised":11353,"meilleur":11354,"Eigen":11355,"ived":11356,"concurrence":11357,"dark":11358,"Rolle":11359,"blue":11360,"invent":11361,"0000":11362,"euros":11363,"besten":11364,"verwendet":11365,"Hai":11366,"VAT":11367,"cents":11368,"tisti":11369,"isé":11370,"Real":11371,"consomma":11372,"digung":11373,"Fle":11374,"resses":11375,"indicat":11376,"schools":11377,"Beding":11378,"visible":11379,"mandate":11380,"Santé":11381,"Kopf":11382,"marche":11383,"payer":11384,"Nieder":11385,"Gaz":11386,"LES":11387,"istic":11388,"boat":11389,"store":11390,"Technology":11391,"Children":11392,"Job":11393,"Once":11394,"xy":11395,"ciaux":11396,"annique":11397,"Parag":11398,"nomm":11399,"dum":11400,"grave":11401,"adver":11402,"Chinese":11403,"fortable":11404,"industries":11405,"Télé":11406,"prech":11407,"Immobil":11408,"allery":11409,"abandon":11410,"crimes":11411,"mith":11412,"Höhe":11413,"schw":11414,"directives":11415,"sprach":11416,"leaders":11417,"longtemps":11418,"Liber":11419,"SO":11420,"ester":11421,"pray":11422,"cold":11423,"SH":11424,"inary":11425,"isms":11426,"prescri":11427,"1981":11428,"humaines":11429,"participate":11430,"musst":11431,"persön":11432,"heißt":11433,"whatever":11434,"intégration":11435,"bian":11436,"dossier":11437,"Sache":11438,"ffer":11439,"zusätz":11440,"causes":11441,"coast":11442,"passiert":11443,"accessible":11444,"réalisation":11445,"laubt":11446,"expenditure":11447,"emissions":11448,"1982":11449,"block":11450,"Probleme":11451,"Temper":11452,"Radio":11453,"chacun":11454,"duties":11455,"vont":11456,"partnership":11457,"Früh":11458,"ücksich":11459,"discussed":11460,"ganzen":11461,"opened":11462,"Nummer":11463,"awareness":11464,"élar":11465,"échange":11466,"Sem":11467,"examin":11468,"crazy":11469,"pictures":11470,"prévues":11471,"envoy":11472,"rated":11473,"button":11474,"cepti":11475,"ctivity":11476,"treated":11477,"Weiter":11478,"aiss":11479,"holding":11480,"Eink":11481,"py":11482,"sif":11483,"consulta":11484,"MENT":11485,"Pers":11486,"estime":11487,"pois":11488,"payments":11489,"dung":11490,"sav":11491,"antill":11492,"responsables":11493,"Santa":11494,"orientation":11495,"relie":11496,"composition":11497,"umes":11498,"publications":11499,"gars":11500,"marks":11501,"mouth":11502,"Custom":11503,"sports":11504,"nete":11505,"cash":11506,"rental":11507,"practical":11508,"oba":11509,"unserem":11510,"Cou":11511,"utile":11512,"Clar":11513,"Gold":11514,"reve":11515,"appointed":11516,"Seit":11517,"associations":11518,"bénéfici":11519,"impos":11520,"extr":11521,"optim":11522,"ifique":11523,"Frei":11524,"destroy":11525,"Dop":11526,"agg":11527,"sess":11528,"Zukunft":11529,"tiven":11530,"relatifs":11531,"easily":11532,"divi":11533,"gesetz":11534,"centrale":11535,"Frie":11536,"Instru":11537,"tuer":11538,"souha":11539,"allein":11540,"erreichen":11541,"fortun":11542,"registration":11543,"Bedeut":11544,"virus":11545,"Charles":11546,"Oct":11547,"anders":11548,"aca":11549,"earlier":11550,"agency":11551,"Lauf":11552,"Sozial":11553,"Direction":11554,"budg":11555,"Charter":11556,"amera":11557,"ensuring":11558,"Pay":11559,"theless":11560,"ops":11561,"fruit":11562,"glauben":11563,"Mur":11564,"folgende":11565,"Statisti":11566,"evening":11567,"Contact":11568,"bestehen":11569,"Amen":11570,"moved":11571,"Finally":11572,"financier":11573,"sures":11574,"renouve":11575,"médias":11576,"eaux":11577,"könnten":11578,"Training":11579,"recor":11580,"prévu":11581,"friendly":11582,"räge":11583,"scheint":11584,"chapitre":11585,"interpré":11586,"grade":11587,"maladie":11588,"Fis":11589,"demain":11590,"laisser":11591,"Süd":11592,"interne":11593,"Check":11594,"encyclopedia":11595,"emergency":11596,"BI":11597,"leaving":11598,"rai":11599,"reading":11600,"bridge":11601,"bedeutet":11602,"Hör":11603,"taxes":11604,"Keine":11605,"Auc":11606,"aurais":11607,"trip":11608,"Argent":11609,"Common":11610,"config":11611,"voulais":11612,"Victor":11613,"pollution":11614,"Glück":11615,"tch":11616,"montre":11617,"actes":11618,"Autom":11619,"weapons":11620,"provis":11621,"fuel":11622,"estimated":11623,"uration":11624,"séance":11625,"tonnes":11626,"fronti":11627,"IES":11628,"rad":11629,"sensibil":11630,"lettre":11631,"planned":11632,"importantes":11633,"Ra":11634,"minal":11635,"wirst":11636,"strategies":11637,"patri":11638,"électronique":11639,"steel":11640,"Votre":11641,"Columbia":11642,"departments":11643,"comptes":11644,"Belgium":11645,"lab":11646,"sections":11647,"diam":11648,"spent":11649,"ksam":11650,"anzös":11651,"Jahrhunder":11652,"wün":11653,"mente":11654,"Rock":11655,"Louis":11656,"Elles":11657,"tirer":11658,"sick":11659,"sozial":11660,"Unser":11661,"otherwise":11662,"appré":11663,"herr":11664,"largement":11665,"Netz":11666,"notwen":11667,"programming":11668,"tarif":11669,"Line":11670,"edu":11671,"gau":11672,"haltung":11673,"Fuß":11674,",”":11675,"]=>":11676,"itzen":11677,"unité":11678,"laisse":11679,"animaux":11680,"detail":11681,"Games":11682,"ählen":11683,"Hom":11684,"KB":11685,"Set":11686,"üb":11687,"prochen":11688,"Croati":11689,"Av":11690,"lits":11691,"mener":11692,"Fehler":11693,"Liebe":11694,"()":11695,"lié":11696,"damn":11697,"vite":11698,"stable":11699,"setzung":11700,"closure":11701,"öffentlichen":11702,"Agriculture":11703,"RES":11704,"[\"":11705,"idance":11706,"Bou":11707,"Manit":11708,"krank":11709,"ptions":11710,"changer":11711,"testing":11712,"Appe":11713,"Systems":11714,"Wert":11715,"verein":11716,"plit":11717,"middle":11718,"Bedeutung":11719,"Big":11720,"weißt":11721,"fabric":11722,"autorité":11723,"Amb":11724,"èque":11725,"mainly":11726,"Grö":11727,"feeling":11728,"regulatory":11729,"pauvreté":11730,"écr":11731,"warm":11732,"fugi":11733,"lou":11734,"amounts":11735,"casting":11736,"ón":11737,"chant":11738,"crire":11739,"continues":11740,"raisons":11741,"inférie":11742,"Masch":11743,"rapidement":11744,"caractère":11745,"RO":11746,"Ums":11747,"terres":11748,"scher":11749,"échantill":11750,"hésion":11751,"mouve":11752,"lications":11753,"models":11754,"procha":11755,"pher":11756,"Beau":11757,"Université":11758,"improved":11759,"Chine":11760,"acting":11761,"Neben":11762,"gentlemen":11763,"stone":11764,"benut":11765,"Zusammenhang":11766,"rejected":11767,"imports":11768,"pure":11769,"actuelle":11770,"equipped":11771,"challenge":11772,"Lar":11773,"flight":11774,"sowohl":11775,"election":11776,"zieh":11777,"gla":11778,"remb":11779,"sight":11780,"buch":11781,"brary":11782,"Read":11783,"1983":11784,"Richard":11785,"Imm":11786,"tons":11787,"etary":11788,"rati":11789,"gold":11790,"lets":11791,"déli":11792,"boten":11793,"chercher":11794,"terrorism":11795,"Familien":11796,"Einsatz":11797,"quet":11798,"gebung":11799,"Flug":11800,"hein":11801,"handic":11802,"Koso":11803,"fähig":11804,"Frankfurt":11805,"Sau":11806,"kilom":11807,"este":11808,"Audit":11809,"Gesetz":11810,"élément":11811,"Key":11812,"méthode":11813,"Ky":11814,"circulation":11815,"Provin":11816,"habil":11817,"dienst":11818,"decide":11819,"gress":11820,"ismes":11821,"postes":11822,"wild":11823,"œur":11824,"Preise":11825,"consumer":11826,"Hamburg":11827,"Blick":11828,"auteur":11829,"vocation":11830,"Archi":11831,"ANS":11832,"filles":11833,"évolution":11834,"Liter":11835,"ech":11836,"Thu":11837,"arriver":11838,"gleichen":11839,"Bat":11840,"Nice":11841,"rane":11842,"jection":11843,"prévoit":11844,"ctiveness":11845,"Resources":11846,"compensation":11847,"DVD":11848,"satellite":11849,"Kat":11850,"oples":11851,"humains":11852,"employee":11853,"--------":11854,"Kann":11855,"erfü":11856,"formed":11857,"generation":11858,"anderer":11859,"cities":11860,"stood":11861,"Mie":11862,"Would":11863,"hall":11864,"compli":11865,"commence":11866,"——":11867,"expo":11868,"renforcement":11869,"Spa":11870,"définition":11871,"stratégique":11872,"jenigen":11873,"filled":11874,"étran":11875,"accur":11876,"cular":11877,"Foreign":11878,"subsidi":11879,"Bahn":11880,"Dinge":11881,"salle":11882,"marine":11883,"indeed":11884,"ziert":11885,"riage":11886,"boys":11887,"sterreich":11888,"relativement":11889,"amour":11890,"Suite":11891,"instructions":11892,"haupt":11893,"logic":11894,"uf":11895,"eds":11896,"Steuer":11897,"horiz":11898,"Send":11899,"peine":11900,"Six":11901,"900":11902,"unternehmen":11903,"territorial":11904,"interesting":11905,"Greece":11906,"puisse":11907,"gerne":11908,"fassen":11909,"Origin":11910,"Tä":11911,"flat":11912,"tiens":11913,"rechte":11914,"offrir":11915,"ku":11916,"ypages":11917,"remer":11918,"dient":11919,"Banque":11920,"Ven":11921,"shared":11922,"gia":11923,"ounds":11924,"itié":11925,"suspe":11926,"announced":11927,"Manitoba":11928,"accompag":11929,"plais":11930,"130":11931,"enthalten":11932,"extremely":11933,"error":11934,"alte":11935,"Wach":11936,"Thus":11937,"rating":11938,"winter":11939,"shut":11940,"garden":11941,"artist":11942,"Gä":11943,"pattern":11944,"Villa":11945,"sofort":11946,"colog":11947,"Imp":11948,"ros":11949,"transactions":11950,"Premier":11951,"Qualität":11952,"délégation":11953,"rund":11954,"yo":11955,"forth":11956,"Angst":11957,"eller":11958,"organized":11959,"Society":11960,"habitants":11961,"amerikan":11962,"établissements":11963,"]]>":11964,"Wein":11965,"heat":11966,"concep":11967,"Consult":11968,"ideas":11969,"maintien":11970,"Access":11971,"Prime":11972,"Hat":11973,"Hil":11974,"connex":11975,"obvious":11976,"alive":11977,"villa":11978,"Wettbewer":11979,"ania":11980,"ulé":11981,"Govern":11982,"diversity":11983,"Licht":11984,"Tier":11985,"pts":11986,"rc":11987,"powers":11988,"témo":11989,"défini":11990,"recherches":11991,"pis":11992,"asing":11993,"ligence":11994,"tritt":11995,"canadiens":11996,"grü":11997,"Manager":11998,"alimentaire":11999,"Druck":12000,"Lorsque":12001,"spread":12002,"Même":12003,"Zum":12004,"kn":12005,"modu":12006,"god":12007,"Gottes":12008,"nant":12009,"erhö":12010,"infra":12011,"magaz":12012,"resulting":12013,"statements":12014,"Dés":12015,"contenu":12016,"schlä":12017,"holds":12018,"window":12019,"CTMR":12020,"komple":12021,"dumping":12022,"genug":12023,"itement":12024,"Haushalts":12025,"wirkungen":12026,"AIDS":12027,"requirement":12028,"Rapporteur":12029,"Wohnung":12030,"TM":12031,"isted":12032,"verfüg":12033,"procure":12034,"Bilder":12035,"ians":12036,"Spie":12037,"supporting":12038,"????????":12039,"voudrais":12040,"Pi":12041,"leid":12042,"served":12043,"Ther":12044,"gather":12045,"suscepti":12046,"Peut":12047,"réunions":12048,"hm":12049,"hle":12050,"sym":12051,"siehe":12052,"faces":12053,"fällt":12054,"Type":12055,"resource":12056,"viennent":12057,"fügen":12058,"gio":12059,"quiet":12060,"Furthermore":12061,"Its":12062,"Tue":12063,"rare":12064,"servir":12065,"preis":12066,"Resul":12067,"Salut":12068,"Swiss":12069,"nimmt":12070,"Han":12071,"coffee":12072,"lesquelles":12073,"versi":12074,"embar":12075,"ANT":12076,"Winter":12077,"hil":12078,"dert":12079,"Entre":12080,"géné":12081,"PRO":12082,"uren":12083,"therap":12084,"phon":12085,"Order":12086,"appears":12087,"Donc":12088,"Personal":12089,"Universität":12090,"anie":12091,"plaît":12092,"factor":12093,"toutefois":12094,"Frame":12095,"exig":12096,"Commer":12097,"étaires":12098,"IST":12099,"sky":12100,"Northern":12101,"concluded":12102,"explain":12103,"Sure":12104,"presque":12105,"détaill":12106,"wiesen":12107,"désol":12108,"Represent":12109,"drugs":12110,"destruction":12111,"iron":12112,"goals":12113,"package":12114,"suitable":12115,"BN":12116,"Bell":12117,"jede":12118,"classification":12119,"kennt":12120,"Effe":12121,"wear":12122,"innovative":12123,"Industry":12124,"onomy":12125,"pron":12126,"annivers":12127,"Meeting":12128,"collectivités":12129,"pin":12130,"locaux":12131,"Liefer":12132,"famous":12133,"dangerous":12134,"bedroom":12135,"audio":12136,"aimed":12137,"finish":12138,"Professor":12139,"ajou":12140,"bord":12141,"Ray":12142,"Parce":12143,"accounts":12144,"faciliter":12145,"fat":12146,"uelles":12147,"Peace":12148,"ständigen":12149,"Care":12150,"votes":12151,"reasonable":12152,"dürfen":12153,"Körper":12154,"MIN":12155,"aufgrund":12156,"accus":12157,"idency":12158,"IONS":12159,"locales":12160,"semaines":12161,"journée":12162,"player":12163,"1979":12164,"Kün":12165,"tö":12166,"Search":12167,"entier":12168,"lona":12169,"Bonjour":12170,"dance":12171,"stler":12172,"marque":12173,"ativen":12174,"généralement":12175,"richtungen":12176,"Moment":12177,"Laisse":12178,"wis":12179,"tenues":12180,"politischen":12181,"protected":12182,"join":12183,"communautaires":12184,"chemin":12185,"Cet":12186,"instant":12187,"braucht":12188,"thousands":12189,"indis":12190,"unto":12191,"ücke":12192,"avoc":12193,"skeptic":12194,"Außer":12195,"Micro":12196,"revolution":12197,"isés":12198,"aled":12199,"zustellen":12200,"paiement":12201,"peuple":12202,"extérieur":12203,"Moder":12204,"Pack":12205,"èles":12206,"semin":12207,"sessions":12208,"étranger":12209,"harm":12210,"behör":12211,"Bedingungen":12212,"erh":12213,"chambre":12214,"pru":12215,"Area":12216,"Bern":12217,"matières":12218,"manufac":12219,"Morgen":12220,"missing":12221,"ji":12222,"deinen":12223,"prene":12224,"rote":12225,"déch":12226,"Mensch":12227,"Ouais":12228,"quarters":12229,"ua":12230,"crawled":12231,"cale":12232,"passed":12233,"television":12234,"véhicules":12235,"List":12236,"Prince":12237,"catch":12238,"realis":12239,"prol":12240,"End":12241,"chargé":12242,"Joint":12243,"glass":12244,"clairement":12245,"Amendment":12246,"Kosovo":12247,"Führ":12248,"bach":12249,"dessous":12250,"Innen":12251,"annuel":12252,"Before":12253,"juge":12254,"possibilités":12255,"iting":12256,"ansch":12257,"sortir":12258,"Haben":12259,"Gel":12260,"Mol":12261,"arrest":12262,"adopt":12263,"zahlen":12264,"inet":12265,"express":12266,"figures":12267,"rices":12268,"çu":12269,"concil":12270,"Marie":12271,"communautés":12272,"travaille":12273,"griffe":12274,"Ainsi":12275,"Sti":12276,"promoting":12277,"statistics":12278,"differences":12279,"geändert":12280,"transports":12281,"conception":12282,"Staats":12283,"transfert":12284,"andeln":12285,"dream":12286,"Francis":12287,"Pakistan":12288,"teen":12289,"metal":12290,"Ster":12291,"intit":12292,"gekommen":12293,"pilo":12294,"sü":12295,"atoires":12296,"rot":12297,"preparation":12298,"Which":12299,"decl":12300,"fertig":12301,"Bevölker":12302,"officer":12303,"proposé":12304,"Berg":12305,"rin":12306,"bathroom":12307,"DS":12308,"désign":12309,"Behandlung":12310,"chnung":12311,"Corporation":12312,"Wayback":12313,"zech":12314,"looked":12315,"conseils":12316,"recognized":12317,"religion":12318,"rei":12319,"toile":12320,"Gebiet":12321,"fahrt":12322,"responsibilities":12323,"democracy":12324,"recorded":12325,"Fach":12326,"kri":12327,"einschließlich":12328,"aussch":12329,"dispose":12330,"string":12331,"England":12332,"majorité":12333,"Whereas":12334,"nächsten":12335,"devez":12336,"grie":12337,"producers":12338,"Mitarbeiter":12339,"autorisation":12340,"GE":12341,"programm":12342,"developments":12343,"Communities":12344,"limits":12345,"doute":12346,"Long":12347,"sauf":12348,"supports":12349,"antwort":12350,"zif":12351,"PT":12352,"feet":12353,"riel":12354,"seek":12355,"Papa":12356,"Colombie":12357,"ec":12358,"acqui":12359,"Station":12360,"Power":12361,"Airport":12362,"cere":12363,"andis":12364,"holiday":12365,"corruption":12366,"patent":12367,"categories":12368,"Motor":12369,".“":12370,"érique":12371,"stands":12372,"kraft":12373,"execu":12374,"folge":12375,"mechanisms":12376,"Vorschlag":12377,"deur":12378,"180":12379,"drau":12380,"improving":12381,"Mike":12382,"sty":12383,"125":12384,"trial":12385,"grounds":12386,"zul":12387,"default":12388,"beide":12389,"wasser":12390,"Bade":12391,"leis":12392,"meat":12393,"essai":12394,"cars":12395,"Gebäu":12396,"immédiate":12397,"Apartment":12398,"element":12399,"destens":12400,"menu":12401,"brand":12402,"soulign":12403,"Contin":12404,"Zentrum":12405,"Sag":12406,"mour":12407,"tian":12408,"Russie":12409,"Network":12410,"delivered":12411,"href":12412,"devices":12413,"penser":12414,"telling":12415,"Kirche":12416,"banks":12417,"Öff":12418,"treffen":12419,"airport":12420,"anymore":12421,"audience":12422,"dangere":12423,"finished":12424,"hmig":12425,"nomin":12426,"investissements":12427,"Flughafen":12428,"Vice":12429,"manage":12430,"ministères":12431,"petits":12432,"career":12433,"Pacific":12434,"neuer":12435,"tées":12436,"Lass":12437,"Viel":12438,"geograph":12439,"Typ":12440,"facilitate":12441,"solche":12442,"torture":12443,"terrorisme":12444,"speaking":12445,"Kontakt":12446,"lieben":12447,"examine":12448,"catal":12449,"ufen":12450,"comfortable":12451,"llement":12452,"pied":12453,"lability":12454,"licen":12455,"matin":12456,"croy":12457,"betreffen":12458,"acquisition":12459,"apporter":12460,"Three":12461,"locations":12462,"revenus":12463,"Administra":12464,"Antwort":12465,"petites":12466,"doubt":12467,"législa":12468,"combination":12469,"gosla":12470,"officials":12471,"Joseph":12472,"religious":12473,"Option":12474,"veiller":12475,"Sweden":12476,"BER":12477,"fell":12478,"représente":12479,"ichter":12480,"nour":12481,"perhaps":12482,"passage":12483,"elections":12484,"WC":12485,"scht":12486,"Box":12487,"Langu":12488,"Tau":12489,"email":12490,"rejet":12491,"asp":12492,"weather":12493,"display":12494,"alscience":12495,"database":12496,"skepticalscience":12497,"Czech":12498,"Som":12499,"Town":12500,"indé":12501,"ebenfalls":12502,"Immobilien":12503,"Ba":12504,"resol":12505,"gov":12506,"Beschäf":12507,"outils":12508,"responsabilités":12509,"Oly":12510,"parlement":12511,"Ander":12512,"Poland":12513,"spécifiques":12514,"Enfin":12515,"liebe":12516,"RA":12517,"exc":12518,"output":12519,"Anton":12520,"rendu":12521,"centage":12522,"creating":12523,"straight":12524,"failure":12525,"äufig":12526,"militaire":12527,"beds":12528,"loved":12529,"visual":12530,"contracts":12531,"hearing":12532,"violations":12533,"Ress":12534,"erklär":12535,"leicht":12536,"interview":12537,"Geh":12538,"seeing":12539,"Adresse":12540,"wohner":12541,"Ordnung":12542,"Oli":12543,"Zw":12544,"hey":12545,"certa":12546,"armac":12547,"Eing":12548,"director":12549,"GMT":12550,"Ano":12551,"Vien":12552,"ilen":12553,"stum":12554,"Informations":12555,"disposi":12556,"courses":12557,"entered":12558,"garantir":12559,"adequate":12560,"feature":12561,"cuis":12562,"sets":12563,"Dut":12564,"altern":12565,"insgesamt":12566,"connected":12567,"Maintenant":12568,"Secrétariat":12569,"supérieur":12570,"fantas":12571,"liens":12572,"liert":12573,"elek":12574,"möchten":12575,",...":12576,"erk":12577,"absor":12578,"VIH":12579,"suivante":12580,"Kong":12581,"Stellung":12582,"Voir":12583,"tables":12584,"unik":12585,"105":12586,"intensi":12587,"träge":12588,"thè":12589,"oral":12590,"milk":12591,"humanitarian":12592,"Komment":12593,"bestimmt":12594,"Saved":12595,"Barcelona":12596,"''":12597,"uit":12598,"verbesser":12599,"Make":12600,"observed":12601,"numerous":12602,"carbon":12603,"dirige":12604,"Mik":12605,"lesquels":12606,"ancement":12607,"intég":12608,"invited":12609,"chemical":12610,"lumière":12611,"Doppel":12612,"Montré":12613,"examination":12614,"sciences":12615,"obstacles":12616,"git":12617,"rigen":12618,"créé":12619,"quement":12620,"ALL":12621,"Product":12622,"blow":12623,"gliche":12624,"handelt":12625,"redit":12626,"!!!!":12627,"Montréal":12628,"effectiveness":12629,"applies":12630,"customs":12631,"disponible":12632,"democratic":12633,"Verbindung":12634,"usalem":12635,"passion":12636,"chest":12637,"seat":12638,"réus":12639,"Meth":12640,"gouvernementales":12641,"Klima":12642,"hate":12643,"lever":12644,"veget":12645,"exemp":12646,"violation":12647,"kus":12648,"gewesen":12649,"présentation":12650,"contribuer":12651,"habitat":12652,"AUT":12653,"gor":12654,"stability":12655,"befinden":12656,"endor":12657,"legislative":12658,"Father":12659,"aspect":12660,"Olymp":12661,"För":12662,"demic":12663,"Ouest":12664,"Id":12665,"constat":12666,"usual":12667,"Atten":12668,"613":12669,"verfahren":12670,"inspir":12671,"statistiques":12672,"ÓÇ":12673,"translation":12674,"flexi":12675,"Atlantic":12676,".).":12677,"DO":12678,"pdf":12679,"él":12680,"concre":12681,"annes":12682,"crise":12683,"tats":12684,"inesses":12685,"applique":12686,"pregn":12687,"networks":12688,"diminu":12689,"stocks":12690,"Macht":12691,"sample":12692,"manager":12693,"Weil":12694,"ACT":12695,"Keep":12696,"Rot":12697,"Vertrags":12698,"Oder":12699,"Republik":12700,"Erzeugn":12701,"subsection":12702,"vals":12703,"entis":12704,"négociations":12705,"Employment":12706,"Face":12707,"Respon":12708,"européennes":12709,"faudra":12710,"Hinter":12711,"dinner":12712,"tured":12713,"Record":12714,"Communic":12715,"Play":12716,"alia":12717,"album":12718,"aust":12719,"Officer":12720,"kräf":12721,"IX":12722,"mac":12723,"nine":12724,"institutional":12725,"dicated":12726,"Kapit":12727,"atche":12728,"managed":12729,"willing":12730,"clai":12731,"essentiel":12732,"restrictions":12733,"médicaments":12734,"Rein":12735,"ctifs":12736,"Anfang":12737,"clés":12738,"téléphone":12739,"mécanismes":12740,"anne":12741,"nahm":12742,"Police":12743,"taille":12744,"milliards":12745,"haute":12746,"recognition":12747,"................................":12748,"fie":12749,"ähn":12750,"réfugi":12751,"warded":12752,"sett":12753,"publié":12754,"fédér":12755,"oe":12756,"oul":12757,"spring":12758,"recovery":12759,"contribut":12760,"Ten":12761,"provenant":12762,"parliament":12763,"Implement":12764,"stratégies":12765,"PG":12766,"siers":12767,"specifically":12768,"ucht":12769,"amendment":12770,"Moi":12771,"nium":12772,"courage":12773,"aéro":12774,"ingu":12775,"amaz":12776,"Forces":12777,"eligible":12778,"rons":12779,"veröffentlich":12780,"codes":12781,"compter":12782,"everybody":12783,"Road":12784,"suffer":12785,"enregistrement":12786,"usses":12787,"Außen":12788,"historical":12789,"atchewan":12790,"220":12791,"HE":12792,"Tas":12793,"sociales":12794,"Aktiv":12795,"Foundation":12796,"%).":12797,"returned":12798,"asking":12799,"änge":12800,"MO":12801,"thi":12802,"deser":12803,"soumis":12804,"entrer":12805,"poids":12806,"addy":12807,"Betrie":12808,"devait":12809,".»":12810,"Ul":12811,"hip":12812,"decla":12813,"gangs":12814,"espère":12815,"Richtung":12816,"mountain":12817,"350":12818,"ience":12819,"raisonn":12820,"Sha":12821,"Wien":12822,"assure":12823,"entliche":12824,"cean":12825,"mindestens":12826,"familles":12827,"adaptation":12828,"länger":12829,"percentage":12830,"Saskatchewan":12831,"dll":12832,"ktiv":12833,"urgent":12834,"Info":12835,"bye":12836,"yours":12837,"spend":12838,"icken":12839,"effectively":12840,"maladies":12841,"Cl":12842,"wig":12843,"lling":12844,"Change":12845,"indig":12846,"aliments":12847,"heading":12848,"filed":12849,"delegation":12850,"threat":12851,"eté":12852,"beein":12853,"Previous":12854,"Benut":12855,"étudiants":12856,"component":12857,"fläche":12858,"tiennent":12859,"ieux":12860,"trave":12861,"140":12862,"Feb":12863,"Gemeinde":12864,"Phar":12865,"regret":12866,"frequ":12867,"Family":12868,"toxic":12869,"zune":12870,"ongoing":12871,"Arrê":12872,"1978":12873,"lotte":12874,"Cla":12875,"envo":12876,"proof":12877,"parta":12878,"Pu":12879,"Pays":12880,"pous":12881,"vere":12882,"traités":12883,"fice":12884,"öffnet":12885,"transparent":12886,"%),":12887,"notification":12888,"Quoi":12889,"uniquement":12890,"wonderful":12891,"Bir":12892,"{\\":12893,"oppos":12894,"ESS":12895,"yester":12896,"voted":12897,"importation":12898,"fern":12899,"ätzen":12900,"fourth":12901,"1973":12902,"consequences":12903,"Slov":12904,"barkeit":12905,"appeared":12906,"alize":12907,"Latin":12908,"College":12909,"conformité":12910,"GEN":12911,"Wür":12912,"fee":12913,"boren":12914,"buildings":12915,"Bezug":12916,"External":12917,"western":12918,"Brazil":12919,"Lösung":12920,"réguli":12921,"ladies":12922,"dépos":12923,"tue":12924,"Investi":12925,"Fé":12926,"Kla":12927,"simul":12928,"Veröffentlich":12929,"Wirtschaft":12930,"hid":12931,"desc":12932,"proven":12933,"significantly":12934,"candidats":12935,"bow":12936,"fare":12937,"president":12938,"handle":12939,"puty":12940,"adul":12941,"DN":12942,"EE":12943,"devenir":12944,"zeige":12945,"brit":12946,"linked":12947,"sanctions":12948,"prêt":12949,"purchase":12950,"expansion":12951,"guard":12952,"accoun":12953,"Nu":12954,"ost":12955,"apes":12956,"cheap":12957,"transformation":12958,"1975":12959,"Nick":12960,"Psy":12961,"beit":12962,"vivre":12963,"jedes":12964,"organes":12965,"mique":12966,"Landes":12967,"gée":12968,"rand":12969,"urb":12970,"Begin":12971,"wenden":12972,"controlled":12973,"résultat":12974,"Moreover":12975,"Russ":12976,"lady":12977,"impli":12978,"none":12979,"pouvons":12980,"eignet":12981,"rieure":12982,"colour":12983,"pendence":12984,"confidence":12985,"Wies":12986,"hre":12987,"wil":12988,"Congo":12989,"duras":12990,"Gew":12991,"Vari":12992,"armed":12993,"heb":12994,"bleibt":12995,"Erst":12996,"Case":12997,"caf":12998,"leisten":12999,"sey":13000,"exposition":13001,"surround":13002,"offering":13003,"Civil":13004,"ISSION":13005,"Find":13006,"intermédi":13007,"ida":13008,"signature":13009,"businesses":13010,"impôt":13011,"fonctionnaires":13012,"sugar":13013,"sharing":13014,"ISO":13015,"ellow":13016,"compét":13017,"stim":13018,"cependant":13019,"biz":13020,"kap":13021,"lebt":13022,"older":13023,"Hé":13024,"Phas":13025,"Rem":13026,"represented":13027,"fini":13028,"voix":13029,"object":13030,"zep":13031,"Fort":13032,"rd":13033,"Weit":13034,"visée":13035,"happens":13036,"educational":13037,"letzte":13038,"Pur":13039,"1977":13040,"performed":13041,"extended":13042,"update":13043,"morgen":13044,"hop":13045,"tension":13046,"houses":13047,"Hall":13048,"Ram":13049,"ourable":13050,"Infrastru":13051,"ferme":13052,"transit":13053,"Place":13054,"perdu":13055,"104":13056,"huge":13057,"führer":13058,"Ministers":13059,"Links":13060,"Earth":13061,"WA":13062,"jäh":13063,"éré":13064,"neben":13065,"Madrid":13066,"William":13067,"iro":13068,"umn":13069,"...]":13070,"illegal":13071,"carb":13072,"italien":13073,"frag":13074,"ordinary":13075,"Déclaration":13076,"Declaration":13077,"experienced":13078,"Australia":13079,"Struktur":13080,"Another":13081,"Handels":13082,"départ":13083,"klein":13084,"Help":13085,"wordpress":13086,",-":13087,"dage":13088,"fühl":13089,"licite":13090,"journ":13091,"simplement":13092,"montrer":13093,"Vancouver":13094,"servi":13095,"Italie":13096,"événements":13097,"improvement":13098,"iation":13099,"stelle":13100,"Democra":13101,"indique":13102,"Tool":13103,"exportation":13104,"immigration":13105,"ores":13106,"eters":13107,"courant":13108,"sitting":13109,"reality":13110,"zeugen":13111,"consumers":13112,"äume":13113,"Cau":13114,"Ni":13115,"quot":13116,"verlor":13117,"Veranst":13118,"priorité":13119,"restaurants":13120,"alco":13121,"dential":13122,"ppe":13123,"desk":13124,"lots":13125,"Voilà":13126,"vites":13127,"remp":13128,"Besu":13129,"élaborer":13130,"Know":13131,"deck":13132,"becomes":13133,"credi":13134,"profile":13135,"mitteln":13136,"diversité":13137,"changing":13138,"regime":13139,"jeune":13140,"nationalen":13141,"ERS":13142,"availability":13143,"Figure":13144,"globale":13145,"Behörden":13146,"consommateurs":13147,"Festival":13148,"Madame":13149,"oly":13150,"provo":13151,"philoso":13152,"folgre":13153,"verschiedene":13154,".'":13155,"Blo":13156,"äft":13157,"enforcement":13158,"contraire":13159,"appointment":13160,"souhaite":13161,"fes":13162,"competitive":13163,"fédérale":13164,"prêts":13165,"Yukon":13166,"gehören":13167,"Transfer":13168,"aissance":13169,"holen":13170,"pièces":13171,"112":13172,"mous":13173,"oct":13174,"öst":13175,"input":13176,"suppose":13177,"MAN":13178,"Federation":13179,"Dig":13180,"eten":13181,"vergessen":13182,"noon":13183,"genous":13184,"ungsant":13185,"officers":13186,"iii":13187,"\"]=>":13188,"Nav":13189,"gehe":13190,"gewin":13191,"lisch":13192,"riter":13193,"tribunal":13194,"Spiele":13195,"lassi":13196,"telephone":13197,"SU":13198,"Sm":13199,"arts":13200,"owned":13201,"equivalent":13202,"Gab":13203,"uen":13204,"roi":13205,"schla":13206,"juridiques":13207,"exposure":13208,"meant":13209,"prece":13210,"plain":13211,"Costa":13212,"geln":13213,"conflit":13214,"commencé":13215,"Labor":13216,"Forschung":13217,"reibung":13218,"GB":13219,"joue":13220,"legenheit":13221,"Soci":13222,"halte":13223,"zeuge":13224,"longue":13225,"mechanism":13226,"Cat":13227,"dul":13228,"guidance":13229,"complet":13230,"Verwendung":13231,"limite":13232,"dealing":13233,"hätten":13234,"tiges":13235,"101":13236,"span":13237,"somebody":13238,"Erde":13239,"abhängig":13240,"entscheiden":13241,"prochaine":13242,"Eig":13243,"Ged":13244,"cemment":13245,"symbol":13246,"classes":13247,"Excell":13248,"marked":13249,"Syn":13250,"Grundlage":13251,"reflect":13252,"Communications":13253,"ÚÉ":13254,"utt":13255,"Daniel":13256,"Dial":13257,"rables":13258,"vorgesehen":13259,"brow":13260,"elimin":13261,"simpli":13262,"Sus":13263,"verbunden":13264,"visé":13265,"undertaken":13266,"réforme":13267,"turning":13268,"bargain":13269,"wrote":13270,"sah":13271,"schedu":13272,"principalement":13273,"View":13274,"mü":13275,"erhält":13276,"formul":13277,"horse":13278,"Sous":13279,"sept":13280,"sentence":13281,"Music":13282,"gées":13283,"mette":13284,"dehors":13285,"parlé":13286,"adéqu":13287,"frie":13288,"osph":13289,"Maj":13290,"enem":13291,"forced":13292,"lauben":13293,"EAN":13294,"hers":13295,"erinner":13296,"spezie":13297,"characteristics":13298,"Dienstleistungen":13299,"Henry":13300,"mauvais":13301,"handicap":13302,"QUE":13303,"Rand":13304,"dear":13305,"imen":13306,"exige":13307,"wipe":13308,"Vienna":13309,"RS":13310,"fly":13311,"Wirk":13312,"driving":13313,"Sé":13314,"mér":13315,"prie":13316,"extensive":13317,"multiple":13318,"Chairman":13319,"partition":13320,"CRTC":13321,"Particip":13322,"stakeholders":13323,"Iden":13324,"fers":13325,"raise":13326,"deshalb":13327,"neither":13328,"idents":13329,"Def":13330,"autour":13331,"exclusion":13332,"Bruder":13333,"entwickelt":13334,"++":13335,"Beih":13336,"ctoral":13337,"Untersuch":13338,"showed":13339,"agricoles":13340,"réseaux":13341,"municipal":13342,"mans":13343,"undi":13344,"cel":13345,"Inspe":13346,"Nos":13347,"cains":13348,"invite":13349,"female":13350,"ifications":13351,"régionales":13352,"deutlich":13353,"Nouvelle":13354,"PAR":13355,"forte":13356,"Legal":13357,"freund":13358,"conflits":13359,"Catal":13360,"cb":13361,"throw":13362,"Intro":13363,"holder":13364,"istant":13365,"schaffen":13366,"ureaux":13367,"incl":13368,"angle":13369,"UND":13370,"Spanien":13371,"cele":13372,"applicables":13373,"Products":13374,"conséquences":13375,"Everything":13376,"Fas":13377,"Indon":13378,"Tochter":13379,"REG":13380,"Volks":13381,"erfolgre":13382,"vidé":13383,"soutenir":13384,"physique":13385,"réaliser":13386,"cards":13387,"unten":13388,"ride":13389,"accent":13390,"üsse":13391,"commitments":13392,"________________________________":13393,"tasks":13394,"accroître":13395,"engagements":13396,"darin":13397,"Finland":13398,"bringt":13399,"neighbour":13400,"consensus":13401,"Reihe":13402,"anzeigen":13403,"étape":13404,"reiche":13405,"solidar":13406,"sacri":13407,"bedingungen":13408,"rembour":13409,"isent":13410,"dedicated":13411,"unte":13412,"hoc":13413,"constituent":13414,"recogn":13415,"cident":13416,"iges":13417,"pouvoirs":13418,"ählt":13419,"Strategy":13420,"Cle":13421,"Cuba":13422,"Doll":13423,"dating":13424,"chement":13425,"Ministre":13426,"Garten":13427,"defe":13428,"gewä":13429,"umente":13430,"Verkauf":13431,"Hans":13432,"keits":13433,"produire":13434,"prévue":13435,"campagne":13436,"Bla":13437,"heavy":13438,"song":13439,"stark":13440,"lüssel":13441,"prechend":13442,"Avant":13443,"waters":13444,"äte":13445,"tia":13446,"ario":13447,"développer":13448,"experi":13449,"immun":13450,"corporate":13451,"212":13452,"lieb":13453,"kee":13454,"enterprises":13455,"derniers":13456,"compagnie":13457,"Archite":13458,"Alt":13459,"Seine":13460,"Wow":13461,"isierung":13462,"chir":13463,"Bewer":13464,"agir":13465,"recue":13466,"candidates":13467,"compatible":13468,"aler":13469,"Essen":13470,"bation":13471,"itter":13472,"Their":13473,"frau":13474,"Status":13475,"Chaque":13476,"Mig":13477,"interventions":13478,"Chan":13479,"greifen":13480,"Menge":13481,"Mass":13482,"ourselves":13483,"mani":13484,"iterrane":13485,"wählen":13486,"respecter":13487,"sterdam":13488,"élections":13489,"professionnels":13490,"sûre":13491,"Bang":13492,"IK":13493,"delay":13494,"préparation":13495,"latter":13496,"visitors":13497,"candidate":13498,"Gäste":13499,"dements":13500,"wealth":13501,"facility":13502,"TP":13503,"ails":13504,"imit":13505,"Angaben":13506,"Beach":13507,"Studio":13508,"bâti":13509,"Statistics":13510,"nent":13511,"Addition":13512,"scientifique":13513,"Gol":13514,"yan":13515,"comply":13516,"Schön":13517,"principales":13518,"strict":13519,"strengthening":13520,"Palestinian":13521,"Âä":13522,"margin":13523,"modifier":13524,"professionnelle":13525,"fabrication":13526,"Puis":13527,"Pierre":13528,"defic":13529,"tete":13530,"parole":13531,"rob":13532,"ausgest":13533,"bestä":13534,"pouvait":13535,"combined":13536,"glad":13537,"museum":13538,"respond":13539,"Holy":13540,"erreicht":13541,"Dub":13542,"onia":13543,"bases":13544,"utilisateurs":13545,"recevoir":13546,"régionaux":13547,"licken":13548,"judice":13549,"FORM":13550,"unterstützt":13551,"Eastern":13552,"tradu":13553,"hyper":13554,"ÇáÂä":13555,"Membres":13556,"Bib":13557,"Light":13558,"öhn":13559,"isées":13560,"coute":13561,"ouverture":13562,"truc":13563,"circonst":13564,"infection":13565,"Kateg":13566,"nungen":13567,"vies":13568,"sonst":13569,"gesellschaft":13570,"Assess":13571,"prepare":13572,"caractéristiques":13573,"déchets":13574,"Dy":13575,"sper":13576,"igno":13577,"Jugend":13578,"authorized":13579,"wierig":13580,"bü":13581,"swit":13582,"ÉS":13583,"despite":13584,"involving":13585,"shower":13586,"Autres":13587,"moine":13588,"Gemeinschafts":13589,"züglich":13590,"wiki":13591,"Etat":13592,"Amsterdam":13593,"1st":13594,"Sex":13595,"ault":13596,"tait":13597,"Vertre":13598,"Charlie":13599,"Israël":13600,"Middle":13601,"Doc":13602,"Fen":13603,"meld":13604,"height":13605,"ione":13606,"Techni":13607,"signs":13608,"officielle":13609,"Entwicklungs":13610,"Datum":13611,"spot":13612,"expenses":13613,"Inhalt":13614,"Beweg":13615,"contacts":13616,"larger":13617,"healthy":13618,"enthält":13619,"arrêter":13620,"erforderlich":13621,"lös":13622,"sme":13623,"Love":13624,"Engine":13625,"dictionary":13626,"Framework":13627,"east":13628,"mmer":13629,"sechs":13630,"pute":13631,"européens":13632,"Tats":13633,"réper":13634,"Meinung":13635,"Titel":13636,"hnen":13637,"quis":13638,"investments":13639,"ÇáÓÇ":13640,"Smith":13641,"aug":13642,"livre":13643,"cessive":13644,"Resolution":13645,"Denmark":13646,"recommendation":13647,"adopter":13648,"Zugang":13649,"Annexe":13650,"aling":13651,"rac":13652,"glas":13653,"kop":13654,"allons":13655,"licht":13656,"appelé":13657,"observation":13658,"driver":13659,"/-/":13660,"fortunately":13661,"FF":13662,"Sust":13663,"asser":13664,"portée":13665,"Conse":13666,"uck":13667,"Leg":13668,"chosen":13669,"tariff":13670,"irs":13671,"iring":13672,"imes":13673,"Aca":13674,"HD":13675,"çant":13676,"ènes":13677,"accum":13678,"Sans":13679,"mant":13680,"benö":13681,"selben":13682,"bisher":13683,"presentation":13684,"effectuer":13685,"scheme":13686,"CO2":13687,"unterstützen":13688,"läuft":13689,"Punkt":13690,"housing":13691,"Himmel":13692,"ito":13693,"sez":13694,"fondé":13695,"humaine":13696,"Mitglieder":13697,"dienen":13698,"obach":13699,"cycl":13700,"garan":13701,"Zust":13702,"seraient":13703,"foc":13704,"Brand":13705,"ordinaire":13706,"reducing":13707,"partenariat":13708,"ÇáÓÇÚÉ":13709,"thir":13710,"deten":13711,"mony":13712,"115":13713,"controls":13714,"commencer":13715,"!!!":13716,"closely":13717,"remaining":13718,"Jord":13719,"parfois":13720,"rémun":13721,"Appen":13722,"digkeit":13723,"previously":13724,"Cra":13725,"Kal":13726,"Say":13727,"beis":13728,"emplois":13729,"Voici":13730,"complément":13731,"étrangères":13732,"Califor":13733,"porters":13734,"setz":13735,"maritime":13736,"Vereinigten":13737,"bought":13738,"wechsel":13739,"frère":13740,"aufgenommen":13741,"restru":13742,"limites":13743,"increases":13744,"provisoire":13745,"ratio":13746,"apartments":13747,"mines":13748,"Both":13749,"Private":13750,"Voll":13751,"oure":13752,"cow":13753,"BS":13754,"riche":13755,"prove":13756,"References":13757,"cultures":13758,"ministres":13759,"Montre":13760,"militaires":13761,"komme":13762,"prestation":13763,"Mediterrane":13764,"slight":13765,"zation":13766,"alph":13767,"peau":13768,"wice":13769,"fris":13770,"Major":13771,"glück":13772,"Sitz":13773,"launched":13774,"Ebene":13775,"Sind":13776,"TEN":13777,"Vors":13778,"lled":13779,"Strand":13780,"Eurostat":13781,"Sco":13782,"User":13783,"evil":13784,"male":13785,"··":13786,"épo":13787,"unemployment":13788,"proxim":13789,"abri":13790,"resolutions":13791,"plays":13792,"Maur":13793,"funny":13794,"secondary":13795,"permettent":13796,"situated":13797,"determination":13798,"concentrations":13799,"einzige":13800,"ket":13801,"maje":13802,"Reform":13803,"guten":13804,"venus":13805,"permettra":13806,"améric":13807,"Bestimmungen":13808,"jun":13809,"icide":13810,"einigen":13811,"finding":13812,"fehlen":13813,"paragraphs":13814,"currency":13815,"governance":13816,"Küche":13817,"Sommer":13818,"Temperatur":13819,"Could":13820,"digt":13821,"lined":13822,"anticip":13823,"möglichen":13824,"chercheurs":13825,"zeichnung":13826,"confirmed":13827,"Sustain":13828,"Hard":13829,"politische":13830,"Christmas":13831,"bd":13832,"iße":13833,"auszu":13834,"diseas":13835,"factory":13836,"directrices":13837,"primarily":13838,"continuing":13839,"règlements":13840,"Lau":13841,"[...]":13842,"peoples":13843,"demi":13844,"fourni":13845,"Lib":13846,"gül":13847,"entend":13848,"quin":13849,"récemment":13850,"ignor":13851,"tags":13852,"tree":13853,"Proper":13854,"tising":13855,"atif":13856,"unsch":13857,"lived":13858,"annt":13859,"Verbesser":13860,"Ern":13861,"Cooperation":13862,"scientifiques":13863,"helped":13864,"participating":13865,"modified":13866,"prestations":13867,"jurisdiction":13868,"BO":13869,"producteurs":13870,"Boden":13871,"mehrere":13872,"Bruns":13873,"Environnement":13874,"qualified":13875,"Innovation":13876,"Weitere":13877,"thu":13878,"contient":13879,"Heute":13880,"croire":13881,"Sprache":13882,"compétence":13883,"sweet":13884,"fichier":13885,"Annual":13886,"GN":13887,"évi":13888,"Anna":13889,"jeux":13890,"Manu":13891,"Freunde":13892,"Damit":13893,"schieden":13894,"Rad":13895,"outcome":13896,"arda":13897,"couvre":13898,"argument":13899,"vendre":13900,"Antrag":13901,"Stück":13902,"failed":13903,"stupid":13904,"WE":13905,"bett":13906,"garder":13907,"square":13908,"210":13909,"Sho":13910,"vage":13911,"gefähr":13912,"EMENT":13913,"eigentlich":13914,"démocratique":13915,"Has":13916,"ples":13917,"linguis":13918,"répond":13919,"spéciale":13920,"benefic":13921,"Funktion":13922,"utilise":13923,"tungen":13924,"convain":13925,"allgemein":13926,"brechen":13927,"Communication":13928,"cells":13929,"Während":13930,"bureaux":13931,"isant":13932,"acce":13933,"schau":13934,"rief":13935,"linien":13936,"1976":13937,"exhibition":13938,"Distri":13939,"Kranken":13940,"signifie":13941,"Frühstück":13942,"Culture":13943,"remove":13944,"poursuivre":13945,"surpris":13946,"taxonomy":13947,"Anforderungen":13948,"Meas":13949,"advanced":13950,"Rechte":13951,"pleased":13952,"covering":13953,"exploit":13954,"Labour":13955,"Wahrheit":13956,"erfahren":13957,"certification":13958,"betra":13959,"films":13960,"terrible":13961,"Hur":13962,"Koh":13963,"gly":13964,"verstehen":13965,"privée":13966,"Korea":13967,"binding":13968,"Fü":13969,"Soll":13970,"jah":13971,"BA":13972,"GDP":13973,"Tagen":13974,"äs":13975,"administer":13976,"surprise":13977,"pharma":13978,"vorher":13979,"führten":13980,"apprentis":13981,"selling":13982,"Cul":13983,"Valle":13984,"curs":13985,"autonom":13986,"penal":13987,"geschrieben":13988,"Bist":13989,"Jam":13990,"gol":13991,"thal":13992,"seid":13993,"players":13994,"crucial":13995,"carrying":13996,"indicators":13997,"Hz":13998,"deiner":13999,"acid":14000,"compéti":14001,"affili":14002,"quantité":14003,"adoles":14004,"musique":14005,"Princip":14006,"Rien":14007,"erweise":14008,"ush":14009,"impres":14010,"perte":14011,"learned":14012,"Milit":14013,"connaît":14014,"Unit":14015,"partout":14016,"immediate":14017,"Mediterranean":14018,"attitude":14019,"veille":14020,"réfugiés":14021,"Brunswick":14022,"Tut":14023,"cable":14024,"rut":14025,"encounter":14026,"publish":14027,"arbeitung":14028,"Current":14029,"officielles":14030,"Krieg":14031,"residence":14032,"Hä":14033,"rose":14034,"volle":14035,"berech":14036,"receiving":14037,"prenant":14038,"army":14039,"entr":14040,"brut":14041,"réponses":14042,"diseases":14043,"(*":14044,"Moun":14045,"itely":14046,"warten":14047,"Très":14048,"erreur":14049,"Cel":14050,"Fak":14051,"background":14052,"favoriser":14053,"reserve":14054,"uz":14055,"intra":14056,"gui":14057,"akter":14058,"student":14059,"Colon":14060,"espèce":14061,"mäßig":14062,"einzu":14063,"traiter":14064,"Viet":14065,"sensitive":14066,"Fla":14067,"Old":14068,"isée":14069,"convers":14070,"spati":14071,"Kampf":14072,"outs":14073,"französ":14074,"Mitgliedstaat":14075,"catégories":14076,"kunden":14077,"âte":14078,"uls":14079,"Terre":14080,"dossiers":14081,"Tat":14082,"Aufen":14083,"soul":14084,"pieces":14085,"difficultés":14086,"infrastructures":14087,"thousand":14088,"Bevölkerung":14089,"golf":14090,"ended":14091,"gestell":14092,"ACP":14093,"properties":14094,"punish":14095,"Basis":14096,"scheinlich":14097,"intervenants":14098,"Mand":14099,"YOU":14100,"ären":14101,"etter":14102,"prak":14103,"acted":14104,"tué":14105,"ify":14106,"assin":14107,"présentant":14108,"totale":14109,"wirtschaftlichen":14110,"demonstr":14111,"certificate":14112,"Fire":14113,"oo":14114,"slo":14115,"lige":14116,"Deleg":14117,"sépar":14118,"Shop":14119,"weiteren":14120,"Volk":14121,"bedeuten":14122,"\\/":14123,"isations":14124,"ierungen":14125,"senior":14126,"Monate":14127,"helping":14128,"Österreich":14129,"anes":14130,"seits":14131,"igne":14132,"mond":14133,"periods":14134,"Kit":14135,"award":14136,"iry":14137,"licences":14138,"Deshalb":14139,"modèles":14140,"WP":14141,"103":14142,"Finn":14143,"Produktion":14144,"Karte":14145,"removed":14146,"Bulg":14147,"étrangers":14148,"Patent":14149,"Through":14150,"rü":14151,"éth":14152,"nahe":14153,"letin":14154,"Japon":14155,"defence":14156,"identity":14157,"Cir":14158,"jac":14159,"kno":14160,"oise":14161,"retraite":14162,"arrivé":14163,"weiterhin":14164,"injection":14165,"lernen":14166,"setzt":14167,"apparent":14168,"attach":14169,"Sonder":14170,"emo":14171,"prime":14172,"corresponding":14173,"tat":14174,"tizen":14175,"devoir":14176,"allocation":14177,"conten":14178,"antérie":14179,"Consi":14180,"Should":14181,"deinem":14182,"manufacturing":14183,"indemn":14184,"concrete":14185,"becoming":14186,"ologne":14187,"dette":14188,"Ergebnis":14189,"maßnahmen":14190,"Asie":14191,"chô":14192,"Accommod":14193,"peuples":14194,"diagnos":14195,"scare":14196,"zept":14197,"Chance":14198,"Perfor":14199,"personnels":14200,"kinds":14201,"commerciales":14202,"collè":14203,"liquid":14204,"symptom":14205,"merci":14206,"hohe":14207,"Geneva":14208,"FI":14209,"recip":14210,"attet":14211,"hero":14212,"Toutes":14213,"Startseite":14214,"progressive":14215,"secu":14216,"werte":14217,"Auswahl":14218,"Coordin":14219,"Jane":14220,"powerful":14221,"bestimmte":14222,"Änderung":14223,"commend":14224,"premiers":14225,"designated":14226,"Salz":14227,"wissenschaft":14228,"ethnic":14229,"encourager":14230,"Britannique":14231,"Espagne":14232,"Dir":14233,"cance":14234,"ula":14235,"anlage":14236,"represents":14237,"ican":14238,"upper":14239,"visés":14240,"enny":14241,"vorschriften":14242,"structural":14243,"considers":14244,"mittees":14245,"générales":14246,"ützen":14247,"bottom":14248,"Verwaltungs":14249,"Cru":14250,"Sher":14251,"Zoll":14252,"123":14253,"kommens":14254,"Feuer":14255,"Buil":14256,"Dokument":14257,"legung":14258,"Unternehmens":14259,"fighting":14260,"probablement":14261,"honey":14262,"mest":14263,"“.":14264,"rev":14265,"authen":14266,"sozi":14267,"immédiatement":14268,"Glas":14269,"déte":14270,"riez":14271,"Gebur":14272,"employé":14273,"tourism":14274,"Zeitpunkt":14275,"complète":14276,"zweiten":14277,"xx":14278,"ießen":14279,"aufru":14280,"berücksich":14281,"subje":14282,"Allgemein":14283,"consists":14284,"Tradition":14285,"pipe":14286,"Aktu":14287,"increasingly":14288,"focused":14289,"Watch":14290,"ido":14291,"Erklär":14292,"gnis":14293,"Montag":14294,"batter":14295,"incident":14296,"FL":14297,"108":14298,"elected":14299,"attendre":14300,"élimination":14301,"analyses":14302,"Amar":14303,"Cath":14304,"Lang":14305,"Phy":14306,"tandis":14307,"Live":14308,"Stelle":14309,"Zugriffe":14310,"greatest":14311,"Texas":14312,"consultatif":14313,"POR":14314,"stoffe":14315,"productive":14316,"History":14317,"Analyse":14318,"Kno":14319,"Mah":14320,"Pil":14321,"ordnet":14322,"Aller":14323,"copies":14324,"atrième":14325,"München":14326,"früher":14327,"conciliation":14328,"Gebäude":14329,"spar":14330,"enzen":14331,"deb":14332,"arre":14333,"bringing":14334,"Lieu":14335,"accession":14336,"clinical":14337,"Wild":14338,"conversion":14339,"partage":14340,"Kontrolle":14341,"err":14342,"entente":14343,"convic":14344,"mensch":14345,"complè":14346,"tellement":14347,"vulner":14348,"Hong":14349,"worldwide":14350,"équipement":14351,"solid":14352,"Sinne":14353,"volonté":14354,"Categ":14355,"MC":14356,"lift":14357,"geworden":14358,"moitié":14359,"Projet":14360,"régionale":14361,"vérité":14362,"Außerdem":14363,"Gast":14364,"Katal":14365,"VII":14366,"founded":14367,"condam":14368,"Shut":14369,"Rules":14370,"considérable":14371,"suche":14372,"northern":14373,"tempér":14374,"Terror":14375,"cens":14376,"dress":14377,"odi":14378,"expos":14379,"1960":14380,"rateurs":14381,"saison":14382,"judge":14383,"époque":14384,"Hit":14385,"demment":14386,"ECB":14387,"titulaire":14388,"consiste":14389,"Technical":14390,"appuyer":14391,"migration":14392,"verloren":14393,"circonstances":14394,"</":14395,"Kommiss":14396,"CHF":14397,"Bett":14398,"approaches":14399,"university":14400,"respectively":14401,"smart":14402,"legi":14403,"vieux":14404,"transaction":14405,"einzelnen":14406,"Cab":14407,"Hum":14408,"bill":14409,"flé":14410,"rical":14411,"Ins":14412,"finanzie":14413,"zentrum":14414,"Sonnen":14415,"remained":14416,"untary":14417,"siècle":14418,"Rail":14419,"Sach":14420,"iler":14421,"beteil":14422,"visées":14423,"venture":14424,"Staff":14425,"EIN":14426,"SER":14427,"loans":14428,"pharmac":14429,"fera":14430,"imming":14431,"Tabelle":14432,"Holz":14433,"liminary":14434,"Copy":14435,"mec":14436,"indication":14437,"nutzen":14438,"Certain":14439,"Cross":14440,"sour":14441,"tum":14442,"victim":14443,"naturelles":14444,"bibli":14445,"NL":14446,"Stim":14447,"cement":14448,"imal":14449,"courts":14450,"maintenir":14451,"uchs":14452,"plane":14453,"ICH":14454,"invitation":14455,"relatively":14456,"opinions":14457,"conséquence":14458,"zunehmen":14459,"Gib":14460,"Überein":14461,"atteint":14462,"künf":14463,"comprends":14464,"navigation":14465,"Lic":14466,"Map":14467,"sehe":14468,"abuse":14469,"adhésion":14470,"préal":14471,"sicherung":14472,"HERR":14473,"pleasure":14474,"revised":14475,"proud":14476,"comprom":14477,"ffet":14478,"ommy":14479,"heads":14480,"Question":14481,"ehe":14482,"doc":14483,"Without":14484,"Protocole":14485,"montré":14486,"Dus":14487,"hion":14488,"pli":14489,"trom":14490,"sieur":14491,"Bft":14492,"equality":14493,"Monaten":14494,"joined":14495,"impacts":14496,"Domin":14497,"secrétariat":14498,"Dutch":14499,"ila":14500,"entendre":14501,"veu":14502,"parte":14503,"Lear":14504,"render":14505,"metres":14506,"catastro":14507,"Agenda":14508,"judicial":14509,"totally":14510,"apprentissage":14511,"nied":14512,"stab":14513,"wobei":14514,"examined":14515,"ISBN":14516,"devrais":14517,"Summit":14518,"SI":14519,"erwä":14520,"überhaupt":14521,"hole":14522,"facts":14523,"nearly":14524,"stimmung":14525,"claimed":14526,"revoir":14527,"verstän":14528,"losen":14529,"plen":14530,"haz":14531,"signe":14532,"brain":14533,"Assessment":14534,"Nam":14535,"jähr":14536,"annen":14537,"spezif":14538,"employer":14539,"conduite":14540,"confirm":14541,"mécanisme":14542,"spoke":14543,"230":14544,"ligh":14545,"cket":14546,"Anspr":14547,"Format":14548,"Interesse":14549,"Vorschriften":14550,"painting":14551,"figurant":14552,"précédent":14553,"rur":14554,"ttes":14555,"übri":14556,"chief":14557,"pourcentage":14558,"agricole":14559,"Premières":14560,"imagine":14561,"magazine":14562,"amazing":14563,"zne":14564,"charged":14565,"Zeichen":14566,"geschlagen":14567,"chaî":14568,"gesamten":14569,"çaise":14570,"Harry":14571,"Turk":14572,"judiciaire":14573,"Grie":14574,"TI":14575,"mill":14576,"lamp":14577,"restruct":14578,"-(":14579,"sn":14580,"sli":14581,"assen":14582,"sieren":14583,"dues":14584,"proli":14585,"ATE":14586,"inflation":14587,"shoot":14588,"Schlafzimmer":14589,"Haiti":14590,"UCT":14591,"Wol":14592,"Chic":14593,"Register":14594,"Finance":14595,"Idee":14596,"igte":14597,"Laur":14598,"vorhand":14599,"niemand":14600,"Content":14601,"Welcome":14602,"Indeed":14603,"manufacturer":14604,"gemeinsam":14605,"width":14606,"5a":14607,"CES":14608,"dign":14609,"esten":14610,"vessels":14611,"concert":14612,"ört":14613,"trotz":14614,"participant":14615,"electricity":14616,"ava":14617,"Length":14618,"pth":14619,"oker":14620,"stick":14621,"territoires":14622,"bestimmten":14623,"Champion":14624,"ala":14625,"idung":14626,"consid":14627,"Speci":14628,"zeichen":14629,"mariage":14630,"liegenden":14631,"Comments":14632,"konnten":14633,"accidents":14634,"spectac":14635,"Broad":14636,"false":14637,"taste":14638,"bol":14639,"declaration":14640,"ulent":14641,"inken":14642,"ceptions":14643,"Server":14644,"utilisées":14645,"archi":14646,"Betrieb":14647,"modalités":14648,"occupation":14649,"Gir":14650,"atifs":14651,"eco":14652,"gation":14653,"chances":14654,"trafic":14655,"findings":14656,"nesses":14657,"refus":14658,"sigkeit":14659,"Mobil":14660,"Aspe":14661,"wagen":14662,"neues":14663,"pard":14664,"mots":14665,"Third":14666,"worse":14667,"warning":14668,"broken":14669,"ächst":14670,"fruits":14671,"Egypt":14672,"eure":14673,"seines":14674,"inclusion":14675,"approvision":14676,"missed":14677,"empêcher":14678,"Phase":14679,"bande":14680,"rats":14681,"secre":14682,"forê":14683,"ouvert":14684,"seconde":14685,"environnementale":14686,"recommandation":14687,"transparency":14688,"behaviour":14689,"dite":14690,"ked":14691,"shares":14692,"miles":14693,"shore":14694,"Queen":14695,"augmenter":14696,"Panel":14697,"Handel":14698,"ora":14699,"bitch":14700,"kaufen":14701,"particulière":14702,"radiodiffusion":14703,"kir":14704,"vaient":14705,"unächst":14706,"réalité":14707,"guer":14708,"obtenu":14709,"Alban":14710,"operative":14711,"teaching":14712,"Orient":14713,"shape":14714,"Gruppen":14715,"thin":14716,"agré":14717,"Lehr":14718,"collected":14719,"careful":14720,"Straße":14721,"braucher":14722,"Falls":14723,"verwenden":14724,"Erfahrung":14725,"memory":14726,"ermöglich":14727,"verantwort":14728,"107":14729,"locale":14730,"involvement":14731,"occurred":14732,"movie":14733,"stem":14734,"anyway":14735,"humain":14736,"somme":14737,"smoking":14738,"Vergleich":14739,"tainment":14740,"whereas":14741,"medicine":14742,"Voraus":14743,"Tags":14744,"treaty":14745,"cach":14746,"gung":14747,"nö":14748,"...?":14749,"monsieur":14750,"crew":14751,"ziehung":14752,"paragraphes":14753,"Profession":14754,"confidential":14755,"échanges":14756,"memor":14757,"requér":14758,"fum":14759,"artis":14760,"spending":14761,"legten":14762,"Country":14763,"particuliers":14764,"Greek":14765,"secur":14766,"tender":14767,"resser":14768,"dération":14769,"manufactur":14770,"Jerusalem":14771,"uminium":14772,"gate":14773,"forgot":14774,"Process":14775,"examiné":14776,"darum":14777,"Carol":14778,"Chef":14779,"explained":14780,"farmers":14781,".),":14782,"sue":14783,"disk":14784,"ANG":14785,"gross":14786,"Suche":14787,"Market":14788,"véritable":14789,"lanzen":14790,"principale":14791,"walking":14792,"consultants":14793,"('":14794,"Fait":14795,"cœur":14796,"versucht":14797,"citizen":14798,"décrit":14799,"lieux":14800,"450":14801,"covers":14802,"106":14803,"Erd":14804,"piels":14805,"File":14806,"mages":14807,"spät":14808,"letters":14809,"approbation":14810,"champion":14811,"threaten":14812,"aimerais":14813,"Betriebs":14814,"HS":14815,"Mü":14816,"WG":14817,"nance":14818,"109":14819,"ified":14820,"wake":14821,"happening":14822,"quoti":14823,"nämlich":14824,"Größe":14825,"Blue":14826,"UD":14827,"ctic":14828,"actifs":14829,"dites":14830,"Islands":14831,"maximale":14832,"alimentation":14833,"Introduction":14834,"gruppe":14835,"simi":14836,"versuchen":14837,"parc":14838,"cide":14839,"Advisory":14840,"aims":14841,"difficulties":14842,"Dollar":14843,"vast":14844,"écoles":14845,"convince":14846,"shipping":14847,"expand":14848,"reviews":14849,"deposit":14850,"settlement":14851,"nas":14852,"conscience":14853,"cussions":14854,"gebaut":14855,"efficaces":14856,"désolé":14857,"chmal":14858,"assign":14859,"défis":14860,"Inst":14861,"contamin":14862,"Isla":14863,"Département":14864,"premières":14865,"experiences":14866,"Performance":14867,"häufig":14868,"chapter":14869,"beat":14870,"114":14871,"Directeur":14872,"1972":14873,"Following":14874,"zah":14875,"demeur":14876,"Abkommen":14877,"instruction":14878,"crits":14879,"Marketing":14880,"eigene":14881,"Linux":14882,"Möglichkeiten":14883,"wusst":14884,"Little":14885,"Société":14886,"Fal":14887,"conce":14888,"examples":14889,"modes":14890,"dépla":14891,"Original":14892,".;":14893,"Lager":14894,"fluss":14895,"spor":14896,"tha":14897,"omet":14898,"tisation":14899,"Technologie":14900,"verfügt":14901,"ardon":14902,"ECE":14903,"moderne":14904,"communiquer":14905,"nutrition":14906,"Nationen":14907,"édition":14908,"toll":14909,"Sever":14910,"villes":14911,"géograph":14912,"hôtel":14913,"GO":14914,"pleinement":14915,"scene":14916,"télévision":14917,"Nich":14918,"cité":14919,"onger":14920,"reconnaissance":14921,"theme":14922,"agues":14923,"Veränder":14924,"colo":14925,"Spirit":14926,"1974":14927,"interpretation":14928,"subsequent":14929,"discover":14930,"Defin":14931,"stattung":14932,"wichtige":14933,"ATIONS":14934,"fellow":14935,"mouvement":14936,"horizont":14937,"cuisine":14938,"hne":14939,"essais":14940,"voc":14941,"folio":14942,"struktur":14943,"considerable":14944,"IVE":14945,"retard":14946,"Hold":14947,"jack":14948,"nol":14949,"illon":14950,"Marine":14951,"blank":14952,"revenue":14953,"extrême":14954,"EIB":14955,"Natürlich":14956,"banner":14957,"trend":14958,"Chamber":14959,"Something":14960,"hou":14961,"consent":14962,"führte":14963,"donnée":14964,"Madam":14965,"wusste":14966,"Wall":14967,"meister":14968,"Monat":14969,"Presse":14970,"masse":14971,"nungs":14972,"geboren":14973,"pore":14974,"graves":14975,"corner":14976,"operators":14977,"Gran":14978,"enseign":14979,"Certains":14980,"antwortung":14981,"renew":14982,"Künstler":14983,"##":14984,"Vier":14985,"kür":14986,"sumé":14987,"...)":14988,"Relations":14989,"voire":14990,"firms":14991,"Staat":14992,"schreiben":14993,"gauche":14994,"nette":14995,"sides":14996,"gebiet":14997,"rige":14998,"panel":14999,"Details":15000,"Besucher":15001,"Kam":15002,"LT":15003,"Ost":15004,"Vas":15005,"deploy":15006,"contenant":15007,"shor":15008,"Abschnitt":15009,"durchgeführt":15010,"actuel":15011,"atrice":15012,"jap":15013,"inser":15014,"geeignet":15015,"...\"":15016,"dimensions":15017,"rub":15018,"céré":15019,"putting":15020,"utilisée":15021,"IPO":15022,"indicateurs":15023,"ANNEX":15024,"Lam":15025,"Ol":15026,"snow":15027,"twice":15028,"stages":15029,"sida":15030,"ONG":15031,"Mitte":15032,"iano":15033,"Rule":15034,"Publications":15035,"flexible":15036,"prüfen":15037,"Pension":15038,"Forschungs":15039,"architecture":15040,"routes":15041,"lager":15042,"comporte":15043,"ambi":15044,"fees":15045,"organic":15046,"europa":15047,"closer":15048,"universe":15049,"Versand":15050,"accueil":15051,"Bl":15052,"kla":15053,"vert":15054,"Schritt":15055,"vorbei":15056,"researchers":15057,"commentaires":15058,"Urlaub":15059,"gewöhn":15060,"WTO":15061,"sinn":15062,"lob":15063,"exports":15064,"allé":15065,"managers":15066,"anderes":15067,"énergé":15068,"suggested":15069,"(-":15070,"esty":15071,"jeweil":15072,"rufen":15073,"stimul":15074,"crédits":15075,"Beschreibung":15076,"dil":15077,"ius":15078,"windig":15079,"ulté":15080,"phones":15081,"ISCH":15082,"allowing":15083,"brauche":15084,"teams":15085,"Trois":15086,"véhicule":15087,"teuer":15088,"verdam":15089,"ihres":15090,"putation":15091,"clock":15092,"wohnung":15093,"Must":15094,"permission":15095,"Gewin":15096,"maintained":15097,"pouvant":15098,"Webseite":15099,"Wood":15100,"Polizei":15101,"länder":15102,"unités":15103,"procès":15104,"absol":15105,"commis":15106,"Städ":15107,"aker":15108,"communes":15109,"socio":15110,"Ruhe":15111,"Rent":15112,"exac":15113,"INC":15114,"helps":15115,"rifft":15116,"Gest":15117,"accompan":15118,"trends":15119,"Partie":15120,"Monitor":15121,"360":15122,"procéder":15123,"Strom":15124,"chat":15125,"verlassen":15126,"titudes":15127,"engaged":15128,"moral":15129,"delà":15130,"beschäf":15131,"Michel":15132,"Affaires":15133,"modifié":15134,"Award":15135,"IAL":15136,"MI":15137,"rist":15138,"récup":15139,"voilà":15140,"spie":15141,"gestützt":15142,"neuf":15143,"idées":15144,"Kommentare":15145,"Sul":15146,"din":15147,"Seig":15148,"fisheries":15149,"Zwei":15150,"label":15151,"sibly":15152,"Arts":15153,"zeiten":15154,"jointe":15155,"funded":15156,"Beitrag":15157,"Ble":15158,"Run":15159,"seur":15160,"fordern":15161,"imposed":15162,"duration":15163,"papier":15164,"Dienstag":15165,"ancien":15166,"Japanese":15167,"perspectives":15168,"chimiques":15169,"Fais":15170,"envers":15171,"aner":15172,"unmittel":15173,"desire":15174,"lok":15175,"plätze":15176,"directed":15177,"substitu":15178,"UNIT":15179,"easier":15180,"?(":15181,"Hoff":15182,"LI":15183,"Lü":15184,"gif":15185,"hoffe":15186,"nose":15187,"puissent":15188,"Medien":15189,"appell":15190,"deutschen":15191,"française":15192,"identité":15193,"aufrufe":15194,"pielsweise":15195,"herein":15196,"partis":15197,"seeking":15198,"freien":15199,"Produktions":15200,"Capital":15201,"weltweit":15202,"luxury":15203,"ICEF":15204,"Kim":15205,"tire":15206,"lev":15207,"semi":15208,"nucléaires":15209,"veröffentlicht":15210,"PD":15211,"cac":15212,"gérer":15213,"toler":15214,"préhen":15215,"pensais":15216,"Deutsche":15217,"Wissenschaft":15218,"Investment":15219,"bless":15220,"pair":15221,"uß":15222,"eto":15223,"excl":15224,"Verb":15225,"Fortsch":15226,"bonnes":15227,"engineering":15228,"Fotos":15229,"Game":15230,"Niger":15231,"ample":15232,"poss":15233,"calculated":15234,"fassung":15235,"pricht":15236,"stabilité":15237,"aka":15238,"Photos":15239,"Pendant":15240,"ètre":15241,"decor":15242,"proche":15243,"découver":15244,"ribution":15245,"continent":15246,"Umgebung":15247,"fordert":15248,"enquêtes":15249,"libér":15250,"Kommissar":15251,"CAR":15252,"Hear":15253,"Liz":15254,"keiner":15255,"sad":15256,"éni":15257,"dients":15258,"servation":15259,"Sehr":15260,"entretien":15261,"ishing":15262,"smaller":15263,"sujets":15264,"genannt":15265,"Viens":15266,"devi":15267,"Schule":15268,"meters":15269,"Studien":15270,"shopping":15271,"détails":15272,"trauen":15273,"yesterday":15274,"Kaffe":15275,"retail":15276,"explan":15277,"trees":15278,"Anwend":15279,"fondée":15280,"recognize":15281,"therapy":15282,"Word":15283,"aise":15284,"pire":15285,"tôt":15286,"adverse":15287,"outstanding":15288,"Leon":15289,"Verbraucher":15290,"arrêt":15291,"indispens":15292,"believed":15293,"nieder":15294,"Seiteaufrufe":15295,"Brux":15296,"Königreich":15297,"tâches":15298,"Dos":15299,"gift":15300,"ibilité":15301,"loan":15302,"boss":15303,"höch":15304,"Seigneur":15305,"Ice":15306,"rive":15307,"speech":15308,"Andre":15309,"professionnel":15310,"witness":15311,"dépôt":15312,"Hungary":15313,"leaves":15314,"lax":15315,"grad":15316,"marriage":15317,"ütz":15318,"allerdings":15319,"historic":15320,"Rose":15321,"révé":15322,"détru":15323,"fohlen":15324,"Alliance":15325,"tested":15326,"INT":15327,"nomination":15328,"suspension":15329,"fashion":15330,"déclarations":15331,"pull":15332,"igner":15333,"stead":15334,"Schri":15335,"ariats":15336,"effiz":15337,"Stay":15338,"Amendement":15339,"phr":15340,"manger":15341,"guest":15342,"inks":15343,"affich":15344,"Personne":15345,"Facil":15346,"SN":15347,"Youn":15348,"glaub":15349,"laying":15350,"acco":15351,"appen":15352,"Index":15353,"Sloven":15354,"relief":15355,"ziehungen":15356,"Bruxelles":15357,"pig":15358,"raw":15359,"ultimate":15360,"Instal":15361,"endlich":15362,"Restaurants":15363,"Nombre":15364,"attempt":15365,"Zwischen":15366,"Notice":15367,"Quality":15368,"providers":15369,"Direct":15370,"Kommunik":15371,"transportation":15372,"rép":15373,"Geist":15374,"supplement":15375,"showing":15376,"arrivée":15377,"reliable":15378,"souligné":15379,"Mother":15380,"vivant":15381,"embr":15382,"pourrais":15383,"großer":15384,"zweite":15385,"interprétation":15386,"Governments":15387,"enfin":15388,"Schne":15389,"Regionen":15390,"intermédiaire":15391,"Still":15392,"invo":15393,"118":15394,"Gemeins":15395,"afft":15396,"alism":15397,"namely":15398,"considéré":15399,"Criminal":15400,"actif":15401,"wire":15402,"tube":15403,"cock":15404,"passt":15405,"mini":15406,"oller":15407,"handlungen":15408,"inois":15409,"installed":15410,"Tanz":15411,"caux":15412,"adress":15413,"diesel":15414,"stit":15415,"ATA":15416,"twenty":15417,"fournisseurs":15418,"sozialen":15419,"Evaluation":15420,"ehr":15421,"tol":15422,"Ref":15423,"entsprechend":15424,"Terrasse":15425,"papers":15426,"saved":15427,"Sarah":15428,"Democratic":15429,"Rio":15430,"somm":15431,"aron":15432,"peg":15433,"opéra":15434,"Heim":15435,"Schatz":15436,"clas":15437,"qualifications":15438,"utilisant":15439,"huit":15440,"Presidency":15441,"gemeinsame":15442,"familiar":15443,"3F":15444,"SW":15445,"lons":15446,"Konferenz":15447,"Aux":15448,"Class":15449,"coeur":15450,"Requ":15451,"sterben":15452,"armée":15453,"Durchführung":15454,"mutual":15455,"échéant":15456,"enden":15457,"gelt":15458,"2020":15459,"comfort":15460,"paralle":15461,"Verpflich":15462,"matéri":15463,"Norway":15464,"Amts":15465,"heureux":15466,"flü":15467,"Spieler":15468,"Appendix":15469,"Bye":15470,"Themen":15471,"cript":15472,
[...]
